#version: 0.2 - Trained by `huggingface/tokenizers`
Ġ t
Ġ a
i n
r e
h e
o n
t i
e n
e r
Ġ s
Ġt he
Ġ o
Ġ c
a l
e d
Ġ p
e s
o r
a t
Ġ in
a n
Ġ w
Ġa n
i s
Ġo f
Ġ m
i t
ti on
r o
Ġ d
Ġ f
a r
Ġ b
a s
Ġan d
i c
in g
l e
Ġ (
en t
Ġ e
Ġ re
Ġt o
u s
e l
a tion
o m
a c
Ġ h
Ġ n
e c
Ġt h
u l
o l
Ġ l
e t
u r
o s
i g
u n
i d
v e
i m
Ġ g
l y
e re
it h
i l
â Ģ
c e
t he
t h
t r
Ġf or
Ġ 2
re s
Ġ 1
t er
Ġw ith
Ġa l
a m
Ġa s
a b
o w
Ġc on
a ti
Ġ v
Ġs t
t s
Ġp ro
Ġ is
u t
u c
o d
u m
a g
i f
0 0
ti c
o t
it y
Ġ r
e m
Ġ on
o c
v er
a d
Ġb e
Ġe x
s e
at ed
u d
s t
s i
i r
Ġw as
o p
m ent
) .
Ġth at
at e
Ġw ere
t ed
a in
q u
o g
u re
a p
an d
r i
u p
Ġc om
ï ¬
0 1
el l
Ġa c
Ġo r
ro m
a y
Ġb y
Ġ us
Ġ [
c h
ic al
p l
Ġa t
es s
Ġa re
an t
Ġre s
Ġd e
ent s
Ġc h
o re
âĢ ĵ
in e
d i
u b
ï¬ ģ
er s
v el
un d
Ġd is
Ġw h
i es
Ġ he
f or
Ġf rom
p or
as e
Ġth is
c l
Ġs e
a re
ig h
Ġ 3
the r
Ġ im
ab le
p ec
u g
p ro
Ġst ud
Ġa d
f f
) ,
si on
i b
p er
Ġe t
i p
Ġcom p
t e
en ce
] .
Ġs h
ig n
v i
ation s
Ġ le
Ġt r
i z
d uc
Ġw e
y s
g e
Ġp re
o us
Ġ 0
Ġ k
Ġn e
en d
Ġp er
t o
Ġ2 01
Ġn ot
ti ve
Ġ it
Ġc ell
on s
ag e
w e
Ġ Ġ
Ġc o
es t
ic h
Ġp ati
p h
ac t
i al
Ġg en
ere n
Ġp ar
an s
tion s
c om
i v
p res
ol og
i a
ar y
o f
f eren
a ve
p t
Ġas s
Ġc l
for m
Ġ 4
âĢ Ļ
is t
Ġs c
y p
Ġ un
an ce
Ġc an
Ġ 5
v id
Ġa p
o ur
en ti
d e
Ġ .
1 0
p le
t ro
le c
or s
al l
Ġd if
he r
os t
ar i
Ġd i
ec t
a k
Ġg ro
en c
Ġin ter
Ġm e
ati ve
al ly
u e
Ġa b
ac h
Ġ y
¿ ½
ï ¿½
ti v
i on
Ġh ave
at a
as ed
Ġpati ents
Ġ =
Ġal l
Ġwh ich
re at
Ġstud y
il l
Ġs y
ul ar
Ġp l
Ġin c
we en
c ri
e ar
on g
Ġb et
re n
Ġs ign
s o
as t
Ġp h
Â ł
Ġm od
igh t
Ġan al
Ġm et
Ġcon s
Ġ j
v al
if ic
or y
Ġ Â
d ing
Ġm an
Ġ en
ti m
ul d
os e
v ed
Ġthe se
Ġw he
Ġo b
Ġa r
al th
b er
c on
Ġs ub
. ,
Ġdif feren
cl ud
Ġm ed
Ġ2 00
por t
1 2
l ow
Ġbet ween
Ġsh ow
Ġre g
ug h
n a
Ġ 6
as s
u al
at es
Ġe ff
Ġd ata
oc i
ul t
c ent
Ġgro up
Ġp res
p on
p ar
Ġcell s
f ig
e w
e x
m s
c o
t ain
on e
Ġs tr
ï¬ģ c
ar d
om e
1 1
m o
Ġal so
Ġs am
Ġn o
at h
a il
c ess
d ic
v en
an g
Ġus ing
il ity
c t
Ġ qu
Ġre l
Ġ ro
Ġs pec
Ġbe en
o und
Ġh as
Ġus ed
â Ī
t en
m in
Ġm ore
Ġanal ys
Ġc or
o od
Ġa f
p os
Ġb i
el y
u th
Ġo ther
g en
Ġtr ans
ul ts
w o
uc h
i ti
Ġthe ir
o ut
Ġp r
Ġs ur
Ġthe re
Ġhe alth
Ġd et
Ġt im
und er
tro l
Ġinc re
at er
Ġ âĢ
Ġin f
g r
un c
re e
or k
te in
Ġb o
s er
o b
re d
Ġp os
c or
n e
Ġm ay
a us
1 5
1 3
tion al
Ġc ol
as es
Ġth an
c es
Ġle vel
an ts
ul ation
reat ment
ec h
Ġv ari
Ċ Ġ
ĠÂ ±
Ġd es
% )
Ġs p
c er
Ġ1 0
id e
2 0
Ġpar tic
Ġ 7
1 4
Ġ i
ec ts
r ap
at ing
ro s
u res
tr ib
olog y
e p
Ġv al
Ġin clud
y l
m un
1 9
Ġa g
u tion
2 01
i ver
t al
b r
Ġa m
i ed
Ġh ow
ar ch
Ġ under
Ġmod el
Ġon e
en s
ac k
st em
he d
Ġaf ter
âĪ Ĵ
Ġt wo
Ġh igh
Ġb ut
Ġs up
m al
vel op
Ġ 9
ol low
ic e
d s
ec tion
pres sion
Ġb l
i k
h od
il d
ur ing
Ġm o
1 6
Ġin v
Ġe ach
Ġo ut
Ġstud ies
Ġ ï¬ģ
Ġo ver
re l
m e
tiv ity
Ġ1 9
e ver
are d
a v
i le
Ġn um
u es
w ith
Ġanalys is
d er
ar g
l es
c ur
Ġl ow
Ġcl in
Ġ 8
ac e
o uld
vel y
1 8
Ġtim e
Ġcon trol
Ġt reatment
Ġus e
b le
ĠĠ ĠĠ
it e
Ġass oci
t ing
2 5
Ġs im
1 7
Ġ id
ere d
Ġpro tein
al s
Ġc ar
Ġd ec
Ġme as
ac ter
ay s
m ed
s y
Ġbo th
Ġs uch
b e
ear s
Ġex per
iz ed
Ġf ollow
o x
por ted
Ġan ti
on d
Ġs er
duc tion
i ï¬ģc
Ġf act
c r
s tr
an ge
Ġdis e
in al
n al
m on
t able
Ġh ad
Ġre se
Ġo p
r ic
Ġde velop
a f
ific ant
ï¬ Ĥ
Ġres ults
Ġsy stem
olog ical
5 0
yp e
s c
i tion
ati c
tic al
is k
l is
Ġm in
m a
Ġm on
Ġap pro
duc ed
Ġthe y
os is
Ġon ly
ment s
ation al
Ġd r
Ġo ur
uth or
p end
f ore
s h
p e
Ġpro vid
ab ility
al e
n ow
Ġe m
3 0
pl ic
Ġgen e
Ġnum ber
ec ted
Ġmet hod
Ġf unc
f er
Ġper form
i um
2 4
og en
an c
Ġd uring
Ġrese arch
Ġdifferen t
o in
vi ew
p re
Ġ up
Ġc r
Ġpres ent
Ġclin ical
it ed
Ġhow ever
Ġwh o
ag n
he n
Ġid enti
at ure
s ity
Ġm ost
is s
Ġt est
Ġres pon
Ġgen er
Ġob ser
Ġn on
Ġwhe n
Ġin di
ti t
it s
uc t
Ġin to
Ġ es
at ory
Ġb r
i tive
o ugh
2 3
Ġpartic ip
ar k
Ġex am
h y
l ic
Ġsign ificant
Ġf ound
fig ure
is e
Ġd o
i an
Ġg l
Ġa v
2 2
cri pt
Ġcomp le
res s
enc y
y m
aus e
âĢ Ŀ
Ġf r
Ġm a
ro ugh
Ġin s
Ġw ork
b i
Ġin dic
Ġw ell
Ġs ec
u ro
Ġp ol
ac tion
ter n
Ġa ge
Ġr isk
er y
ut e
Ġc y
iz ation
di tion
t in
0 5
Ġdise ase
t t
h a
ce pt
he m
ti l
Ġmeas ure
Ġh ig
i e
p s
h ib
l ed
tic s
Ġ end
p a
vid ual
Ġy ears
Ġman us
Ġlevel s
w h
vi ous
in es
4 0
Ġit s
Ġass ess
ug g
form ation
Ġp ub
Ġn or
Ġf e
g ro
m an
ur ther
i x
Ġm ic
Ġ u
Ġch ild
Ġg r
2 6
Ġex pression
l u
ati s
Ġp op
2 7
Ġre ported
ol d
i ve
Ġpati ent
2 8
ag es
re g
s pec
Ġp ath
2 00
Ġ if
Ġc are
il ar
Ġo c
2 1
Ġc ent
Ġin t
ti es
it al
Ġw ill
p r
] ,
enti al
pl es
Ġpro cess
Ġs ome
k s
Ġh um
m et
n o
iv ed
an e
us t
Ġl oc
Ġth ree
2 9
b in
Ġcomp ared
cent r
Ġfor m
Ġmanus cript
iz e
ad e
Ġb ec
Ġs o
qu i
Ġh y
i ons
Ġc ur
f ic
Ġcan cer
Ġc al
1 00
Ġ Î
Ġd em
ren t
p ati
Ġeff ect
w w
Ġwith in
ad i
Ġm ul
em ent
Ġwhe re
Ġm m
Ġassoci ated
ul ated
n ess
k e
Ġ ï¿½
tain ed
Ġch ar
Ġ <
er g
Ġme an
Ġshow n
b ed
Ġs et
Ġan y
pres s
ĠâĢ ľ
ur al
it er
c i
Ġco uld
enc es
Ġf ig
o ther
si ve
Ġp ot
ak e
Ġim port
w as
Ġs ugg
Ġt ri
od y
val u
Ġhig her
Ġdes cri
o id
Ġav ail
b y
p tion
w ere
re ct
Ġf urther
o res
3 3
ech n
ti vely
i i
an is
Ġcons id
i ly
in s
Ġindi vidual
Ġac tivity
res pon
Ġ z
f ul
ĠâĢ ĺ
Ġth ose
Ġgroup s
v ir
pres ent
ir st
un g
Ġth rough
Ġs m
Ġb ased
Ġdet er
Ġp e
v es
iti es
trib ution
os p
en g
ros s
n ing
Ġ &
us ion
Ġ ed
. .
Ġe v
ti g
ĊĠ ĊĠ
Ġpr im
Ġm em
arg et
3 5
r on
Ġk now
c ell
9 5
ar t
n ot
iver sity
om en
Ġsim ilar
ent al
3 6
Ġpre vious
Ġar tic
Ġt er
d is
Ġb as
Ġl ik
ate g
Ġeff ects
ons tr
lis hed
b l
x im
Ġco un
Ġincre ased
Ġdi agn
3 4
or t
Ġe p
si ble
in ding
th at
Ġexper im
k ing
ic s
Ġobser ved
al ity
i qu
Ġto tal
6 0
a w
Ġse qu
Ġm ain
Ġin de
Ġim mun
Ġthe rap
00 0
Ġne w
og rap
Ġl im
ang es
an ti
d r
o ver
3 8
Ġsy n
Ġavail able
ain ing
le ar
th s
3 7
am et
Ġ2 0
pend ent
c re
Ġhum an
Ġt um
th is
Ġab out
Ġne ed
Ġperform ed
ple ment
or g
in d
Ġparticip ants
ec tive
c us
Ġsh ould
re qu
Ġstr uct
Ġchar acter
Ġf irst
Ġe valu
lec ted
Ġin formation
Ġst and
Ġ1 2
Ġp ost
Ġv ol
Ġt iss
ï¿½ ï¿½
o v
l ine
ha vi
Ġfact ors
Ġwh ile
i od
Ġd ue
Ġidenti f
4 5
Ġmul ti
Ġm g
i ent
8 0
se qu
am m
Ġa uthor
Ġres pec
en e
Ġr ate
Ġ1 5
m c
Ġrespon se
Ġshow ed
Ġam ong
Ġs ol
Ġthe n
at ely
et y
Ġw ould
Ġl ong
Ġimport ant
ain s
Ġbl ood
* *
Ġsam e
ar m
Ġim pro
iï¬ģc ant
op h
Ġin hib
Ġv is
m od
par t
Ġm ut
Ġcomp ar
Ġm or
Ġc ases
b ased
og n
Ġfunc tion
00 1
Ġe ar
Ġinclud ing
re ated
Ġval ues
Ġmed ic
r y
Ġpre dic
tr ac
Ġt able
Ġun iversity
Ġcon centr
Ġmic ro
oin t
Ġsam ples
p age
Ġinv ol
Ġre qui
oc y
st ud
3 9
Ġdevelop ment
Ġartic le
Ġe l
Ġt echn
pt om
Ġc ase
as c
Ġdr ug
ut ed
Ġt arget
Ġgro w
el f
ti s
cor ding
es ted
Ġgen es
Ġcal c
Ġd id
if e
sy ch
in ter
in ed
Ġse ver
t y
Ġc ap
Ġres ult
b o
3 2
Ġsc i
h ip
d ed
Ġmed ical
Ġc d
Ġfollow ing
c a
Ġre view
Ġsub j
Ġpop ulation
t ent
Ġout com
ar ge
Ġchild ren
n s
3 1
Ġsy m
Ġde f
l d
ĠĠĠĠ ĠĠĠĠ
4 4
a x
9 9
oc k
Ġre m
Ġsec ond
f rom
c op
Ġsm all
Ġp ers
/ /
Ġe vid
Ġac id
7 0
in k
Ġad dition
Ġex pl
Ġbec ause
c ed
Ġes tim
Ġor g
re c
Ġa ff
o ol
: //
is ed
yp es
ing le
Ġincre ase
tr ans
ical ly
Ġlow er
Ġ %
âĢ Ķ
m l
9 0
a z
Ġsam ple
Ġqu es
or d
Ġinv es
Ġst atis
di tions
c le
Ġt ype
Ġm ech
g l
Ġt em
Ġ er
are n
c s
Ġinclud ed
osp ital
rel ated
w ork
le v
Ġ3 0
d es
j or
oc ial
Ġm at
i el
Ġm ice
7 5
4 8
Ġmethod s
Ġin iti
z ed
ven tion
Ġl ab
Ġch anges
Ġbe havi
ac y
m it
ce ived
re en
Ġp a
m is
un t
Ġac tiv
es ts
Ġf am
Ġd el
s is
tr ic
en si
um e
Ġper iod
ce p
Ġh yp
st and
Ġl ess
Ġwe e
Ġinves tig
Ġpro t
f r
Ġ201 4
in ation
e ff
m ore
Ġle ad
Ġro le
is tr
he s
Ġs ch
Ġnor mal
ow n
feren ce
Ġstand ard
ab les
vir on
Ġdec re
Ġpar t
Ġcur rent
4 6
ab ol
ver age
Ġmo lec
a uthor
w ard
is ion
Ġ201 3
tr a
Ġre c
Ġsign iï¬ģcant
d u
Ġr at
Ġl ine
Ġoc cur
Ġsur g
n er
tt p
it es
Ġac cess
Ġp at
Ġcon f
Ġre present
Ġv i
Ġap p
Ġpr ac
g ative
Ġf requ
Ġh ist
Ġw omen
4 7
th ough
om a
gro up
w ay
Ġre cent
Ġin j
Ġf ac
Ġy o
Ġth us
Ġv er
Ġman y
Ġm ark
ous e
Ġpot ential
Ġph ys
Ġim p
Ġs ize
ain ed
5 5
Ġval ue
Ġthere fore
at or
Ġd ays
gr am
Ġ201 5
os ph
i or
b s
Ġdifferen ces
d ro
it her
Ġ x
Ġevid ence
iv en
Ġcom mon
Ġp ri
Ġm al
c c
Ġcl ass
ag ing
in f
Ġm y
Ġ201 2
4 9
ð Ŀ
ater ial
ï¬ģ ed
Ġ1 6
is m
it or
Ġt e
Ġs ingle
f t
Ġcom mun
en se
Ġdescri bed
Ġv ir
a e
Ġpos itive
Ġtiss ue
Ġd na
Ġ1 8
Ġmon ths
Ġf our
te x
y n
Ġdes ign
Ġma jor
d o
Ġc a
el ine
om ic
Ġwith out
Ġdem onstr
o the
f ace
Ġ ir
4 2
an al
Ġe qu
Ġcon ditions
Ġor ig
om et
ar c
Ġo x
on al
Ġcomple x
Ġc ult
ver y
s p
Ġne uro
ent ly
Ġst at
9 8
Ġd om
Ġ201 6
Ġg u
ic k
6 5
os s
Ġl o
Ġp ur
Ġmodel s
er c
er ation
res sion
ï¬ Ģ
Ġal though
Ġe lec
Ġan im
Ġspec ies
) ;
u ally
Ġexper i
Ġdeter min
Ġbe ing
our nal
Ġch ange
el s
lec tion
Ġ1 1
du ce
Ġw or
Ġb el
Ġsever al
Ġh ospital
u ff
Ġprotein s
Ġex pos
ac c
ys is
Ġg reat
t es
r al
Ġsym ptom
Ġob tained
ar di
Ġ ï¬Ĥ
Ġop en
com p
n or
Ġsup port
4 1
4 3
c y
Ġl ife
g n
Ġl arge
Ġk e
s ub
Ġb re
Ġn et
b ers
Ġprim ary
Ġr ange
in ce
pati ents
Ġanal y
part ment
Ġcom bin
v ing
6 7
Ġbe fore
Ġrespec tively
di tional
Ġres p
Ġs tim
Ġfact or
Ġp sych
oc us
Ġprovid ed
o k
s ure
v ari
Ġsc ore
Ġ +
Ġrel ated
Ġgrow th
p ri
it ation
Ã Ĺ
and om
Ġtherap y
Ġc aus
Ġ201 1
c an
ere st
d om
b et
uc le
ul ations
9 7
viron ment
Ġ5 0
asc ular
he l
Ġ âĢĵ
g g
om y
Ġfig ure
d if
Ġab s
Ġmech anis
Ġsign al
Ġcor rel
ap p
ograp h
i at
st e
is h
Ġpl as
Ġpos sible
u k
press ed
o ve
Ġd ay
Ġcon tr
c ol
h ol
tain ing
ul l
Ġf em
ve ment
9 6
Ġgener al
Ġ2 4
is ts
Ġac cording
Ġpro per
Ġg iven
h ttp
o h
Ġdis tribution
Ġpro duc
Ġcar di
Ġspec ific
âĢ ¢
is on
s up
ver se
Ġqu ality
Ġr ati
Ġs l
Ġpub lic
Ġall ow
Ġs ocial
Ġreg ion
ic es
m ic
5 7
Ġ1 4
Ġus a
u tr
ations hip
med i
Ġear ly
Ġdi rect
c ons
Ġpartic ular
Ġad v
ure d
Â ±
f act
Ġexam ple
Ġconsid ered
Ġthe m
ro p
ter s
c d
Ġ1 00
s ign
Ġs k
Ġ -
Ġv ery
ro w
is tics
Ġappro ach
ac tions
Ġwhe ther
Ġ1 3
Ġloc al
oc h
as ing
Ġlik ely
Ġst ress
l ik
Ġ2 5
i er
an n
Ġmet abol
Ġe th
Ġa ut
wh ich
6 8
Ġag ain
Ġbr ain
tim e
h yl
Ġc he
Ġsugg est
Ġp ain
Ġcon duc
r s
op le
Ġtum or
5 3
Ġor der
am in
uth ors
cl usion
Ġm en
am e
Ġre port
Ġpat tern
Ġw ater
Ġpar amet
Ġ201 0
es sion
Ġre cept
ve re
Ġp o
Ġmulti ple
g f
ati vely
Ġ201 7
Ġe ven
Ġmeasure d
Ġpres ence
a ff
v ol
Ġ il
Ġc i
Ġr adi
ak ing
Ġb ody
Ġpro gram
6 6
Ġsignificant ly
8 8
s et
Ġare a
Ġm us
ag ement
Ġe ither
res ults
Ġdifferen ce
Ġpro f
if ied
Ġmedic ine
Ġcons ist
ti ce
c al
Ġac ross
Ġhe l
l and
ĠÎ ¼
tic ally
ww w
trib uted
at al
Ġpro ble
Ġc ir
Ġhy per
ur ation
Ġint erest
Ġanalys es
5 8
Ġwe ight
Ġpri or
g o
Ġindividual s
d ata
ul es
Ġs elf
Â ·
5 6
Ġanti b
Ġm ight
Ġf inding
Ġse x
com m
op er
Ġcr iter
Ġm l
te gr
o y
Ġinf ection
Ġpub lished
Ġ1 7
v ent
em s
pl ied
ing s
Ġp hen
Ġdis cus
Ġv s
he re
Ġques tion
us tr
Ġ â
Ġser v
tin u
in c
Ġle ast
Ġf ocus
con trol
t a
Ġins tit
end ed
Ġn ec
cl in
it ro
Ġre duced
Ġorg an
am p
form ed
Ġter ms
id ence
Ġfam ily
Ġknow n
ve al
Ġpro ced
l as
Ġne gative
Ġ q
m at
Ġl oss
7 8
u it
Ġdiagn os
Ġat t
Ġmed ium
Ġdiagn osis
Ġd at
j ect
hem ical
Ġhe r
the re
Ġtr a
Ġr andom
i re
Ġg o
w are
Ġprovid e
Ġo l
ro ph
led ge
Ġprevious ly
iel d
Ġa uthors
Ġr ates
ap y
stud y
Ġs ensi
Ġrel ationship
est ab
Ġad j
Ġsur vi
Ġis ol
r a
mis sion
Ġd er
9 3
Ġsubj ects
ot ype
por ts
t est
Ġ200 9
Ġs us
Ġ |
Ġsymptom s
r na
Ġc re
me an
Ġstat us
Ġassoci ation
0 2
se e
Ġstr ong
Ġd ose
f unc
Ġed uc
6 4
d a
Ġn m
Ġm aterial
ore d
7 7
r st
8 5
l o
Ġs ince
.. ..
u le
bet ween
pos ed
Ġpe ople
ons es
an ces
w ays
pec ted
ist ance
Ġre f
9 4
our s
l og
ol es
t ot
Ġs w
Ġ ill
Ġp aren
our ce
Ġin ten
in a
eng th
Ġen vironment
er v
Ġs um
clud ed
Ġa verage
ic i
c are
ib le
ab ly
Ġvol ume
Ġd a
ron ic
n ed
Ġsc ale
Ġstr ateg
Ġt reated
nor mal
l ess
ol ution
at ures
Ġh iv
Ġre cor
iv ing
Ġph ase
Ġof ten
Ġpro b
m i
Ġc lear
Ġb ar
Ġf ood
id s
al es
Ġab ove
par tic
Ġrati o
Ġcoun tr
Ġpresent ed
Ġcomp on
Ġgene tic
ap s
is tic
an k
t reatment
y r
Ġdis t
Ġ ÃĹ
le vel
s d
he alth
5 1
Ġs uc
9 2
er ic
s ur
Ġsur ve
t ure
8 6
l ing
of t
l ation
5 4
Ġdifferen ti
5 2
f s
met hod
Ġy ear
er ing
ass oci
Ġcor respon
plic ations
Ġwee ks
Ġbi om
as k
iqu e
Ġsurg ery
Ġdi ab
od e
7 1
Ġcriter ia
Ġoutcom es
Ġbas eline
Ġ ent
Ġcon t
k now
ak en
t ype
c in
Ġvari ables
Ġstruct ure
m m
6 3
Ġsch ool
ul in
Ġcharacter istics
d ress
Ġsystem s
l amm
Ġc m
Ġnet work
z y
anc y
Ġsur face
Ġpro g
Ġover all
Ġtem per
Ġad min
Ġm ass
6 2
Ġl arg
ec tions
8 9
âĢ ĺ
g et
Ġcom m
Ġidentif ied
Ġst ate
Ġidentif y
Ġf lu
Ġre ad
Ġp ap
Ġconcentr ation
Ġ ur
Ġres id
Ġne ur
7 2
oin ts
Ġle ft
Ġsc ores
Ġad ditional
b ility
val ence
Ġ200 8
Ġre veal
ri ed
Ġl ip
Ġmolec ular
the se
Ġb ene
ific ation
Ġimp act
plic ation
m ost
Ġassess ment
anc ed
Ġf l
Ġs al
5 9
0 3
et es
ro und
om es
Ġï¬ģ rst
uro pe
6 9
Ġser um
Ġde ath
us e
Ġb acter
ul ate
Â °
Ġphys ical
d ay
Ġrequi red
ar r
Ġst ep
erg y
Ġagain st
in cre
d et
n um
Ġgreat er
6 1
ep ti
Ġj ournal
a h
es is
Ġb one
Ġen g
Ġsc reen
oc ol
Ġm ade
Ġinvol ved
t or
at ors
l ab
e f
Ġre pro
Ġactiv ation
Ġph osph
br ane
8 7
Ġfunc tional
d l
Ġrel ative
Ġ >
Ġe f
h old
Ġ ĊĠ
ial ly
our ces
m ine
im en
Ġdevelop ed
Ġorig inal
ðĿ ĳ
% ,
re ad
t on
Ġ Ċ
Ġexpos ure
pa ir
h ow
id es
Ġinclud e
ogen e
ib r
Ġm ix
Ġac h
Ġf ail
tal ity
g a
s m
Ġ9 5
Ġconduc ted
or der
Ġc ateg
ter m
lis h
Ġvari ous
cl us
Ġp oint
Ġs ite
Ġin tegr
Ġval id
ur y
Ġb inding
Ġtim es
p ol
b ack
Ġr ight
7 3
Ġlab or
ver s
Ġl ack
ic ity
Ġtri al
Ġse par
0 4
u tions
Ġt ypes
Ġtr aining
Ġunder stand
Ġs oci
w or
Ġm ir
pl oy
o tic
Ġs mo
Ġper cent
us ing
Ġh and
c um
y si
Ġinter vention
p ub
ab il
til l
de pendent
Ġp mc
ut es
i h
Ġwh at
t d
Ġ( %)
Ġtrans cri
9 1
enc ed
Ġï¬ģ n
Ġdise ases
Ġv ia
z e
Ġbehavi or
Ġdet ail
Ġu k
av ing
Ġresp onses
d ence
Ġl ater
ed ing
Ġer r
Ġcalc ulated
as on
Ġb ack
Ġsequ ence
f e
Ġ âĪĴ
Ġke y
Ġl iter
at in
Ġcontr ast
7 6
Ġan g
Ġmeas ures
Ġdemonstr ated
Ġtri als
Ġdetermin ed
h ave
Ġare as
Ġdo es
Ġis s
y es
Ġin ï¬Ĥ
Ġperform ance
Ġinf lu
dif feren
Ġl ic
Ġn ucle
7 4
Ġfinding s
Ġen h
h igh
Ġshow s
Ġdi et
ren ce
s s
p ut
Ġ ve
Ġm ar
Ġparamet ers
e u
8 4
c m
tex t
od ies
Ġc ogn
pl ant
s am
Ġse e
lik e
gro und
8 3
Ġ200 7
ow er
Ġinde x
Ġknow ledge
Ġinde pendent
Ġpro duction
ĊĠĊĠ ĊĠĊĠ
Ġach ie
7 9
Ġ estab
Ġph arm
Ġspec iï¬ģc
Ġl iver
Ġoutcom e
Ġ ul
Ġ4 0
ud e
Ġf ew
n on
Ġex pressed
o le
Ġa im
k g
on ic
tro duction
end er
Ġhy dro
Ġex t
Ġs he
Ġs ites
Ġre duction
Ġprac tice
b p
s ec
8 2
8 1
Ġcon trib
Ġsh ort
Ġcompar ison
Ġreg ions
anal ysis
ur s
ke y
Ġpres sure
Ġsurvi val
p ath
in ary
Ġle ar
Ġr na
ograph ic
Ġcent ral
Ġto p
ocy tes
Ġd oc
Ġse lected
Ġhe re
Ġincre asing
Ġfollow ed
Î ²
Ġch ronic
m ar
Ġl es
in duced
Ġre lev
Ġcons tr
ut ure
Ġre pe
n ational
do i
Ġassess ed
it ing
Ġcol lected
Ġm ac
Ġap plied
Ġim aging
Ġobser v
d ec
Ġto ol
ograp hy
Ġexperim ents
Ġcy t
l if
l a
af ter
Ġn ational
Ġac t
Ġco h
Ġfrequ ency
t le
Ġrecept or
Ġbet ter
Ġg er
vi ties
ane ous
ic ient
Ġan other
em ic
ac tive
us ed
i red
com e
Ġv ers
Ġ enc
y ear
as is
ex per
rom e
ap pro
Ġiniti al
Ġvis ual
enc ing
0 6
Ġs oft
Ġad dress
Ġt ests
pati ent
) :
ig g
Ġde pend
Ġre mo
clin ical
ag ed
Ġch rom
Ġstatis tical
Ġse vere
Ġlim ited
ter ior
Ġc op
pro tein
h s
Ġf at
Ġc ross
Ġgu id
Ġst age
Ġe urope
c k
fer red
Ġbre ast
Ġindic ated
s im
Ġs till
Ġma xim
Ġf und
Ġcorrel ation
Ġcon dition
Ġac tive
t ation
Ġd own
ens ity
Ġcontrol s
ord ers
re m
uc ose
Ġv acc
Ġinter action
Ġse en
Ġac cur
Ġanim als
Ġexperim ental
ï¿½ï¿½ ï¿½ï¿½
c ence
ti vities
ros cop
ym ph
Ġi i
Ġcommun ity
Ġex tr
Ġac co
Ġh om
Ġo per
Ġtest ing
et h
Ġdet ected
Ġt ested
sion s
Ġpre valence
em ia
or ies
Ġm s
tot al
Ġass ay
gen e
Ġb ir
Ġa mo
Ġab ility
Ġsyn the
201 6
r ing
ig r
Ġm it
Ġmin im
it u
um ent
Ġpro por
Ġreveal ed
me as
Ġev ents
im mun
n as
Ġhyp othe
Ġconcentr ations
Ġmor tality
Ġtemper ature
Ġ2 1
Ġ200 6
Ġcon tinu
Ġ6 0
Ġg e
Ġvi ew
Ġex trac
Ġhist ory
Ġf in
ob al
spec ific
cell s
Ġwhere as
w ell
Ġcl us
Ġman agement
Ġre comm
pri ate
l oc
Ġhigh ly
201 7
Ġl ung
Ġs n
p ose
em ber
iat ric
Ġl ink
Ġimpro ve
Ġhel p
ly ing
Ġm id
ĠĠĠĠĠĠĠĠ ĠĠĠĠĠĠĠĠ
Ġanaly zed
c ar
Ġpro m
Ġg ood
Ġvir us
Ġprot ocol
b re
Ġliter ature
Ġc at
Ġdeter mine
er al
e qu
c g
Ġhe art
num ber
i o
Ġm ale
er ate
Ġsub sequ
Ġd ys
Ġs ix
o ts
Ġc t
Ġl ength
Ġl ymph
Ġs af
0 8
Ġh is
Ġâ ī
in t
od es
Ġsup plement
Ġch all
Ġt ub
Ġset ting
istr ation
her s
Ġin str
Ġre le
an tit
Ġdiab etes
Ġg as
p ts
0 7
Ġ ic
Ġh a
g u
h r
Î ±
Ġsup er
Ġl og
op ath
Ġac ute
mod el
Ġc ri
Ġeduc ation
Ġre ceived
res ear
Ġreg ul
Ġvers us
Ġr ap
Ġsuc cess
Ġform ation
p at
Ġpl ace
Ġc ause
n f
Ġlic ense
associ ated
Ġplas ma
al f
Ġyo ung
man y
yn am
pos itive
u ary
co hol
Ġc er
Ġe le
ir d
iti s
ro l
de velop
d en
Ġcountr ies
Ġinter val
Ġp ul
l er
Ġres istance
Ġim plement
Ġfac il
Ġof f
ect or
Ġl ight
Ġt yp
ten tion
x i
Ġb ro
- -
Ġdecre ased
Ġar ter
Ġstim ul
Ġm uch
Ġpl ac
ar ding
Ġop tim
Ġcult ure
cep ted
Ġhealth y
Ġmechanis ms
Ġim ages
p ir
Ġc ost
oper ative
âĪ Ĺ
Ġaff ect
ogen ic
Ġeff ective
partic ip
ac hes
Ġyo u
Ġs d
Ġf ree
xim ately
m or
iz ing
Ġto x
Ġd am
u ts
Ġth ough
is ing
r am
Ġcent er
and s
Ġconsid er
Ġinhib it
Ġin tr
Ġindic ate
Ġpre gn
com ple
clud ing
Ġ200 5
Ġevalu ation
Ġfe atures
Ġ2 2
_ _
o th
b or
t ur
Ġt ur
func tion
Ġrec ogn
Ġad ap
ac tiv
Ġcomp ound
Ġdis tributed
le t
Ġhe ter
cur rent
Ġsol ution
Ġp an
ell ular
Ġpath way
ur se
Ġs em
Ġmus cle
lec t
Ġab le
Ġde partment
Ġcon taining
Ġpo or
Ġconsist ent
Ġf ull
p ite
Ġmem brane
Ġsub st
Ġprocess es
0 9
Ġch o
Ġcon text
Ġpl ay
Ġcon tent
Ġcomp os
Ġwee k
Ġrat her
ĠÂ ¼
et s
h um
ten sion
on es
Ġinc ub
Ġt aken
Ġdrug s
ch ar
Ġre duc
Ġl ast
Ġcogn itive
ven tions
Ġl ines
s k
ogen esis
f ac
a a
ne y
Ġfem ale
Ġlik e
Ġcon cer
Ġimmun e
Ġserv ices
an si
tric ted
istr y
Ġre ports
Ġg ly
l or
ti al
p o
y e
s w
Ġbi ological
p an
Ġre al
Ġf uture
Ġpol ym
Ġdet ection
pl ac
Ġd on
de partment
Ġem erg
t wo
t reated
Ġestim ated
Ġreg ression
Ġrelev ant
m g
Ġb ur
us ted
Ġpos ition
en z
201 5
Ã ©
pec ially
Ġex pected
a u
o ff
ren g
Ġexperim ent
Ġd iv
y ing
Ġnec ess
Ġex ist
Ġgen ome
Ġre ce
Ġen ergy
Ġelec tro
Ġcon n
y st
Ġsp e
method s
am ine
Ġanim al
Ġp oints
Ġdom ain
Ġph ysi
Ġsurve y
co very
v is
s a
Ġto ward
Ġv iv
is ted
Ġsensi tivity
Ġde g
how ever
Ġpol ic
Ġa x
Ġrequi re
Ġdel iver
Ġp ower
Ġre d
Ġsequ ences
Ġk in
Ġdis orders
l im
Ġob j
know n
Ġme ans
Ġl at
b id
Ġde v
Ġim age
Ġf il
f ollow
Ġf ib
Ġn at
Ġac tivities
Ġe c
pl ay
Ġcell ular
Ġh or
Ġp d
Ġcons um
Ġt ask
Ġm ouse
Ġpop ulations
Ġwor ld
Ġinter view
w here
Ġcoh ort
m ark
Ġlabor atory
Ġexperi ence
Ġsignal ing
ot or
h as
he st
Ġn an
Ġw id
Ġre ference
ac tivity
Ġn utr
Ġe very
op las
Ġdecre ase
Ġde ï¬ģ
Ġal tern
re ported
Ġcomple te
ther apy
Ġresult ing
ul a
Ġmut ations
l in
le x
Ġh ome
ag en
resear ch
Ġb est
al so
Ġpol y
Ġinj ury
Ġo w
gr ad
Ġs ection
b on
p op
Ġp epti
ub le
Ġquestion na
Ġon line
s on
âĢ ²
Ġpe ak
Ġ2 8
Ġf low
Ġw ay
Ġrat s
Ġbel ow
Ġpap er
Ġ /
Ġp cr
Ġh aving
Ġse lection
ic ation
n d
Ġre action
Ġconf ir
id ed
Ġmed ian
Ġst ar
Ġgl obal
Ġm ental
Ġsigniï¬ģcant ly
Ġs u
Ġgl ucose
Ġlim it
Ġevalu ated
Ġfurther more
hy dro
ol ic
Ġhe ad
Ġcon tain
Ġproble ms
igh ts
enti ally
m em
Ġf ive
cor respon
Ġdat ab
Ġinstit ute
ang ed
Ġlo ad
Ġv itro
b ec
eu tic
Ġinf lamm
Ġst ates
b ut
Ġproced ure
Ġmed i
le ep
Ġd os
Ġd uration
Ġr a
Ġother s
t osis
Ġwho le
fic ation
Ġsugg ested
Ġsecond ary
r h
Ġdef ined
Ġ2 3
Ġqu anti
Ġcl os
str act
od ing
Ġt w
f usion
p d
Ġass um
b a
Ġinter actions
m ay
Ġl ay
Ġsoft ware
p ers
Ġad ult
ob ser
l ong
d em
to k
âĢ ľ
Ġproper ties
stud ies
y o
Ġrecent ly
Ġs itu
Ġviv o
ond ri
t g
t em
Ġcre ative
Ġs ens
Ġal le
Ġexam ined
t c
Ġem ploy
Ġad ults
Ġs ide
Ġinter national
be en
an es
Ġs ource
id enti
l s
ag g
Ġit ems
Ġscreen ing
Ġantib ody
Ġam pl
Ġda ily
in di
i ous
erc ise
Ġal ong
Ġcon ï¬ģ
Ġsyn d
% ),
Ġdet ect
Ġ ess
ot ypes
Ġl td
Ġrespon d
Ġm ust
Ġcombin ation
ap e
re am
Ġmeasure ments
Ġre cr
pec t
os ts
Ġre duce
Ġu til
s uch
Ġ200 4
il i
op en
Ġin duced
ec tiv
Ġinc idence
Ġb u
Ġpattern s
Ġcon sequ
g or
p cr
s ch
Ġox id
Ġd ynam
Ġcir c
com bin
re ceived
Ġsci ence
sy stem
m y
Ġrap id
ater al
cl es
Ġlear ning
Ġpa ir
b as
the ir
s ed
el ines
f ied
b al
Ġc ere
ro ke
ist ered
** *
om al
Ġep id
och ondri
Ġvari able
Ġal cohol
Ġse g
Ġques tions
enc ies
y gen
Ġc all
p p
Ġdif fer
Ġelec tr
Ġpl ant
ot e
w hen
zy me
Ġre st
Ġd ensity
Ġcompon ents
dis cus
rec tion
Ġmechanis m
Ġol der
Ġad ded
Ġdif fic
th an
Ġob es
Ġm ake
00 01
Ġup on
as si
Ġerr or
iqu es
ater nal
Ġa ir
Ġh ours
Ġqu antit
Ġtr ansi
u ter
Ġdis s
Ġd ri
Ġw r
r isk
Ġep it
Ġpro lif
ri x
Ġproble m
Ġpro posed
m en
Ġabs ence
Ġpos si
ï¬ģc ation
Ġpre vent
Ġlarg er
Ġrecor ded
Ġdirect ly
Ġde pression
get her
Ġfail ure
d ise
Ġin tra
op e
Ġcy cle
bo th
ang u
Ġpers on
p c
Ġparticular ly
ac ity
Ġstud ents
Ġl ig
uc tion
Ġ3 7
Ġor al
Ġappro priate
Ġrel atively
Ġmor ph
Ġe as
p ared
Ġvari ation
ov ascular
con tent
uc lear
ol ar
Ġpl an
Ġunderstand ing
Ġa round
Ġtiss ues
y ro
Ġ201 8
Ġbi o
olog ies
in ant
pos ition
Ġcar ried
Ġper m
Ġto gether
Ġincre ases
Ġ %)
m ul
ak es
Ġidenti ï¬ģed
Ġ2 6
r ange
Ġï¬ģn ding
Ġin st
Ġes pecially
Ġmem bers
v a
d uring
n t
b ly
Ġo ste
Ġline ar
Ġh ar
sh ow
c he
Ġl it
Ġcol le
Ġreg arding
Ġstud ied
Ġcol lection
Ġa min
Ġe lev
Ġst reng
ari ly
th rough
ex t
Ġpl ate
p m
Ġst em
Ġpercent age
en ess
Ġpath ways
or ph
Ġrel i
Ġappro ximately
gor ith
n et
Ġt reat
ex pression
Ġreg ard
Ġneur ons
Ġl ist
Ġamo unt
Ġpropor tion
Ġs il
Ġaff ected
Ġsugg ests
Ġoc c
Ġf er
f a
Ġinvestig ated
Ġsam pl
Ġimpro ved
Ġpharm ac
st atis
Ġinter ventions
y ears
Ġinter pre
ox id
Ġse arch
ab stract
Ġde vi
Ġcorrespon ding
ĠÂ °
ment al
val ue
o ti
Ġsk in
Ġph ot
ch ild
Ġac tion
at s
Ġd en
Ġsci ences
Ġg ender
Ġmore over
Ġmon itor
st ate
Ġpre c
ul ted
Ġcomm ons
Ġno vel
spec iï¬ģc
Ġth ird
g al
Ġstatis tically
Ġmaxim um
x t
Ġinhib ition
m id
ul f
Ġcombin ed
br id
Ġins ulin
Ġstruct ures
al ing
as h
p oint
ï¬Ģ eren
ici ans
Ġneed ed
Ġe mo
Ġad he
Ġ200 0
t ered
Ġb al
Ġun til
Ġcardi ac
l i
Ġ2 7
Ġinï¬Ĥ u
Ġd ig
Ġspec ial
Ġcri tical
Ġth res
Ġsurg ical
Ġmem ory
p ed
we e
group s
hum an
Ġag g
Ġcol on
oc ardi
Ġstrateg ies
Ġfunc tions
Ġproduc ts
ĠÎ¼ m
Ġder ived
f old
Ġsci enti
p en
ar ing
Ġmet ast
c hem
sign ificant
et al
Ġdis tin
Ġantib odies
ign ed
Ġmajor ity
pr im
os ome
Ġsynd rome
ce ption
p v
Ġ ip
f l
Ġin d
Ġf ield
Ġev ent
cri bed
r up
iz es
Ġw ild
t ake
ass ess
Ġaf ric
Ġ enti
Ġdam age
Ġr un
Ġdes pite
wor ds
Ġb ri
uff er
Ġhig hest
i ï¬ģed
Ġac cepted
Ġex hib
Ġm igr
Ġdi ver
Ġre nal
e g
ac ts
Ġgener ated
Ġh ip
Ġs leep
Ġc hemical
t um
ĠÂ µ
Ġmark ers
Ġnum bers
in cluding
.... ....
lab or
Ġco urse
Ġf inal
ell ing
Ġstr ain
Ġver sion
Ġinter nal
Ġp or
pl as
Ġdiagnos tic
Ġc ut
f ree
p i
Ġstr ains
Ġdec ision
mit ted
ul ating
f ron
Ġrese arc
Ġm rna
Ġne ar
Ġprovid es
t ors
Ġc am
oc al
spec tive
p ost
ch ange
Ġappro aches
n m
Ġisol ated
r ay
on ly
s or
j ournal
et er
alth ough
Ġcaus ed
qu e
r m
c at
ores cence
el d
Ġre ason
Ġ200 3
Ġperm its
Ġbir th
pro cess
em i
Ġbi ology
Ġacco unt
Ġ iv
Ġshow ing
c v
r t
Ġbl ock
ot yp
201 3
Ġ3 5
Ġem br
Ġpro duced
Ġm ill
Ġav oid
Ġ9 0
Ġrele ase
w ise
exper im
f am
p ot
Ġdis order
ov a
bi o
we ight
Ġorig in
Ġh ouse
Ġat tribution
m ary
e ach
k ed
Ġ4 8
res tricted
ip her
ib ility
Ġex ercise
amet er
Ġclus ter
Ġamin o
Ġbehavi our
ati ves
Ġser ies
es tern
co un
Ġfr am
p sych
ph osph
Ġn ow
d m
Ġprof ession
ocy te
is ation
Ġdeliver y
Ġapp ear
Ġlead ing
Ġche mo
ar s
Ġbas is
g er
Ġbene f
xi ety
Ġcer tain
ang ing
di agn
ne gative
ï¬ģc ient
Ġinten sity
Ġproced ures
Ġmetabol ic
g es
pub lished
Ġestab lished
Ġal ter
Ġenvironment al
Ġr are
ad j
Ġm el
Ġag re
Ġmeasure ment
Ġdeg ree
im in
Ġproper ly
h o
Ġneed s
Ġmut ation
Ġ8 0
Ġn g
Ġtum ors
Ġbel ie
i tions
iver s
ac hed
Ġquestionna ire
Ġï¬Ĥ u
por al
Ġun it
Ġcons ent
or al
Ġ ig
Ġf a
201 8
Ġab normal
n ers
f em
ii i
Ġn urs
discus sion
Ġimport ance
ed s
Ġmic roscop
Ġnat ural
Ġfacil it
i ency
Ġf ar
201 4
Ġap op
olog ic
Ġ ide
ĠÎ ²
Ġs ession
Ġsuggest ing
Ġreg ulation
Ġap plication
) -
Ġm iss
Ġprocess ing
ing ly
201 2
Ġv ascular
Ġte am
an ol
qui red
Ġbro ad
Ġpredic ted
b ial
Ġpro te
Ġal one
Â ©
Ġpolic y
Ġmo ther
Ġy et
particip ants
Ġal gorith
cor d
iv al
ar ia
ill s
ar ies
Ġuse ful
Ġguid elines
Ġdiscus sion
Ġnecess ary
il s
str uct
Ġadmin istration
Ġex cluded
Ġst roke
Ġstrateg y
Ġchall eng
over n
Ġc le
u v
un e
âĢĻ âĢĻ
d le
b ur
Ġcy tok
Ġne xt
Ġrepro duction
s ome
Ġv ent
Ġse lec
ros is
Ġorg anis
Ġsc an
Ġdat as
angu age
Ġles ions
Ġh ost
an a
Ġcompon ent
Ġsaf ety
Ġp ast
r adi
Ġtherap eutic
can cer
Ġde p
mon ary
in troduction
Ġwh ite
Ġmaterial s
Ġestim ates
Ġcap acity
g in
Ġ200 2
Ġtranscri ption
it ude
Ġin form
an y
Ġanti gen
Ġd il
Ġgener ally
Ġtechn iques
othe l
Ġsp ati
Ġqu al
Ġresp ir
Ġ2 9
Ġbi as
Ġevalu ate
Ġl a
Ġlong er
rec ted
Ġpregn ancy
Ġsubsequ ent
Ġclin ic
Ġcol l
f ound
Ġsec re
Ġfr ag
s tim
Ġcom mit
Ġt ren
b ody
clus ions
Ġsuccess ful
Ġcon ver
Ġev olution
Ġch ann
ti tion
pro vid
Ġh alf
Ġindic ates
Ġmit ochondri
n ew
Ġdi ï¬Ģeren
b c
Ġnot ed
ew ork
p g
h ig
Ġmolec ules
sc ale
ad es
m er
ch ing
Ġh r
Ġin tro
Ġm es
Ġâī ¥
comp ared
Ġserv ice
Ġmet hyl
Ġus ually
Ġm il
Ġdatab ase
Ġam eric
% ).
pro t
if t
Ġsubj ect
re view
char acter
Ġfe ed
igh ted
Ġac c
c ase
Ġcompound s
Ġd one
Ġcar cin
aren t
ter nal
m ir
end ing
Ġw all
h ing
Ġc hem
n am
ult y
ĠÎ ±
Ġhealth care
Ġparen ts
Ġp ed
op ro
Ġsoci ety
b il
Ġn a
Ġex c
Ġc osts
medi ate
Ġexam ination
12 3
Ġess ential
Ġpro ject
Ġm agn
h ad
it r
differen t
Ġan n
Ġn ature
l ier
in dic
h ood
m d
âĢ ĥ
Ġst aining
ve red
Ġ3 1
m ut
incre ased
ter ol
respon se
mo lec
app ing
Ġad oles
g ly
Ġt ake
Ġb p
Ġcaus es
for t
Ġbacter ial
Ġ4 5
Ġiss ues
Ġcurrent ly
m p
t om
and id
Ġsever ity
yro id
tic es
wh ile
n p
Ġt end
Ġon set
qu es
Ġint ake
pres ents
Ġf it
ti le
medi ated
if y
Ġres ulted
indi vidual
Ġtechn ology
d el
Ġac cum
Ġfem ales
Ġs uff
Ġrem ains
Ġox ygen
Ġ7 0
Ġc ited
l ip
Ġwork ing
s es
Ġk id
Ġinflu ence
Ġo d
Ġs a
Ġstruct ural
j ects
Ġsp ace
l ight
Ġrecomm end
d own
dise ase
t arget
Ġun restricted
Ġe ï¬Ģ
c hed
b an
Ġdis play
pec ts
Ġex tent
Ġepit hel
pa ired
key words
al le
mic ro
as ons
p ly
f p
h d
Ġf ol
Ġsmo king
Ġth ick
Ġmat rix
Ġcan not
sup plement
e lec
Ġtechn ique
ist ant
Ġmal es
ist ent
ile y
Ġst e
Ġm d
Ġinf ections
det er
gen er
ix ed
tion ed
Ġindic ating
th ree
Ġdesign ed
z ym
Ġsub str
Ġc ore
Ġcont act
Ġfor ms
Ġne u
te e
tr ial
r il
ten sive
read y
Ġo ld
ex am
Ġaccur acy
f urther
oid s
Ġj ap
Ġimpro vement
oc hemical
Ġe con
Ġlit tle
ad a
Ġt en
Ġat tention
l ated
de f
Ġm otor
with in
Ġm ap
Ġ200 1
ipher al
ul y
c ardi
Ġdevelop ing
Ġcontinu ous
Ġlip id
Ġim pair
Ġj oh
Ġprog ression
Ġon ce
ph a
Ġprolif eration
Ġsystem atic
Ġhe n
Ġinc or
as ter
h yp
Ġr t
Ġen zyme
Ġad verse
ke le
imen sion
l ast
Ġre v
an uary
Ġloc ation
on omic
d na
Ġpro mo
er ve
Ġstim ulation
as p
Ġrecept ors
com par
os ter
Ġdist ance
Ġr ad
Ġag ed
pos es
Ġcon cept
Ġsynthe sis
Ġtreatment s
r ich
Ġbec ome
Ġvir al
if or
Ġag ents
Ġproduc t
be ing
other apy
Ġro om
st ream
cl ass
Ġpan el
Ġï¬ģnding s
Ġcor rect
Ġacid s
. )
Ã ¾
Ġv it
Ġp i
Ġme et
Ġres ources
b ro
Ġmix ed
Ġaltern ative
om er
Ġup per
reg ulated
Ġf ul
m aterial
Ġi ii
Ġdifferenti ation
Ġhypothe sis
Ġb ound
Ġmetabol ism
os a
Ġow n
Ġnot e
% .
Ġd ate
reg ulation
vol ume
Ġp en
om as
Ġtrans fer
st ant
si a
ad s
Ġne ver
Ġter m
Ġdef in
a i
w ide
om ics
ar tic
sy n
Ġbacter ia
Ġmon th
Ġso uth
Ġ3 2
Ġpl ants
Ġcor related
c ult
Ġex press
wh o
Ġcontrol led
pre vious
Ġan xiety
Ġvari ants
Ġl ed
Ġm aternal
ap h
Ġsequ encing
Ġin troduction
Ġpot entially
Ġtoward s
er ved
for d
mul ti
the y
um a
org an
oph il
av ail
ic acy
go ing
Ġbi os
201 1
ati v
der ived
il ies
ogen ous
is es
Ġinvestig ate
iv es
sam ple
Ġbiom ed
correspon dence
Ġa ug
Ġfin ally
is ons
oc r
Ġen zym
le y
Ġst able
log ical
im ens
i ents
Ġn am
Ġc s
ad v
Ġl iving
ven tional
im port
hy per
pop ulation
Ġin trac
ab s
Ġmod erate
g i
plant ation
Ġ *
Ġachie ved
Ġmed ia
v ation
Ġinv as
c ap
c p
af t
201 0
Ġestim ate
Ġen sure
Ġobes ity
Ġrepe ated
Ġs ig
cep ti
ectiv eness
in king
cer tain
Ġs ources
Ġloc ated
Ġcol um
' s
Ġ3 6
Ġpar as
er o
h am
Ġj ust
Ġmet a
Ġpre par
Ġdel ay
sim ilar
othel ial
ag ne
Ġb mi
e tic
Ġdistin ct
omet ric
l ob
Ġv ary
Ġthres hold
n at
pro duc
m ain
gro w
Ġst ages
u fact
Ġparticip ant
Ġbi op
Ġmain ly
Ġf ast
ph ys
Ġpre vention
âĢ ł
y tic
ic t
Ġsubst anti
b ar
l ife
Ġde le
sec ond
c n
feren ces
ens es
Ġincub ated
Ġrel ation
Ġback ground
Ġun ited
Ġsampl ing
Ġb uffer
Ġassoci ations
Ġk g
cons id
Ġcardi ovascular
Ġsl ight
ste ad
v s
low er
im pro
Ġsim ple
c f
Ġm is
ol ved
â Ĺ
k a
Ġgr ade
val ues
Ġl anguage
ach ing
back ground
Ġre tro
Ġelev ated
Ġger many
g s
on tal
âĢ Ĳ
l r
or ing
Ġmonitor ing
min al
Ġas ked
um in
in j
ï¬ ĥ
Ġfr act
wee k
Ġb ase
Ġcom plications
Ġst aff
Ġspec tr
Ġquantit ative
Ġresearc hers
Ġcommon ly
omet ry
gen ic
Ġrespir atory
ari ate
cl er
Ġsec tions
am ong
w ater
Ġspati al
Ġinhib itor
Ġl ate
Ġsex ual
Ġcontrib ute
Ġill ustr
Ġn uclear
obser ved
sy m
th al
dr ug
ne um
ific ance
Ġinj ection
Ġre fer
es the
Ġw a
Ġse pt
com mun
Ġac cept
Ġfram ework
port un
Ġm aking
Ġin formed
re f
h t
Ġre presents
Ġl ys
em ents
Ġlead s
Ġro ut
os omes
Ġ ion
Ġin clusion
Ġpro duce
Ġ und
clud e
Ġdiagnos ed
Ġconsum ption
l ink
an ical
Ġexpos ed
Ġcent re
Ġadj usted
bin ding
Ġoccur red
eff ect
Ġa ud
Ġkin ase
Ġac et
in hib
Ġg reen
Ġinde ed
p hen
b ac
en ari
Ġw ide
v o
Ġstreng th
h ist
Ġcharacter ized
Ġf o
Ġcomple ted
Ġbar ri
Ġdoc ument
res pec
Ġg rap
Ġplac ed
Ġï¬ģ l
Ġ3 3
Ġhum ans
f requ
a im
ne uro
Ġdom ains
in v
Ġcl ose
tim es
if est
5 00
Ġfr action
Ġde pendent
Ġsimilar ly
Ġdif f
plic ated
Ġunder lying
br al
Ġenti re
ard s
om m
Ġl and
mal e
Ġhe m
k er
ad emic
Ġa ustr
Ġpepti de
inf lamm
Ġas pects
av es
Ġm ob
Ġembr y
Ġm r
Ġwe ak
Ġun ique
Ġmin utes
1 01
pre dic
res sive
ens us
â ī
Ġk it
et r
ĠâĢĺ âĢĺ
m ail
Ġun its
Ġinclud es
Ġappro ved
Ġde fic
Ġtarget s
Ġphen otype
Ġoccur s
Ġvari ance
Ġal ready
eff ects
Ġe ye
Ġtrans port
od ium
Ġt as
l ar
Ġc atal
Ġtool s
Ġkid ney
Ġa u
e v
lo ad
Ġphosph ory
hig her
Ġc andid
ï¬ģ n
Ġmut ant
se ver
Â ´
b m
til ity
a ut
Ġatt em
Ġp ool
e valu
Ġw estern
Ġup take
Ġf ile
Ġal most
inc ip
Ġear lier
Ġar ch
Ġst re
Ġapop tosis
Ġbe h
Ġpre pared
Ġconfir med
Ġp ack
si zed
en ge
Ġon c
Ġcor tex
Ġgen omic
Ġvacc ine
im er
con centr
Ġhen ce
Ġrespec t
ell a
w ent
k in
Ġgr ad
m ia
Ġvari ety
Ġtyp ically
Ġm ri
Ġbl ack
Ġpur pose
Ġmicro bi
Ġadv ant
Ġiss ue
on ia
Ġcateg ories
in ated
itro gen
el ing
Ġele ments
in formation
Ġre ï¬Ĥ
Ġex p
Ġj anuary
Ġs atis
t ag
on ary
Ġeurope an
pl ate
om atic
Ġd m
Ġo s
Ġso il
Ġs qu
as ts
Ġpers onal
Ġlink ed
Ġj oint
t echn
bl ood
un iversity
c lear
Ġenh ance
Ġdetail ed
statis tical
Ġdevi ation
Ġcomp r
Ġab und
bid ity
Ġs ter
Ġin duc
Ġass ays
Ġfrequ ently
f y
Ġche ck
oles terol
Ġp et
os omal
it ud
Ġnum er
Ġw iley
bec ause
pl i
Ġill ness
pres sive
Ġro b
Ġh z
Ġthrough out
Ġdetail s
un ts
Ġsmall er
Ġdos es
Ġarter y
Ġsum mar
Ġw t
Ġwid ely
g c
Ġmark er
Ġang i
Ġallow s
an ted
Ġinf ected
Ġfollow s
Ġextrac ted
Ġlay er
Ġremo ved
erg ic
Ġdiscus sed
Ġre covery
Ġset s
Ġgener ation
Ġst art
Ġbas ic
Ġsign als
vir us
ot es
s um
Ġsk ills
Ġin ser
Ġrelationship s
Ġg overn
Ġa di
Ġcomp are
h g
Ġv ess
Ġe ight
land s
b ol
Ġrequi res
meas ure
con tinu
12 0
y le
h c
Ġclear ly
Ġper ipheral
cri ption
ment ation
os cop
b v
Ġful ly
Ġdr aw
cal c
Ġp ass
Ġaddress ed
Ġstrong ly
Ġinhibit ors
se x
the n
Ġex ternal
Ġbiom ark
200 9
u z
er t
Ġpro gn
Ġde grad
agne tic
uc ted
Ġp ut
if ically
en ing
Ġm ild
Ġestab lish
Ġsupplement ary
n ih
Ġwor ds
ic a
t p
b it
Ġrepro duc
Ġfocus ed
sc s
Ġ3 4
u tive
Ġcolle ge
Ġmal ign
Ġco up
er n
Ġrem ain
Ġprob ability
Ġass em
oph ag
Ġk n
os tic
ĊĠĊĠĊĠĊĠ ĊĠĊĠĊĠĊĠ
to ber
it ative
k i
ï¬Ĥ u
Î ´
level s
ma x
ber g
Ġre asons
__ __
Ġprovid ing
Ġobserv ations
Ġvari ability
Ġor th
med ian
Ġtrans mission
on t
Ġphysi ological
cri pts
in to
Ġse ven
Ġch ain
Ġsetting s
Ġcoun t
med ical
at us
activ ation
oc oc
s ugg
Ġimplement ation
br ain
Ġt ax
Ġv ector
Ġar g
Ġw al
Ġth rom
Ġul tr
Ġad en
Ġpur poses
Ġm uc
Ġsup ported
Ġmac roph
i j
Ġcr yst
Ġheter ogene
Ġ7 5
b acter
Ġrecr uit
Ġt aking
Ġcho ice
s l
Ġthe r
Ġtem poral
re es
oti de
is hed
Ġdeï¬ģ ned
be havi
Ġb il
Ġcomp ut
Ġs pl
sc i
Ġan terior
ph al
ec omm
cre ativ
Ġdo uble
Ġpl ot
ecomm ons
Ġp c
Ġagre ement
p rom
Ġfam ilies
r ight
Ġradi ation
d ose
ex pl
fem ale
Ġpul monary
v ision
Ġcompos ition
Ġg el
Ġenh anced
um ents
Ġcons tit
Ġy ield
Ġbu il
m ech
Ġaddition ally
at t
es tim
Ġmedic ation
h i
Ġdescri be
Ġus ers
Ġcommit tee
ĠÎ¼ g
n r
Ġalgorith m
Ġsub s
he ter
creativ ecommons
g fr
s ensi
ad ditional
form s
s ts
Ġan a
tr ation
Ġto ler
m b
qu is
ti ers
00 2
Ġad op
Ġabs or
Ġp ig
Ġlimit ations
Ġa ware
Ġdiffic ult
develop ment
Ġreport ing
Ġartic les
sh own
Ġstep s
Ġre plac
Ġne ural
c am
Ġcommun ication
Ġ ðĿĳ
Ġrespon sible
Ġinf er
Ġepid emi
Ġrecomm ended
ti ally
Ġhyper tension
stand ard
f lu
hy dr
Ġco ord
Ġin duction
og lob
Ġrepresent ative
Ġrespond ents
Ġallow ed
Ġcar bon
anc re
Ġf re
ti ous
Ġsum mary
or ig
os en
âĢĻ ,
adi tional
Ġï¬Ĥ ow
Ġincor por
th ma
em a
Ġover l
Ġm arch
Ġmid dle
b ox
Ġapp ears
opath y
Ġinvol vement
Ġob tain
Ġrem aining
Ġtr ue
Ġsepar ate
el ed
Ġpers pec
Ġexist ing
Ġcompar ing
Ġstatis tics
Ġjoh n
n ic
Ġp m
fic ial
s ol
Ġexperi enced
Ġcon stant
Ġcomp re
Ġdemonstr ate
Ġf all
p ur
Ġobserv ation
mon th
c ers
Ġch ina
st age
n g
Ġlater al
m us
Ġre tur
oc hem
Ġprac tices
c hes
pub lic
Ġmet h
b ing
un it
Ġop portun
200 8
Ġparamet er
en vironment
met hyl
b d
Ġbo x
Ġgl ut
utr al
Ġexam ine
re present
Ġman ufact
Ġcalc ium
Ġdi ameter
fron tiers
Ġf av
dec re
tro ph
ve m
Ġstimul i
Ġcountr y
iï¬ģc ation
it ten
Ġg am
sur g
Ġthe ory
dom inal
3 00
Ġocc up
ric ular
Ġir on
h ospital
Ġro ot
Ġ3 8
Ġp al
Ġj une
Ġhe ight
deter min
f irst
b es
Ġg a
follow ing
Ġres olution
n ia
Ġh ttp
Ġsign ificance
d h
Ġst ability
p oc
et hyl
Ġreduc ing
gf p
n i
ri tis
fact or
Ġpolym er
ic le
Ġn erve
Ġmark ed
Ġend othelial
Ġmitochondri al
Â ®
Ġ igg
ph ase
Ġsus cepti
tiv es
i res
Ġextr action
Ġle uk
Ġr s
Ġregul atory
og ram
sm all
Ġbl ue
in vol
c ut
Ġo ri
im p
t ub
Ġreg ular
Ġt b
br uary
Ġap ril
Ġ Ï
Ġmo vement
Ġf al
Ġsystem ic
Ġcur ve
Ġoptim al
ch anges
Ġcompar isons
import ant
a ir
Ġin duce
e e
Ġhe mat
Ġ19 99
Ġanalys ed
Ġcon tin
Ġinf ec
Ġadv anced
Ġnetwork s
Ġpro ï¬ģ
Ġl i
Ġg ain
Ġj uly
Ġprogram s
Ġeff icacy
Ġgo al
Ġadmin istered
Ġcl assi
cl os
Ġ7 2
w omen
w ill
gr ade
ver sion
Ġcult ures
Ġc reat
man n
Ġen rol
Ġre actions
Ġm arg
Ġre qu
b el
Ġinflamm atory
ac cording
pl ace
gen eration
Ġcompre hen
co uld
vem ber
an i
Ġsc enari
bi om
it als
ap l
Ġsensi tive
Ġinflamm ation
il es
Ġcomp et
Ġobj ective
cur rence
child ren
Ġpos terior
the sis
Ġtrans f
molec ular
Ġb en
Ġequ al
h al
Ġeth ics
c ents
Ġexpl ained
Ġsubsequ ently
Ġthough t
Ġl as
res t
zy g
ed uc
ond on
Ġfor ce
Ġinf ants
Ġtum our
s ocial
en h
Ġdiver sity
Ġp el
show ed
Ġactiv ated
15 0
lic enses
Ġad equ
um ab
bi otic
Ġin put
Ġsw it
Ġalle le
ch o
Ġpr incip
Ġjap an
Ġexpl ain
di ab
Ġre t
x y
ac et
lik ely
Ġrem ained
Ġin stead
od ed
se ud
hol ds
Ġagg reg
Ġmiss ing
Ġachie ve
kele tal
t op
Ġrece iving
prim ary
Ġb on
tis s
Ġdiv ided
ac l
y ond
Ġap pe
Ġplace bo
Ġtarget ed
Ġal ways
g d
it ory
Ġles ion
Ġemo tional
Ġaut o
ab out
fam ily
Ġbehavior al
Ġcir cum
] ;
g h
Ġenzym es
Ġpl us
Ġar th
qu ality
Ġv en
Ġdec ember
at her
com mon
Ġs low
if ug
Ġfe ature
Ġse ems
pr ac
Ġp bs
sam ples
re cent
ĠĠ Ġ
ĠĠĠĠĠĠĠĠĠĠĠĠĠĠĠĠ ĠĠĠĠĠĠĠĠĠĠĠĠĠĠĠĠ
Ġpresent ation
Ġinterval s
Ġco eff
Ġ ðĿ
ign ment
Ġf ace
ĠÂ ©
immun e
there fore
Ġan sw
Ġminim um
Ġerr ors
th ose
per formed
Ġun known
Ġne g
Ġafric a
osp itals
t ypes
Ġtox icity
in ess
Ġcontain s
Ġg ive
Ġresid ues
Ġmo ve
ival ent
an im
m ac
Ġre pair
in iti
Ġc f
Ġle t
Ġan at
n c
ip s
act ing
all ow
Ġchemo therapy
Ġclinical ly
Ġemploy ed
or tic
Ġpath ology
Ġf ore
Ġrandom ized
z ing
n ec
Ġis o
ther n
sc ore
Ġgen otype
c os
supplement ary
Ġdiet ary
Ġepithel ial
Ġslight ly
Ġep is
Ġre ferred
Ġcateg or
bas eline
le ts
Ġsub set
Ġh ab
Ġsign s
ih ood
anal ys
Ġtas ks
ig ible
Ġ4 2
poc amp
Ġc v
Ġs at
grow th
Ġflu id
Ġsol id
ill ary
Ġvis it
iel ds
t ely
Ġcl im
f in
Ġcateg ory
Ġan tic
Ġcor onary
Ġar m
ocardi al
z er
Ġcarcin oma
Ġpredic tion
Ġsh ape
Ġs ug
Î ¼
Ġl in
p ing
Ġp neum
u ited
Ġh ol
Ġinï¬Ĥ amm
Ġo uts
co vered
Ġb mc
Ġtyp ical
Ġameric an
Ġdys function
f c
tr y
Ġmm ol
Ġconf idence
s us
inf ected
Ġfund ers
-- --
Ġï¬ģ ve
is ions
cord ance
st ep
Ġecon omic
ï¬ģ l
material s
j ug
Ġchall enge
Ġpossi bility
re ference
sym ptom
s al
ed u
Ġpair s
is sion
Ġvit amin
Ġpl at
Ġat ten
fact ors
s mo
Ġid en
Ġcy cl
ous ly
Ġex cept
Ġro les
Ġpredic t
Ġad mission
ves tig
ap se
con f
Ġex pect
Ġper ceived
100 0
Ġbur den
p atic
Ġidenti fication
Ġdo i
Ġtra uma
medi ately
Ġï¬ģ eld
Ġb ot
ist ing
Ġaug ust
Ġapp arent
Ġ6 5
Ġrob ust
Ġf ed
Ġf ind
Ġs uit
ax is
ï¿½ï¿½ï¿½ï¿½ ï¿½ï¿½ï¿½ï¿½
ain e
gr amm
Ġgener ate
Ġchalleng es
e vid
Ġn s
Ġt ext
m es
Ġint est
Ġrati os
Ġpro p
k o
Ġisol ates
ten ance
Ġsubstr ate
abil ities
anis ms
sign iï¬ģcant
o zyg
Ġexperi ences
Ġhe at
Ġinvol ving
inflamm atory
Ġinvestig ation
Ġex act
b ell
w he
Ġb le
m ol
Ġoc tober
centr al
Ġtren d
00 5
Ġmigr ation
am s
t b
Ġspec ifically
Ġorgan ization
Ġr ating
Ġar r
Ġmin or
si ze
z o
Ġbri ef
Ġres tric
Ġol ig
Ġlat ter
Ġch lor
Ġmanus cripts
ic ian
f our
Ġv an
Ġcol i
tum or
ar a
Ġto o
avail able
y cin
Ġbl oc
Ġdev ice
Ġle g
ici ency
dom inant
ec onomic
Ġeng ine
gen es
d x
Ġcorrel ations
Ġmill ion
enti a
sh ould
. âĢĿ
er r
ĠâĢ ¢
pro f
Ġs odium
sever al
Ġtr igg
res h
Ġoxid ative
Ġ5 00
Ġaustr al
con taining
ect omy
adj usted
Ġg et
Ġm i
Ġco verage
Ġph yl
Ġprepar ation
Ġ19 98
u tional
4 00
Ġw ave
p tions
Ġ3 9
Ġrecor ds
m r
as tic
Ġdynam ics
Ġw ind
yr ight
am mal
spec ies
func tional
Ġmat ter
ult aneous
Ġn one
os in
inf ection
g t
r andom
Ġpart ners
Ġh ard
ar row
ut ing
Ġl ibr
Ġre verse
ter ing
quis ition
Ġgas tro
Ġcol or
Ġc e
Ġst op
Ġclass ification
Ġfeed back
Ġman ner
Ġch osen
Ġpar tial
with out
Ġsept ember
inter vention
200 7
Ġimpair ment
Ġinterview s
met abol
Ġz e
Ġcon ventional
ac he
Ġl um
comple x
si bility
ĠÎ¼ l
m ing
Ġadj ust
Ġind ustr
Ġdatas et
Ġpro xim
Ġtransi tion
Ġped iatric
Ġt nf
el ves
ap tic
Ġcent r
le ft
Ġrepresent ed
ed ed
s elf
Ġtrans cript
Ġo il
Ġprog ress
ec utive
Ġtox ic
a verage
re port
el ihood
er a
lish ing
incre ase
des cribed
pro duction
ad min
Ġdis cr
ob ic
Ġ ib
Ġdi rection
Ġb or
iqu id
Ġis chem
Ġag ent
Ġbi ot
Ġparticip ation
Ġun certain
Ġt a
Ġtechn ologies
Ġro s
gen eral
Ġse em
ir ing
plic it
op hy
Ġ5 5
Ġneu ros
Ġdynam ic
Ġmal aria
Ġori ent
Ġa ver
am ide
Ġnor th
200 0
Ġthick ness
Ġcompar able
alle l
Ġbas al
Ġt el
Ġwork ers
ad dition
Ġre combin
to x
t l
al a
Ġprom ote
in vestig
Ġnor m
âĢ ĳ
im ination
âĢĻ .
ob acter
Ġc ul
bio tics
Ġexpl an
ect ing
ch arge
per form
Ġreview ed
b b
iz ations
Ġrec onstr
Ġcolum n
w t
Ġs izes
Ġcult ured
Ġtur n
1 10
s qu
Ġas thma
Ġextr act
Ġha em
enz a
Ġ #
iti vely
h l
Ġtr aditional
Ġap plications
Ġcol labor
Ġpublic ation
Ġcall ed
Ġa er
Ġfor med
f action
m one
Î ³
Ġeth ical
an o
Ġ ĊĠĊĠ
Ġscienti fic
Ġg h
Ġs ir
Ġst ored
atic s
he ad
itud inal
ul atory
a ro
ol ute
respec tively
sup port
Ġsoci o
log y
wo uld
h om
Ġpsych ological
ci ence
Ġvari ant
Ġrecogn ition
Ġcoun ter
Ġdis rup
Ġexpl ore
w s
ill ed
c ir
Ġy e
si vely
in cluded
Ġbre ak
ro gen
Ġpartic les
Ġmean ing
Ġass igned
Ġat p
ig en
Ġp p
k ins
if i
ox ic
+ +
Ġcar ri
Ġdepend ing
Ġmain tain
Ġpredic tive
Ġprof ile
Ġp le
r as
Ġstandard s
per iod
Ġen viron
yl ation
s ingle
10 5
ins tit
Ġ( âĪĴ
og ens
Ġem ph
Ġpolym orph
Ġbe gin
be fore
Ġw ww
Ġs ti
id ent
m ri
loc al
Ġ ub
Ġs ent
Ġiniti ally
Ġcon tained
Ġreview s
Ġfe bruary
Ġ4 4
Ġc itation
it us
hy th
tr ie
Ġprot ection
Ġcy cles
Ġh ospitals
Ġy our
the less
Ġmix ture
over all
Ġâī ¤
Ġpromo ter
dem onstr
y a
Ġr ib
Ġgrap h
pot ential
Ġwh ose
Ġbenef it
comple te
Ġcan cers
Ġdem ographic
Ġdegrad ation
i tional
exper i
Ġkn ock
uc tions
Ġde ep
Ġfat ty
Ġbal ance
Ġp ancre
it in
Ġclus ters
Ġef ï¬ģc
t aneous
Ġno vember
Ġnutr ition
ci pl
ap er
Ġbene ï¬ģ
Ġf ung
v ascular
in de
and ed
Ġs ed
Ġperiod s
Ġn ic
Ġdif ï¬ģc
Ġintrac ellular
d ue
Ġcor tical
Ġavail ability
Ġth or
ĠÎ ´
Ġqual itative
Ġrisk s
ardi zed
Ġac quired
Ġc p
ace u
Ġcoll agen
in ity
Ġcytok ines
Ġch olesterol
con tr
Ġtr ack
Ġac ces
Ġal b
for ts
Ġunder went
Ġwr itten
d imension
com es
Ġsp read
in dependent
Ġstud ent
Ġstimul us
m t
end s
all ing
Ġvi ol
c ases
Ġaccum ulation
Ġbe yond
pos sible
Ġmod e
Ġelectr on
cor rel
Ġus er
Ġw ound
s em
med ic
an tic
00 3
ear ly
Ġl ondon
ure r
Ġr ab
Ġcomm erc
Ġfrequ ent
r ate
Ġsupport ing
Ġregion al
Ġbar s
Ġcol lec
Ġsh or
Ġmech anical
ti d
Ġw ays
Ġmy el
l l
Ġmother s
Ġits elf
ill ance
Ġl ive
Ġwh y
Ġinst ance
Ġfor mal
Ġï¬ģ t
Ġplan ning
Ġspectr um
ogene tic
Ġr ural
Ġco ver
ter minal
Ġal pha
trans fer
ful ly
Ġcomple ment
ox y
Ġsuff icient
Ġtr act
Ġvalid ity
Ġinï¬Ĥu ence
Ġcr uc
Ġrout ine
Ġneur onal
Ġn odes
ting u
Ġur ban
Ġmain tained
Ġaccur ate
h abil
Ġhy brid
Ġd op
Ġmo tiv
Ġ19 97
Ġc b
t aken
row n
Ġmen tioned
frequ ency
Ġas ym
Ġf ixed
Ġnurs es
Ġre ach
Ġre plic
Ġtra its
Ġs pon
ell ow
Ġeff ectiveness
Ġg ap
Ġd og
Ġouts ide
Ġexam in
Ġir an
cop yright
Ġp s
w a
arc in
Ġs per
th us
Ġal tered
Ġan ova
Ġï¬ģ x
Ġt ree
evid ence
z ation
Ġin come
Ġexam ples
r an
o e
Ġgr an
Ġbiop sy
Ġfe el
Ġh s
ph arm
Ġspec imens
Ġdis trib
Ġsh ift
ne e
00 00
por ter
d ays
Ġbl ot
Ġdevelopment al
Ġim paired
Ġprim arily
Ġext rem
as ound
Ġn f
loc ation
Ġm agnetic
it a
Ġ4 1
Ġmethyl ation
Ġsn ps
al y
line ar
Ġintro duced
Ġv el
s ig
y stem
Ġinterest ingly
200 6
Ġthe ore
ct al
Ġ4 3
Ġhigh l
v ate
Ġspe ed
Ġrece ive
Ġsession s
Ġwas hed
Ġr h
ul ties
Ġ :
Ġs en
par amet
Ġs ons
Ġprob ably
Ġth yroid
Ġmo tion
ut roph
ox ide
Ġmel an
Ġne igh
Ġphosphory lation
Ġchann el
Ġne on
ul us
is her
es tic
Ġphys icians
Ġax is
Ġgr adi
Ġs ense
Ġne utral
ms elves
Ġmul tiv
Ġsim ulation
Ġpro state
Ġco vari
ch y
Ġ1 000
Ġpr in
Ġ4 6
Ġit em
Ġemerg ency
Ġar t
res ult
Ġmicroscop y
........ ........
Ġr ank
l am
or age
Ġpepti des
Ġcon tribution
Ġrecr uited
t rom
12 5
Ġan not
Ġcons ult
Ġst ained
ur a
k ers
con clusions
Ġparticip ate
Ġlarg ely
Ġb and
Ġrecruit ment
per cent
ces sive
p tional
k al
ud es
Ġhe pat
Ġparen t
ochem istry
Ġprofession al
Ġconsid ering
ot a
Ġmacroph ages
Ġs in
Ġsitu ation
h is
Ġchrom osome
Ġtarget ing
Ġf etal
Ġstar ting
p tive
c ular
am ent
reg ion
Ġout put
Ġg p
Ġpar ts
Ġat trib
Ġhouse hold
00 4
stand ing
h iv
Ġch i
Ġres ource
dr aw
Ġreg en
Ġremo val
Ġcommun ities
Ġar row
Ġl ob
Ġb in
ect ors
10 6
Ġcons ensus
Ġdeath s
Ġdis ability
erv ation
differen ces
r med
Ġdis tingu
r r
Ġd up
âĢ ¦
Ġphen omen
Ġsh ared
Ġat tit
opro tein
Ġtub e
p oints
Ġj ud
Ġn ode
Ġt it
Ġadoles cents
Ġsol utions
multi ple
olog ists
Ġdep th
Ġpro be
Ġv es
Ġp t
Ġdon or
Ġg re
ph ysi
Ġv as
Ġvalid ation
Ġpres s
otyp ic
Ġim mediately
Ġinterpre tation
Ġap plic
in test
et ric
Ġread ing
Ġm c
Ġindi a
az il
10 4
anc ies
Ġl ar
ok ed
Ġp as
Ġb ul
Ġdi verse
Ġprim ers
Ġur ine
r d
Ġsubstanti al
er ative
in ine
s en
ang i
Ġar ti
Ġod ds
in tern
analys es
ful l
Ġan esthe
con ditions
Ġstar ted
Ġaim ed
Ġc reated
ifor m
Ġl m
l ined
cy tes
s u
Ġs ulf
Ġac quisition
Ġext ended
Ġpl ates
h or
f low
Ġp il
Ġcomplex es
Ġre cording
por ation
val ent
Ġtw ice
Ġdis cre
ul um
hem atic
ur ance
wh at
ell ed
Ġnurs ing
Ġindi rect
re cept
anal y
Ġd ental
Ġcomp uter
s in
ne ur
ain ts
Ġsal ine
br anes
Ġm ol
Ġdi ag
tiss ue
p et
Ġfacilit ate
ur ies
h u
Ġgrow ing
Ġp ic
Ġreli ability
ment ed
10 3
Ġincub ation
Ġmedi ated
Ġ9 6
b one
Ġre ached
Ġim pl
s ince
Ġ ,
Ġm ammal
ch rom
Ġun ivers
d ri
Ġr anging
Ġprogram me
Ġthere by
ther ap
Ġpol l
Ġdifferenti al
Ġm ach
Ġt ail
tr al
b ir
ann ed
mem brane
Ġgro und
Ġtherap ies
Ġmem ber
Ġent er
Ġcar ry
Ġl aw
mon ths
Ġsim ultaneous
v ic
Ġh f
oglob in
Ġpsych iat
ot ing
Ġsubs tit
is ol
10 2
Ġdiab etic
Ġdiï¬Ģeren t
Ġlow est
on ist
Ġb at
Ġfe as
ent er
Ġbenef its
Ġw ar
Ġser ious
ec tively
pro ced
Ġa gr
Ġanal og
Ġmolec ule
cy t
Ġextrac ellular
en ed
Ġag ing
m aking
Ġdr y
Ġn od
l ength
Ġact ual
Ġs om
ven ous
s he
ag ues
Ġconcer ns
Ġex tensive
g ender
Ġrandom ly
un ted
c ogn
Ġc c
bac co
Ġif n
oc cur
âī ¥
Ġmil k
Ġdescri ption
Ġintegr ated
Ġn ine
s ame
ac er
cell ular
Ġbehavi ors
know ledge
Ġinfec tious
em ploy
is ter
Ġvis its
d ers
st ood
Ġvari ed
Ġdec line
op ic
Ġbet a
Ġne ph
act in
val id
Ġchild hood
Ġrecommend ations
p k
Ġtrans l
Ġmain tenance
Ġcon clusion
l arg
Ġcorrespon dence
b ri
he me
Ġï¬ģ nal
r n
200 5
Ġd rop
et ry
Ġiniti ation
d oc
Ġother wise
Ġf resh
id ine
] ).
Ġsur round
Ġ4 7
habil itation
Ġpro spective
Ġcomple tely
Ġcentr ifug
Ġg est
diagn osis
Ġl iquid
ques tion
Ġdev ices
Ġdem entia
Ġr ich
iz oph
n ucle
Ġp g
Ġef forts
Ġv ul
b u
ur ine
ail ed
fac es
Ġdisplay ed
Ġof fer
g iven
Ġpost operative
p ain
Ġp seud
r ad
el t
Ġter min
m ouse
, âĢĿ
cler osis
d am
ad der
Ġann ual
c u
Ġf ores
h ar
Ġassum ed
Ġclass ified
Ġs ar
Ġst ated
Ġfe eding
assess ment
Ġmost ly
Ġsuit able
Ġab dominal
Ġrapid ly
Ġm akes
Ġvalid ated
an other
ot rop
Ġo vere
ac r
Ġs an
vir al
Ġhip pocamp
der ly
25 0
Ġspecific ity
h ouse
Ġdis tal
n ight
Ġfract ure
di rect
Ġmod ified
Ġresid ual
b mi
ad en
Ġcomp uted
Ġcyt oplas
Ġlik elihood
g ed
c aus
d at
Ġprovid ers
Ġcons isted
Ġadvant age
Ġm as
Ġmark et
dimension al
Ġcomp e
j ection
Ġequ ivalent
Ġed itor
Ġselec tive
Ġcoun ts
ti f
Ġc av
Ġrev ised
Ġro und
Ġpar allel
Ġcon trac
Ġsecre tion
ser um
Ġprim er
Ġ ~
Ġnucle us
Ġsuper ior
Ġeas ily
Ġgene tics
Ġcomprehen sive
Ġfib ro
Ġchann els
st ress
Ġsc ales
all ed
Ġprotocol s
Ġon to
m ature
ac ent
Ġminim al
Ġcere bral
Ġgu ide
Ġovere x
Ġimplement ed
Ġafric an
Ġcruc ial
ant ly
z en
Ġfal se
Ġwe b
Ġrepe at
in tegr
anc ing
Ġc oding
Ġdiscus s
ren al
Ġidentify ing
Ġf arm
âĢ Ĥ
Ġ3 00
sub jects
ur ity
m ph
Ġre trie
Ċ ĠĠ
Ġ1 50
um es
Ġc ity
phys ical
anc ial
app ed
intest inal
ic o
Ġg i
Ġadequ ate
Ġe gg
Ġwind ow
izoph ren
it ors
ores cent
Ġp b
Ġintegr ation
d ist
Ã ¶
g ue
c our
Ġel se
Ġmy ocardial
Ġlig and
l ig
Ġlong itudinal
Ġdec isions
Ġs r
omet ri
Ġd ors
ot ed
Ġall oc
ile p
Ġeduc ational
Ġpub lishing
Ġabs olute
meas ured
pro gram
ex pected
s il
in o
Ġr ise
con clusion
Ġc ode
Ġop tions
Ġbel ong
Ġgovern ment
s uc
Ġappe ared
) ).
Ġpers ons
str ong
Ġarter ial
Ġpl ays
az ole
ac id
Ġclim ate
Ġpre dominant
Ġpro long
Ġcare g
a uc
Ġet c
h z
Ġt y
Ġr an
Ġflu orescence
Ġacc el
Ġ est
ive red
experim ental
q r
ti sh
ay er
Ġp age
comp an
Ġpol ar
Ġorgan ic
Ġidenti ty
Ġcur ves
Ġoccur rence
Ġf lex
erc ul
Ġplas tic
co ver
Ġno ise
her lands
Ġcan ada
re duced
Ġfrequ encies
ĠÂµ m
Ġo vari
Ġf ish
Ġk ing
âĢĿ ,
ex pos
Ġclos ely
Ġspec tra
oc ity
Ġcor d
Ġheterogene ity
ro le
Â ¨
Ġre tin
Ġexhib ited
n el
Ġus es
Ġ19 96
Ġrecor d
activ ated
whe ther
us a
le ad
10 9
ic ro
Ġnumer ous
g as
Ġc is
ma xim
Ġallow ing
iï¬ģc ance
s ite
Ġinvol ves
Ġreli able
an th
m ation
gl ut
Ġn as
Ġfor ward
Ġclass es
sec tional
pati tis
m igr
] )
tr i
a res
Ġm t
Ġvari ations
is ms
Ġmeas uring
Ġcor rection
ph yl
Ġ5 2
p aren
u ate
Ġan tag
oc l
% ;
Ġg ir
Ġlog istic
in ten
protein s
s r
Ġconcer n
tr uct
Ġconsequ ences
Ġloc ations
Ġsp inal
or ation
ob tained
Ġmar row
bre ak
Ġmorph ology
ac cepted
Ġthe mselves
Ġcre ate
l c
h icle
un ting
1 12
Ġsaf e
s n
Ġhe patic
Ġequ ip
or i
sch ool
id al
Ġpl a
dis tribution
vers ely
c ateg
orig inal
* ,
n atal
od on
to tic
Ġ5 6
Ġsens ory
Ġg old
g reat
Ġinstr ument
Ġmagn itude
Ġre plication
p f
p ul
er ated
. [
com pon
Ġperspec tive
Ġv ide
cep tions
Ġem pir
Ġpsych iatric
ma jor
Ġmet al
Ġun clear
sequ ence
Ġtechn ical
Ġpossi bly
Ġassess ing
Ġbiomark ers
âĢ² -
omet er
Ġenc our
Ġper ception
Ġe yes
sc reen
Ġvacc ination
Ġiden tical
s ess
ac ted
Ġto m
Ġac tions
Ġch anged
Ġdis covery
un te
Ġdef ects
Ġindic ators
Ġye ast
es ter
con t
h and
n one
Ġappro val
Ġan tim
Ġread s
tem per
ser v
Ġm apping
Ġang le
des ign
t ures
man agement
wh ite
if ying
Ġlo op
Ġsw ed
c ross
m ice
Ġthrom b
Ġcharacter istic
Ġadhe rence
Ġabnormal ities
Ġfo ot
Ġto ok
bl asts
Ġc as
Ġgrow n
control led
ac ademic
ch ronic
Ġb ind
b ound
ar ter
Ġex clusion
Ġcom or
mod els
Ġcons erved
Ġlas er
Ġres on
k d
eff ective
im aging
pr ising
link ed
symptom s
Ġn ative
Ġcap ture
s ide
pan sion
al k
epti de
Ġindependent ly
Ġ19 95
int erest
pli ance
dom ain
e ven
Ġabund ance
Ġsh are
Ġinf ant
aw i
Ġch am
ill in
partic ular
Ġvent ricular
Ġisol ation
Ġinvas ive
Ġst abil
izophren ia
h aps
Ġo v
gene tic
Ġultr asound
m ap
n an
Ġ4 9
â Ĩ
p ass
Ġpap ers
Ġcons ists
ody nam
Ġre currence
Ġrespec tive
6 00
Ġl isted
rel ationship
ly mph
Ġsurve illance
op tim
im ent
Ġar ray
p ic
ibr ation
Ġtr ust
Ġth ink
in ï¬Ĥ
it one
imen sions
press ing
Ġh az
Ġc erv
Ġf usion
dif ference
Ġke ep
an ch
Ġeff iciency
Ġfunction ing
c her
Ġst orage
Ġob ject
ol s
olog ous
Ġble eding
i ro
Ġdatas ets
Ġnormal ized
Ġdocument ed
Ġhor mone
sig ma
Ġyoung er
concentr ation
Ġh pv
Ġr anged
Ġz one
Ġin ner
ator ies
Ġbuil ding
Ġen ough
Ġcytok ine
Ġbi ochemical
+ /
Ġder iv
en di
Ġl c
k y
n utr
he um
Ġd u
13 0
Ġmodel ing
Ġ6 4
it o
g reen
Ġb a
Ġele ment
Ġrecogn ized
Ġg y
de hy
Ġonc ology
Ġnec k
on ch
Ġeth anol
f ocus
Ġlarg est
d g
Ġamo unts
for ce
appro ach
Ġl oci
arr ay
Ġdele tion
ach ment
Ġeng lish
Ġexhib it
pro b
Ġn c
um p
Ġovari an
Ġfacil ities
Ġmetast asis
f ï¬ģcient
Ġst ay
tr act
Ġat tributed
ar th
st at
artic les
Ġfac ulty
pro ble
Ġh o
im e
tr aining
d f
i ï¬ģ
p b
om s
d on
cep ts
Ġdiv ision
Â µ
con duc
d id
no v
Ġreproduc tive
Ġp ac
cut aneous
Ġintest inal
ðĿ Ľ
c hemical
n h
Ġref lect
) )
Ġcyt os
Ġstr ati
correspon ding
Ġ1 20
bre vi
ectiv es
Ġsepar ated
ig u
un ct
Ġinter mediate
Ġl v
Ġv ic
Ġend ogenous
Ġreg ulated
le uk
200 4
c ation
Ġk nee
Ġcl aim
ab a
Ġl ost
Ġse ed
ific ations
l ines
am b
Ġag es
Ġb ed
Ġl act
ad ap
ex pressed
sur vi
Ġprot ective
Ġphosph ate
se vere
am o
am ic
Ġaware ness
icro bial
Ġtrans ferred
Ġent ry
ati gue
Ġve get
s oci
Ġn r
Ġvess els
Ġbarri ers
Ġnever theless
r is
Ġt or
Ġaustral ia
ang er
Ġtrans plantation
Ġvirus es
Ġcandid ate
Ġtr ained
Ġeff icient
om ical
ul ative
gr aph
Ġsepar ately
Ġpos itions
Ġexpress ing
co res
l arge
10 8
con dition
Ġhe aring
bl ast
Ġprofession als
Ġ5 3
tt ps
m atic
health y
Ġro t
ins ic
Ġconf ound
Ġim plications
Ġmir na
Ġcerv ical
ed ic
Ġ19 90
consid ered
Ġt et
uc ts
Ġdeï¬ģ n
Ġac cordance
10 7
Ġp it
Ġle af
Ġmic ros
pr ing
re lev
intern ational
f it
Ġcr y
Ġdepend s
Ġv eter
Ġlim b
z a
Ġm v
Ġsim ulations
Ġinstit utional
Ġembry os
m ill
s ent
radi ation
d p
character istics
ad ian
14 0
Ġspon taneous
Ġmicro bial
Ġn ame
Ġ5 1
Ġw ord
Ġcontinu ed
âĪĹ âĪĹ
Ġassem bly
ercul osis
ag ain
Ġalter ations
ococ cus
est ing
Ġmor bidity
ozyg ous
ac u
Ġvi ability
Ġdom inant
b odies
Ġsuccessful ly
h an
Ġcon tributed
Ġphys ician
ward s
Ġconsequ ently
Ġh la
oh ist
Ġp f
aff ected
Ġd ur
Ġ5 4
c b
exam ple
expos ure
Ġel derly
in i
Ġre ag
ig ene
Ġalle les
Ġp ages
associ ation
Ġassess ments
Ġh ous
g ing
Ġinhibit ory
Ġz ero
Ġadhe sion
ur ally
significant ly
ological ly
Ġres tricted
Ġimpro ving
Ġsn p
Ġper i
Ġsc hed
v an
Ġres ection
Ġf old
Ġse iz
rel ative
Ġinj uries
Ġnan op
ines e
compar ison
Ġd ark
Ġprof iles
Ġneuro logical
ric hed
ol ip
ig are
or ts
fig ures
Ġ ery
Ġagr ic
Ġon es
Ġgo als
Ġpro mis
Ġdis tric
ch lor
Ġexpl ored
Ġfail ed
Ġur inary
olog ist
Ġref lec
Ġfew er
Ġex tension
individual s
Ġb d
Ġcolle agues
t ory
Ġde ple
av age
Ġpos itively
ri es
Ġconï¬ģ rmed
Ġbr azil
Ġgradi ent
endi x
c as
c ip
t ured
Ġ ure
ag o
Ġinter face
Ġconduc t
pos ite
Ġclin icians
Ġn itrogen
ï¬ģc ial
Ġpl ots
Ġcent ers
Ġpregn ant
Ġcy tot
Ã ¼
Ġplat form
Ġparen tal
Ġex tra
Âł Âł
ang l
d ents
ect in
inv as
Ġbe g
Ġmem branes
Ġoccur ring
por tion
Ġ5 8
Ġman ip
Ġ( ï¿½
qui re
Ġengine ering
Ġe lis
Ġp ay
ac cess
Ġpar ad
Ġgas tric
Ġdup lic
re al
Ġorganis ms
Ġnear ly
Ġ $
h at
wor ld
pri or
ari ties
Ġload ing
Ġchem istry
ur g
Ġel igible
d ent
Ġmut ants
- (
av y
Ġinj ected
at o
Ġtranscri pts
Ġestim ation
Ġtoler ance
gen ome
Ġpur ch
Ġsatis faction
Ġmat ched
Ġphen otypes
Ġcomplex ity
Ġ **
fe eding
p al
Ġmin d
ľ ĩ
Ġinterest ing
ade qu
pre gn
Ġmedic ations
Ġg ave
dehy de
Ġmanufact urer
Ġsur ge
Ġl ac
ch ron
Ġpharm aceu
Ġw at
Ġ8 5
Ġh u
Ġanti biotics
Ġcoun s
Ġv o
st olic
Ġb ow
Ġtrans lation
Ġche st
og ly
unc tion
Ġbo ard
f at
Ġconstr uct
Ġa k
u ce
ik e
Ġr aw
educ ation
os te
Ġw il
Ġanti oxid
ro g
Ġac tin
Ġrepresent ation
ber t
Ġk m
Ġgen otypes
Ġb m
Ġtheore tical
appro priate
def ined
f ol
Ġdecre ases
Ġne utroph
Ġstand ardized
Ġto bacco
perform ance
Ġh cv
Ġloc us
ob es
Ġpro v
e ur
Ġd s
11 1
Ġres istant
ak er
Ġm os
Ġsimilar ity
Ġanti biotic
in tr
om an
pol ar
Ġt gf
Ġconf lic
Ġm ess
p in
he rent
Ġatten u
Ġrequire ments
Ġcoord in
Ġseg ment
brid ge
Ġbec ame
pol y
Ġcon clusions
Ġad di
Ġaff ects
Ġfac ility
Ġcor poration
inï¬Ĥ amm
ophag y
Ġp yr
Ġsh if
Ġdis charge
ad y
Ġmetast atic
ox ia
ib ri
Ġsign alling
b our
r or
Ġpart ner
Ġth reat
c ause
duc ing
bre ast
ste in
pro g
p ower
Ġmetabol ites
Ġsubj ected
pres ence
h ab
pre ad
Ġbegin ning
Ġe gfr
Ġagric ult
dr ich
Ġsome times
commun ity
us h
c itation
t ol
Ġan th
Ġdelay ed
r ati
Ġu v
Ġbarri er
Ġrepresent ing
Ġpri vate
ound s
Ġinvol ve
Ġdi rec
Ġwh om
Ġvel ocity
Ġproxim al
âĹ ı
ost asis
Ġmalign ant
Ġlibr ary
meas ures
d d
con n
re comm
Ġprac tical
res id
res istant
Ġinter act
ci ples
des pite
Ġa the
Ġgl ass
cogn itive
g p
ï Ļ
ass ay
Ġm b
Ġ6 8
Ġcoeff icient
diab etes
00 6
Ġf ri
Ġk ine
adv ant
Ġon going
Ġmethod ology
Ġd ial
Ġcomp art
ne ver
vari able
Ġup d
Ġex change
Ġelectr onic
Ġp ip
Ġe lic
vari ables
Ġcaus al
ac ute
on in
Ġorg ans
Ġsuscepti bility
Ġl ap
Ġpath ological
ðĿĳ ĥ
Ġc amp
if er
Ġpre cur
p uts
Ġc um
tis m
de pend
Ġp ure
Ġhydro gen
Ġop tion
m el
struct ure
Ġman ual
Ġ4 00
Ġdetermin ation
ti tive
Ġg al
iv ariate
Ġval u
Ġprogn osis
d ys
Ġn erv
Ġman ifest
11 6
Ġenc oding
Ġcommerc ial
Ġde ï¬ģc
al ities
c onstr
Ġs or
Ġmir nas
Ġdem and
Ġv ag
Ġinten sive
b ot
uv ant
Ġdel ivered
Ġ ice
Ġab use
Ġj ob
Ġplate let
Ġl ps
vi a
t age
Ġm er
ap plied
Ġrele ased
previous ly
Ġenrol led
arcin oma
Ġunder stood
Ġ5 7
it ored
Ġcult ural
m ass
Ġper me
Ġlim its
Ġpro gramm
Ġc ys
Ġinvas ion
Ġsp ring
un its
a ud
o u
out come
ig er
Ġdr inking
s ection
Ġc asp
Ġ5 9
id a
ocr ine
n icity
identi fied
ve y
Ġpos i
Ġam b
b ene
Ġte le
Ġh arm
Ġas pir
ary n
Ġsup press
ac cur
Ġh d
Ġnet herlands
not e
Ġfood s
Ġt g
Ġw est
Ġdatab ases
Ġpsychiat ry
n es
Ã ¡
anis m
Ġc yp
Ġc x
Ġinstr uctions
Ġo ct
t m
Ġnucle otide
Ġbiomed ical
Ġpredic tors
id er
net work
Ġma x
Ġy iel
Ġph ases
Ġret inal
Ġhigh light
f ib
f ield
h ang
Ġfund ing
at g
Ġh app
ox icity
Ġcap s
amin o
i op
Ġobes e
res p
Ġreduc es
Ġplas mid
Ġsign iï¬ģcance
Ġpneum onia
âĢĿ .
Ġvary ing
r in
Ġqu ite
ti ation
Ġreg ulate
Ġpres ents
kins on
11 5
Ġdist ur
Ġon t
pat tern
elec tr
t ests
biom ed
Ġm ature
Ġnm r
w r
Ġul tim
temper ature
Ġ9 9
surg ery
Ġfr ame
Ġp ts
Ġevid ent
the tic
Ġdefin ition
min im
it ary
ore ctal
Ġpath ogens
t yp
v acc
pol ym
Ġlicense e
Ġpol i
Ġvol unte
Ġen able
Ġaut om
s cores
00 7
Ġcol d
Ġadap tation
Ġpartic le
Ġattem pt
ap op
sh ip
Ġpe er
Ġampl itude
Ġaim s
Ġs f
a vi
Ġdig ital
Ġconsider able
Ġhab it
am a
Ġeï¬Ģ ect
Ġshor ter
ere sts
Ġsup ply
Ġdif fusion
op o
op y
se q
ch a
b ance
f ood
k en
s ource
Ġub iqu
re t
on ds
ur ia
ier arch
Ġdon ors
cour se
ili ar
c ul
clus ive
Ġfr ance
b ase
Ġretro spective
n als
s f
ac char
Ġg c
Ġ( Â±
Ġd imensions
o king
ro se
Ġre habilitation
bl ack
Ġth in
review ed
Ġbil ateral
Ġex pansion
Ġde b
bor n
gl ucose
Ġrelev ance
further more
id ing
Ġac ademic
Ġsubst ance
c ine
Ġcop y
Ġhor iz
e le
Ġ uc
Ġne ither
Ġm aps
Ġindi vid
echn ology
Ġcaus ing
s pon
Ġop tical
Ġal ignment
Ġb reat
sur face
Ġp v
) /
med ium
fr act
Ġas d
it em
Ġk ind
ph il
i vely
Ġdist ress
am pl
Ġ âĪ
pro per
Ġef fort
it ect
ac ross
ec tivity
Ġorient ation
Ġr ing
Ġsepar ation
Ġlocal ization
roph y
Ġ6 6
on o
yl ated
Ġdown stream
Ġs i
Ġex plicit
Ġbloc ks
Ġke pt
Ġreson ance
Ġadj acent
Ġtranscri ptional
il st
Ġtren ds
roscop ic
pir atory
e urope
Ġ( <
Ġg ut
Ġpil ot
Ġeas y
d ensity
Ġex cell
re pe
200 3
d ig
Ġscenari o
re tro
Ġsc at
Ġunder go
Ġoverl ap
Ġsub unit
Ġa z
Ġc u
Ġre current
f inding
e ither
f o
Ġex ten
Ġex ce
Ġvul ner
ill ing
out comes
Ġdistingu ish
t w
ol in
Ġgen omes
Ġ6 3
Ġdistrib utions
Ġl ifest
ct g
Ġd ual
Ġsim ulated
c ost
g ood
Ġf u
Ġn k
12 8
Ġser ve
Ġprog ressive
mod erate
Ġs v
Ġph il
Ġuncertain ty
Ġf ever
Ġpul se
ad dress
Ġob str
mor ph
Ġcomput ational
Ġob vious
Ġimportant ly
Ġf ear
Ġr ig
Ġimprove ments
Ġprolong ed
pe ak
Ġconsequ ence
ion e
ep it
Ġh ind
Ġgl uc
Ġlay ers
Ġve hicle
determin ed
Ġco x
Ġ6 2
Ġsens or
Ġen ab
Ġpa ired
l oss
um atic
r p
Ġexplan ation
are a
Ġprocess ed
Ġrec all
imp act
met ric
11 7
av ir
Ġnucle i
Ġsitu ations
Ġe ating
Ġi ons
Ġlabor atories
Ġadap tive
m iss
se arch
Ġ19 94
Ġmeet ing
Ġmultiv ariate
Ġf isher
Ġs keletal
Ġaffect ing
Ġsuper nat
Ġconfir m
pre valence
arg ed
Ġrec ip
second ary
Ġp k
sensi tivity
/ âĪĴ
Ġsal t
l ist
Ġpath ogen
Ġl uc
Ġac compan
develop ed
Ġconn ected
Ġm and
Ġabs ent
sh ort
v ine
Ġb ay
Ġso u
Ġvis ible
Ġinf arc
Ġcd na
Ġsurve ys
Ġa ortic
Ġ 000
correl ation
am ination
Ġf elt
Ġver te
Ġchrom at
Ġper haps
13 3
Ġlim itation
ul ates
anes e
relev ant
Ġoper ation
recept or
f i
Ġel imin
Ġneuros cience
Ġc ro
ĠÂ ·
Ġequ ally
____ ____
Ġtim ing
Ġun able
rough t
oscop y
re me
qu antit
Ġcl ar
Ġrad ical
Ġcoh orts
appro ximately
yl in
Ġhe aling
s af
et her
Ġd imension
Ġep ilep
Ġ6 7
Ġutil ized
Ġit aly
Ġpath ogenesis
n l
Ġo sc
ari an
Ġfound ation
de ath
Ġpolic ies
Ġvir t
Ġimp acts
Ġim ag
Ġpack age
Ġn ons
Ġcul tiv
ain t
Ġ( .
Ġj us
01 7
Ġprec ision
ĭ ħ
control s
Ġemph as
inde x
00 8
str ateg
g re
im plement
Î º
Ġsu ic
g ent
vol ution
Ġattit udes
Ġneon atal
st ances
Ġprac tition
Ġenc o
Ġv enti
Ġeï¬Ģ ects
g m
Ġhe patitis
k n
Ġco ef
Ġspec trom
gl and
Ġopportun ity
Ġcomp ens
ot o
Ġprec ip
Ġpar tially
os es
Ġtra it
sequ ences
Ġm n
Ġsch izophrenia
Ġther mal
pers onal
Ġex cess
Ġpredic tor
tr ies
Ġspeciï¬ģc ally
Ġnerv ous
Ġover night
Ġmet ric
Ġdog s
Ġse ason
ing er
cr iter
bed ded
Ġreplac ement
Ġpromis ing
ace ae
Ġrecombin ant
Ġsurround ing
Ġide a
Ġsummar ized
Ġb ud
Ġve gf
til age
Ġb ab
Ġle aves
Ġins ide
Ġarth ritis
trac ted
experim ent
Ġpro gen
Ġcom b
Ġquestionna ires
Ġqu ick
Ġg fp
hyp othe
Ġint erests
Ġpers istent
Ġen rich
Ġimmun ity
co unt
Ġcompos ed
evalu ation
Ġk o
Ġcle an
Ġsynthe tic
th rom
12 6
ac es
Ġobj ects
Ġt ex
01 6
jug ated
Ġadjust ment
e a
Ġp y
Ġvis ion
Ġvess el
Ġp ow
Ġ6 1
ul i
Ġdors al
Ġf atigue
Ġob st
Ġprogn ostic
Ġh apl
Ġmicroscop e
tr action
Ġsmo oth
Ġs s
at p
Ġco vered
11 4
Ġbl ind
dis cipl
Ġconsid eration
es tion
Ġb ac
Ġfrag ments
Ġfav or
11 3
hydro gen
Ġelis a
Ġevolution ary
squ are
se par
demonstr ated
ob j
Ġeng agement
Ġfrag ment
os ed
our nals
Ġbec omes
f ect
Ġcriter ion
Ġh our
Ġac com
medic ine
Ġact ually
Ġinduc es
Ġcap able
Ġcontin ue
aw a
Ġr anges
Ġspe ech
plas ma
Ġe ch
ure us
ill us
Ġempir ical
Ġcon cluded
contr ast
Ġu ter
Ġre tention
il le
Ġsper m
si ties
Ġsup erv
Ġop in
Ġnam ely
Ġ Ã
otyp ing
18 0
resp onses
Ġde pressive
invol ved
po or
k b
Ġpeak s
op a
com a
Ġinvestig ations
Ġform at
Ġatt end
ic les
Ġenviron ments
Ġex on
ap ed
Ġb er
ens is
Ġfr ontal
Ġcontrol ling
Ġch inese
ak ers
Ġindic ator
plac ement
incre asing
pop ulations
frontiers in
Ġadap ted
Ġr ule
for ward
Ġschool s
Ġre active
pr in
Ġsem i
Ġcere bell
Ġextrac ts
he a
Ġhighl ighted
u is
en ergy
it ations
q ol
em erg
op es
d t
an ine
cy cl
Ġsup pression
Ġpol yp
Ġvacc ines
in come
Ġe ti
sup er
Ġdetermin ing
Ġprincip al
pe ople
Ġbot tom
ystem s
at ase
Ġconï¬ģ dence
Ġradi o
Ġregard less
Ġa way
Ġprob es
âĪ ĺ
Ġve in
Ġgir ls
Ġbeh alf
Ġï¬ģx ed
Ġ2 50
16 0
Ġhist ological
Ġte aching
ic in
Ġn urse
on line
Ġpool ed
yl oid
re duction
Ġsc heme
am eric
ac ic
Ġnec rosis
Ġpresent ing
Ġm im
ob last
paramet ers
heum at
Ġint act
ar tile
Ġdep ic
Ġabsor ption
Ġsim ply
Ġth al
ad r
Ġinhib ited
ast olic
Ġunder going
se lected
Ġs ds
Ġn p
ag re
Ġlab eled
Ġï¬ģn d
Ġcontrib utions
Ġconstr ucted
v it
Ġcon form
Ġgl ob
Ġdec ades
Ġt ables
o a
Ġas pect
ros ine
Ġo a
Ġm ood
Ġflu or
lic es
Ġd end
co x
Ġconsist ing
Ġcompar ative
artic le
w id
ci ous
Ġsc aff
Ġc ad
Ġm ell
Ġretur n
Ġt rop
Ġver tical
l iver
Ġcl on
11 9
Ġgl i
Ġcom e
Ġidenti ï¬ģcation
Ġre in
Ġemerg ing
cons um
200 2
decre ased
pend ed
Ġcs f
Ġconcer ning
Ġsus tain
Ġro ad
Ġa id
l iter
Ġvide o
ph one
Ġcombin ations
adi ly
Ġtransi ent
uc tive
Ġmm hg
Ġincreasing ly
11 8
Ġv ital
ven ess
â ĭħ
ig m
ro zen
Ġpancre atic
prof ession
11 55
bur g
n k
bl ue
Ġprin ciples
re le
ence phal
lim ited
Ġanaly ze
al drich
Ġf ix
al cohol
itone al
path y
Ġun treated
phosph ate
ears on
Ġm om
Ġj u
200 1
Ġseg ments
n ate
we ighted
Ġresid ents
Ġb odies
Ġpre ferred
i qr
em o
Ġneg atively
adequ ate
Ġse arc
os al
Ġl dl
am ental
Ġmed ial
Ġdefic iency
Ġpos sess
ðĿĳ Ľ
i ans
Ġatt ack
Ġch anging
01 5
ic y
Ġdis c
Ġ19 93
Ġl if
Ġnew ly
Ġman n
Ġfig ures
inter action
bi ological
ne a
Ġscore d
ti lis
com it
lip id
q i
Ġconver sion
Ġmove ments
s ti
Ġde pos
re cor
Ġlifest yle
Ġtrans form
Ġcop d
Ġk r
itr ate
system s
Ġ um
uc id
suc cess
u its
si x
Ġperform ing
Ġim plicated
Ġequ ation
pharm ac
Ġaut omatic
Ġocc as
Ġmod ern
ly sis
ach ie
Ġconsist ently
Ġdi e
assess ed
d uration
again st
d c
Ġapp ly
s pe
Ġad d
Ġfores t
pl c
Ġeff ectively
Ġmon itored
Ġover view
Ġe ver
il ibri
Ġtrans formation
Ġevalu ating
re w
12 1
re x
Ġutil ity
Ġsh ock
brevi ations
percent age
ant a
b and
Ġrel ax
de g
Ġthem es
Ġextrem ely
Ġsup ports
Ġinf usion
y t
ir a
Ġcalc ulation
Ġantim icrobial
f ast
Ġmin eral
Ġcluster ing
na ire
nec ess
Ġindic es
Ġcirc ulating
Ġappear ance
12 2
u x
Ġcommun ic
Ġpar a
t ween
reg ular
Ġv ill
rec ogn
si es
et te
yo ung
Ġhe ld
s oft
Ġ Ã¾
Ġb ond
and a
p es
transfer ase
f und
Ġa a
Ġpoor ly
provid ed
Ġe ast
Ġcalc ulate
Ġ9 4
yn thesis
Ġview s
res istance
d ynam
Ġinstr uments
Ġmob ile
fin ally
Ġin oc
â Ħ
st able
Ġar ab
ac tic
ol ytic
oc om
ocy tosis
Ġpro vision
Ġcon cepts
of ten
Ġse lect
in str
Ġh c
gl obal
Ġassum ption
Ġvol umes
f il
Ġremo ve
g ence
Ġl y
Ġad dic
vis ual
Ġsimultaneous ly
Ġh al
se lec
Ġk da
chy mal
ch all
Ġcham ber
p ted
Ġk er
ie f
- ,
or a
Ġepidemi ology
Ġscienti ï¬ģc
Ġtom ography
h ome
Ġk b
Ġalgorith ms
c ag
l ung
Ġv ectors
Ġiniti ated
Ġat m
ci ent
bir th
Ġh all
Ġl n
model ing
oph age
labor atory
Ġas tro
Ġreconstr uction
ol ds
Ġt ro
Ġtub erculosis
great er
on ists
cs f
m ight
l ot
Ġ10 6
Ġworld wide
Ġh g
Ġanaly tical
Ġep igene
ĠÂµ g
Ġn ad
12 7
om ers
os ing
invas ive
Ġmus cles
Ġst ake
Ġbor n
Ġinï¬Ĥamm ation
os ine
pers on
bl ing
Ġca ro
Ġpublic ations
Ġtra ject
Ġsign ifi
a uthors
Ġc n
12 9
br a
âĹ ¦
b ach
Ġre ward
he x
th ro
Ġwith draw
Ġsus tained
Ġischem ic
Ġf ur
Ġsyn aptic
hydro xy
Ġoper ating
Ġparticip ating
Ġdil uted
Ġ( >
Ġt ib
Ġput ative
Ġv ar
Ġrequ iring
ug e
Ġpre d
Ġh ierarch
Ġven ous
d b
p he
on ym
Ġking dom
g el
Ġguid ance
gu id
Ġindustr y
Ġbri tish
oster one
Ġviol ence
v in
Ġscenari os
Ġig f
ist ence
Ġdri ven
Ġn arrow
ex isting
Ġconsist ency
bid ities
at he
th ing
cult ure
Ġg m
pro portion
12 4
od er
Ġt un
Ġm p
te en
Ġsubstr ates
Ġf ocal
Ġag ree
t og
Ġreg imen
Ġt akes
Ġcons ecutive
ti ents
Ġd c
am us
inc ub
Ġsa id
Ġpre ference
k r
Ġsur faces
Ġdepend ence
w all
ak i
Ġalb umin
Ġchalleng ing
Ġhe avy
f ar
ĠðĿ ľĩ
Ġr ac
Ġstrong er
em b
Ġbelie ve
Ġscreen ed
Ġo uter
Ġmitochondri a
odynam ic
ocl onal
ob las
Ġc ust
Ġsc ans
ocy t
Ġcor rected
Ġcharacter ization
Ġn ull
Ġclos ed
am ate
ad ic
Ġhist or
uff icient
Ġtemper atures
Ġre n
Ġwal king
re quired
â ĸ
res olution
Ġim mediate
Ġbr onch
Ġobj ectives
ilibri um
Ġt ip
Ġepis odes
Ġre p
c enti
Ġt s
Ġphenomen on
p red
process ing
Ġadop ted
Ġn y
Ġg on
Ġsubj ective
survi val
Ġr p
Ġnorm ally
ia e
de pression
Ġansw er
Ġeth nic
Ġb us
Ġp up
Ġdri ve
Ġform er
Ġver bal
Ġsqu are
Ġlack ing
pro lif
l ate
press ure
Ġsampl ed
Ġparas ite
c oding
n ab
Ġoff ered
Ġpor tion
se g
mor tality
Ġfract ures
on as
men tioned
ox ygen
gl uc
ï¬ģ ned
Ġd f
all i
Ġgr aft
Ġpredic tions
Ġt c
Ġswed en
Ġsupplement ed
Ġem ission
Ġa ids
Ġphyl ogenetic
as ian
Ġb ip
Ġra ised
og r
Ġdescri ptive
Ġtr im
ab ove
he art
Ġexper t
instit ute
Ġb c
Ġsc oring
ins ulin
it ting
Ġ6 9
spec ial
re veal
Ġd l
Ġchrom atin
Ġha ir
Ġex ception
Ġthe rm
Ġins ight
Ġo ph
Ġ9 8
Ġir r
Ġoxid ation
Ġte ac
therap eutic
âĦ ¢
01 0
Ġcryst al
Ġa ureus
che mo
Ġefï¬ģc acy
Ġad hd
13 2
ough t
Ġt lr
th ird
prac tice
w estern
Ġpro s
where as
Ġnutr itional
und red
+ )
Ġgl and
Ġc odes
Îº b
13 5
Ġre vers
ch i
mo ther
Ġpsych ology
Ġchar ge
estab lished
Ġtr yp
Ġsp ss
Ġph d
ec al
pl ies
Ġtreat ing
fr action
ol ine
ps is
Ġtum ours
Ġphysi ology
re mo
Ġad ding
ch anged
lear ning
Ġclear ance
Ġinï¬Ĥamm atory
Ġde pri
Ġsal iv
m ade
al ed
Ġun likely
Ġpre ced
Ġb rown
ia z
14 5
v ents
Ġdi ed
100 7
bo hydr
Ġf ibr
Ġscan ning
Ġdraw n
ograph ical
Ġsim pl
provid e
Ġwh ilst
sc an
j a
tex ts
p yr
Ġr ules
Ġlip ids
Ġapp lying
Ġr ice
ac a
ig ly
Ġman age
concentr ations
rh age
Ġim plant
Ġbelie fs
ophy si
15 5
b ul
ly s
Ġconn ectivity
Ġadvant ages
Ġst ream
Ġpredominant ly
) *
Ġresid ue
Ġs ac
Ġn t
Ġcompr ised
r ab
pl atin
maxim um
or th
Ġexper ts
Ġintegr ity
anti bodies
il ing
Ġmon o
Ġlig ands
s at
Ġï¬ģ g
Ġt rees
j i
Ġs ay
ne ed
pro te
on ucle
Ġh am
prot ocol
met h
Ġdifï¬ģc ult
Ġpro min
Ġsp p
Ġl l
Ë ļ
Ġtrans genic
Ġc ues
id i
Ġbiomark er
Ġc oc
Ġf c
Ġrestric tion
Ġr ights
Ġrem ark
rati o
Ġmac ro
Ġhor mon
Ġsub group
ol a
Ġw ant
Ġac ts
ter min
p th
Ġtop ic
Ġmicrobi ology
cent er
Ġbl ast
z he
ac in
calc ulated
Ġapplic able
Ġsin us
inf lu
inï¬Ĥamm atory
vari ous
one y
Ġd ro
om ing
Ġpolymer ase
Ġintra venous
Ġanat omical
cons istent
g ov
t nf
Ġdecre asing
que ous
Ġphen otypic
Ġen riched
Ġtrans plant
si an
Ġsp ent
Ġyo uth
wh it
Ġr am
os up
unc il
Ġide al
13 1
met ry
j ected
Ġl am
Ġsur prising
des cri
Ġd im
Ġtem plate
Ġs ector
experim ents
s ens
Ġcom pliance
Ġbu ild
Ġe eg
ail s
Ġproï¬ģ le
Ġt m
Ġa uc
he rence
Ġhypothe sized
ap i
h f
ifor nia
w al
r ane
Ġen gland
reg ions
Ġsus pected
os ocial
Ġsol uble
Ġmaxim al
Ġfib rosis
Ġcoup led
c ere
Ġfr actions
Ġbehaviour al
Ã Ń
w ar
ce mia
Ġair way
Ġw oman
Ġf ields
Ġcat heter
Ġ7 1
ides pread
ĊĠĊĠĊĠĊĠĊĠĊĠĊĠĊĠ ĊĠĊĠĊĠĊĠĊĠĊĠĊĠĊĠ
ex posed
Ġmammal ian
Ġreg istered
Ġ10 5
Ġbl adder
00 9
mech anisms
Ġar gu
sub sequ
Ġne oplas
Ġrating s
Ġ 01
sensi tive
b ic
Ġex ists
ptom atic
Ġun iform
discipl inary
Ġst ock
recent ly
st ar
id ae
oin form
anim als
Ġinf il
Ġ19 92
Ġcum ulative
Ġf ox
acer b
ph ot
us ions
Ġhyp oxia
elec tro
Ġnot ably
Ġins ights
Ġte eth
Ġse a
Ġman ag
Ġstim ulated
surg ical
Ġclin ics
Ġdistric t
Ġoverex pression
l it
Ġv ox
Ġhouse holds
op or
r u
Ġs ought
Ġb ands
Ġcor tic
Ġpot ent
trial s
m ix
id ge
Ġw nt
Ġs un
tog ether
h p
Ġsy stolic
Ġb es
Ġatt achment
Ġpro ce
Ġpartic i
Ġpre lim
v ae
Ġarch itect
am atic
m n
h n
Ġclassi ï¬ģcation
is a
Ġconcept ual
Ġmod elling
âĪĴ /âĪĴ
present ed
Ġpurch ased
ves ted
Ġsus pen
Ġmell itus
Ġcar tilage
Ġend ometri
a ids
v as
un known
Ġpharmaceu tical
Ġprec ise
ophage al
gen ital
Ġlead ers
ag a
mat ched
f all
f ive
i asis
inter view
set ting
ophil a
Ġosc ill
Ġembry onic
Ġmarg in
bl ock
Ġfol lic
epit hel
Ġwid th
Ġmetast ases
Ġp ort
Ġdeple tion
Ġbow el
on a
f u
w ave
Ġval ve
truct ure
Ġs ud
Ġ7 7
Ġimmun o
Ġmelan oma
Ġappro xim
Ġs hel
Ġimmun ohist
Ġ \
Ġres us
Ġmorph ological
ur ated
Ġdemonstr ating
Ġor d
Ġexcell ent
r at
b en
Ġbo vine
Ġantioxid ant
Ġ7 6
Ġc red
phosph ory
initi al
Ġgr ay
hold ers
Ġdef ect
Ġde x
Ġ7 8
Ġinfarc tion
Ġsu fï¬ģcient
Ġ7 3
Ġd as
Ġenrich ment
Ġso le
up per
ons et
Ġdis continu
in tra
13 4
plas ia
Ġdoc tor
Ġinser tion
op s
ģ Ħ
Ġinflu enced
Ġrel apse
Ġde position
Ġprincip le
v ors
Ġs ul
Ġsh ar
Ġcv d
Ġt ag
st atus
Ġsmo kers
bacter ial
dem ographic
Ġconï¬ģ rm
Ġcom pl
Ġpres cri
Ġ7 4
Ġau tism
os ity
Ġregen eration
Ġh dl
Ġbiom ass
13 7
eng ths
Ġpro jects
Ġout break
Ġ )
Ġrel ig
n y
an cer
Ġform ula
Ġa e
ici ents
h b
14 6
a is
org anisms
Ġmat ch
test ing
ak a
Ġwor se
Ġwas hing
pl an
c alled
criter ia
Ġn ight
Ġsubstanti ally
gener ative
Ġint ended
uct u
Ġcompos ite
sk i
Ġdiagnos es
Ġopportun ities
mc s
. :
Ġsig ma
reg arding
Ġsir na
iz umab
Ġger m
Ġhe mor
y al
Ġe g
screen ing
Ġop posite
Ġad mitted
Ġf ab
op eration
Ġpl ane
Ġhyp oth
Ġradi otherapy
c tion
ew hat
) ]
unc ed
fact ory
Ġ "
k le
Ġd ut
Ġn acl
Ġr v
ir al
Ġweek ly
Ġbeneï¬ģ t
Ġoccup ational
4 50
ĠĠ ĊĠ
spec tively
Ġaccept able
ven tive
Ġcomple tion
mus cle
Ġmm p
Ġischem ia
ograph ics
Ġgastro intestinal
con trib
Ġdoc tors
Ġel ucid
asc ul
Ġox ide
Ġrare ly
the m
Ġintr insic
h ttps
l at
Ġantigen s
Ġper fusion
Ġneigh bor
Ġoph thal
Ġr ational
Ġstr a
Ġemerg ed
Ġc igare
Ġlymph ocytes
Ġvalu able
ch r
Ġfund amental
Ġaud itory
Ġlymph oma
admin istration
Ġbi ol
Ġpts d
Ġy ork
or ient
âĢ ¡
oti des
Ġb is
Ġf aster
Ġbehavi ours
Ġcyt ometry
Ġh b
Ġtr is
Ġwe ights
Ġenhance ment
Ġtra vel
Ġbene ficial
Ġ8 4
Ġic u
Ġautom ated
Ġsp an
Ġagre ed
al tern
13 9
Ġdil ution
ol i
Ġr hyth
igly cer
Ġm u
proced ure
b ia
eff ectiveness
si veness
Ġunder taken
Ġhome ostasis
Ġmo tif
r ates
Ġnecess arily
Ġcryst all
Ġst rom
di et
Ġd b
Ġref ers
wee ks
Ġnutr ient
h ort
oc arcinoma
Ġed ge
h m
Ġ9 7
Ġathe ros
c ast
Ġdeg rees
Ġveter inary
Ġpath ogenic
anti body
Ġ uro
ste ine
Ġcav ity
Ġmain taining
combin ation
Ġpen etr
sam pl
Ġh bv
estim ated
feren t
de fic
environment al
an ova
un ately
t te
Ġcasp ase
in clude
urs es
ili ary
Ġfin ancial
Ġfr uit
Ġlo ok
th res
more over
Ġfast ing
on omy
Ġpre valent
Ġelse where
tro sc
tis ol
Ġdo ub
Ġdiffic ulties
Ġe ct
Ġaut ophagy
Ġof fs
Ġinterpre ted
an z
on y
p y
Ġdiscr imination
physi ological
Ġy ellow
Ġco ugh
Ġext reme
13 8
ox in
Ġultim ately
Ġcol orectal
anim al
Ġfour th
ic illin
Ġinstit utions
Ġclass ical
. ;
Ġobser ve
Ġl ib
13 6
---- ----
Ġexamin ing
Ġpharm acy
Ġdemonstr ates
zhe imer
p us
Ġop i
p eptide
d iss
ag ulation
finding s
oph ys
Ġyiel ded
Ġg iving
Ġvolunte ers
l ack
Ġ19 91
Ġr ace
Ġdi rected
Ġnanop articles
s ter
Ġme a
Ġcr is
Ġmob ility
it ol
Ġcovari ates
c ad
es tive
Ġfung al
Ġinter fer
plic ate
Ġadmin istr
Ġe u
under standing
Ġfa ir
dri ven
conduc ted
biomed central
Ġf as
Ġh oc
ok ine
ap hyl
ri tic
Ġbelie ved
Ġstruct ured
Ġhoriz ontal
Ġr c
Ġmod iï¬ģed
Ġpres cribed
Ġsuscepti ble
Ġparticip ated
wh ole
r ank
sub ject
smo king
Ġ ut
Ġdi arr
Ġdiff ered
Ġfor ces
Ġvol tage
det ected
quantit ative
Ġtransf ected
Ġprom oting
Ġinhib its
m u
ti um
Ġpig s
il ities
agg ed
Ġtub es
whit ney
Ġc ns
p arent
qu in
â ľ
Ġas ia
Ġpoli tical
Ġsub types
Ġg ives
qu ito
current ly
Ġas ian
Ġprom otes
Ġadoles cent
Ġprelim inary
c up
t el
tro ver
bil ities
por ary
st reng
inten sity
Ġconstr ucts
Ġde vel
v ity
Ġelectro de
o on
det ection
Ġdiag ram
Ġhaz ard
Ġl g
dise ases
Ġadi pose
ic ular
er ge
Ġw ang
Ġpro ven
Ġinfer ior
clus ively
Ġequip ment
Ġun less
Ġâ Ĩ
Ġe osin
Ã ³
im age
Ġspectr al
c ct
t ations
Ġdetect able
. ).
ack now
mon itor
assi um
Ġs par
: :
Ġsc ope
yr us
Ġoffs pring
hist ory
oid al
Ġcontrib uting
Ġpic ture
Ġk en
Ġfem oral
Ġar ms
Ġcreat inine
Ġrefer ral
Ġexist ence
b enz
Ġs ib
Ġactiv ate
lab eled
Ġmach ine
Ġst ere
u f
Ġro tation
gr ap
Ġ7 9
Ġreï¬Ĥ ect
cat en
ent y
Ġox ford
us ting
Ġdevi ations
Ġproduc ing
oscop ic
Ġillustr ated
Ġc rop
l ings
Ġm urine
Ġbi of
Ġdef ine
mit ochondri
o o
Ġa ï¬Ģ
Ġass ist
follow ed
Ġs and
comit ant
i ence
Ġex pres
f ed
uc k
Ġh undred
Ġdescri bes
Ġle gal
Ġembr yo
or f
am es
e ties
Ġhippocamp us
Ġpro pose
sci enti
Ġover weight
impro ve
j un
Ġlob e
Ġadv ances
col l
met ast
af ts
path way
Ġemo tion
Ġsh aring
Ġutil ization
Ġl ists
Ġmod ulation
uk ary
Ġp ix
Ġjud g
in ely
ti se
Ġaccompan ied
dat ab
ir y
Ġn av
co up
Ġev ol
Ġmod er
Ġcorrespon d
+ ,
ne al
app ear
sign al
Ġgr am
coun tries
Ġlet ters
Ġben ign
Ġsou thern
c hen
load ed
Ġï¬Ĥu id
Ġameric a
Ġch ance
Ġsol vent
Ġdifferenti ally
h aus
ers on
nutr ition
Ġobserv ational
Ġlink age
Ġbr anch
Ġantic ip
14 2
Ġr heumat
Ġspec imen
Ġproï¬ģ les
Ġabund ant
Ġn hs
inc idence
Ġst ation
Ġ8 2
ocr in
Ġfil ter
Ġb order
Ġmicro array
inter pre
Ġch ick
Ġz inc
Ġreplac ed
f ying
de v
Ġ8 8
Ġpot enti
Ġas c
Ġcontrac ep
otrop ic
Ġun like
em br
Ġpres um
Ġs ound
ro om
Ġsug ar
pt in
Ġen s
Ġl amin
âī ¤
Ġbin ds
Ġhist one
29 3
s v
Ġinc ons
Ġmul tic
Ġsub groups
Ġepilep sy
Ġcontrib utes
Ġlocal ized
Ġprevent ing
Ġs omatic
8 00
enh anced
Ġnor thern
ow s
Ġconstr uction
Ġs ick
14 7
Ġmin i
Ġbiot echnology
Ġepithel ium
avail ability
Ġfam iliar
14 3
h ind
psych ological
es pecially
it ability
Ġt p
ot omy
pro p
sc ales
Ġattem pts
oc on
r un
ge al
mb h
reg ression
Ġper for
us es
Ġ8 3
Ġv acu
l v
Ġd imin
or ous
Ġcap tured
b ank
x yl
Ġus ual
ĠÂµ l
s ession
Ġauto immune
Ġadv ance
co hort
Ġ8 6
Ġsynthe sized
c ore
e k
oc t
Ġper ceptions
Ġx en
Ġquanti fy
s ense
ad ult
Ġap art
Ġindic ation
Ġbo ys
ch ain
Ġc hen
u a
14 1
diagn ostic
ol ysis
Ġprot ect
Ġdifferenti ated
Ã ¤
Ġf rozen
14 4
rel i
led g
Ġepigene tic
sor ption
Ġr n
measure ments
en osis
Ġv a
ple x
Ġrest ing
Ġpre operative
fron tal
Ġt ight
Ġs ys
Ġdr amatic
f uture
Ġw ood
Ġl ot
Ġk ore
l m
Ġd ip
Ġm ag
Ġcorrel ate
Ġangi ogenesis
Ġtr ain
16 3
ocy tic
Ġcalc ulations
k ine
re production
an ia
Ġb all
Ġheterogene ous
re cr
Ġgl omer
Ġt ac
Ġwe bs
Ġmat ching
Ã ¦
Ġaccur ately
i as
Ġbeneï¬ģ ts
Ġ8 7
Ġco uncil
Ġdiffic ulty
b est
Ġgreat ly
indic ated
Ġ9 2
Ġcollabor ation
Ġrab bit
t gg
t ct
Ġarrow s
m il
al t
Ġassum ptions
Â Ń
Ġh im
w est
Ġins urance
Ġcal ibration
Ġthres holds
Ġm ich
Ġh p
j u
Ġo h
Ġn h
Ġampl ification
r ine
ï¬ģ eld
Ġin her
unt ary
ev ents
Ġ ug
Ġlear n
Ġse p
Ġbuil t
Ġsc ot
impro ved
measure ment
Ġin hal
Ġh sp
Ġter minal
Ġaggreg ation
Ġch ains
Ġpl anned
Ġ8 1
Ġcon texts
Ġconstr aints
Ġy ields
ex p
qu anti
Ġgreat est
Ġleuk emia
Ġsl ides
Ġanesthe sia
r c
r im
ang le
Ġwid er
t ase
ver sible
Ġrequire ment
Ġw idespread
Ġcytoplas mic
Ġinflu enza
Ġregul ating
Ġpropor tions
Ġepid er
Ġle ak
neur ons
< .
re active
01 2
se lection
Ġwe ighted
Ġrel a
Ġ ***
mid dle
st roke
con cer
Ġcle avage
reveal ed
Ġw et
Ġn i
Ġcareg ivers
qu al
Ġdec om
Ġpredic ting
Ġvent ric
Ġv aries
vid ed
Ã £
a ug
Ġc os
acet yl
ec es
Ġneed le
Ġex cessive
Ġj e
g ar
Ġa queous
17 0
Ġcy st
Ġd enti
Ġr as
al dehyde
at um
Ġto oth
14 8
Ġh cc
ne u
europe an
a el
ac cept
Ġdec l
ci ences
Ġdiscre p
Ġan emia
omet hing
m aternal
Ġspeciï¬ģc ity
conf ir
Ġlar vae
Ġres olved
fort unately
Ġfeas ibility
comp et
Ġelectr ical
Ġcal ifornia
c ally
Ġus age
Ġtr y
Ġcardi omy
Ġd ic
ep id
Ġa ce
Ġtw enty
Ġparas ites
Ġre adily
Ġgen us
over ty
Ġent ered
Ġoff ers
Ġrun ning
t n
Ġb old
Ġover come
01 1
m otor
c ing
bi os
Ġpan els
Ġdes ired
Ġpr ice
man ent
e es
ul ose
Ġpur ified
Ġcirc ulation
Ġstat ement
m as
Ġt reg
oper atively
eth ics
Ġpercent ages
Ġbe am
re v
Ġsupplement ation
Ġr ated
Ġinvestig ators
Ġspl it
01 8
Ġmod ule
con ï¬ģ
pend it
Ġelev ation
Ġc oded
ph y
Ġaff inity
Ġcorrespon ds
Ġro ute
Ġcogn ition
Ġtrigg er
m ixed
Ġmod ification
Ġline age
mut ations
Ġaver aged
Ġpromin ent
roph ic
Ġ8 9
inj ury
par ameter
Ġf if
Ġhypothe ses
ci ated
cardi ac
ros ophila
k it
Ġr f
Ġass o
Ġmon oclonal
necess ary
Ġs ing
ed iatric
x a
opath ic
Ġprecur sor
Ġcolon ies
Ġb inary
it on
2 20
oc ks
Ġh ot
Ġex acerb
op sis
Ġmedic ines
Ġsocio economic
ple en
da ily
Ġï¬Ĥu orescence
w ood
Ä ±
Ġel ong
w i
Ġprogramm es
Ġout patient
Ġste ady
Ġar ise
inhib ition
osp here
. (
Ġag o
Ġin nate
Ġcoeff icients
in n
Ġcop ies
Ġcam bridge
r ather
Ġform ulation
Ġdri ving
in ate
c ant
experi ence
40 2
Ġeng age
Ġclassi ï¬ģed
Ġex ec
ul ed
Ġinvestig ating
ro us
Ġse psis
per fusion
e as
Ġbre eding
en chymal
ent a
Ġsl ope
Ġneur on
iz a
Ġfac ial
ti ated
Ġmo ving
Ġdiscr imin
t ow
en zyme
os ide
sub st
Ġe q
Ġgen omics
decre ase
or m
Ġo t
rec ip
Ġch ond
do es
employ ed
15 7
l uc
Ġco ol
ec e
Ġcomp rom
Ġi u
me ans
am i
ab breviations
ex pressing
Ġac ad
Ġhar vested
le ast
b t
Ġarter ies
Ġg ps
100 2
Ġar ri
Ġapp endix
j e
Ġvi able
combin ed
Ġpractition ers
t ested
ig ibility
optim al
l act
Ġt al
d ens
anti gen
Ġorganis m
Ġsti ff
17 2
cl c
Ġlife time
pen sive
inv itrogen
ati tis
Ġdis p
ĠÎ ³
Ġsh am
Ġpharmac ological
Ġr ub
Ġinv est
cy cle
Ġfocus ing
15 6
th ase
Ġvent ral
pan ic
Ġemploy ment
Ġsupernat ant
Ã£ o
Ġatt ached
plac ed
ar an
Ġst om
Ġster ile
Ġmat uration
Ġpart ly
19 99
fig s
Ġn iger
inter ventions
Ġcarri ers
Ġc asc
Ġass ume
Ġro ots
Ġcent res
Ġacco unted
Ġadi p
m uc
Ġsub type
Ġt u
Ġdec ade
cir c
so uth
Ġsubst ances
Ġw arm
Ġs es
Â ¼
Ġm amm
Ġcomplement ary
Ġst a
pl ays
d il
p bs
Ġcon c
Ġdo ing
Ġpro phyl
en ic
on c
Ġqu e
Ġem bedded
Ġbrief ly
Ġdiss oci
cy te
Ġaccording ly
diab etic
trans f
en a
de pth
Ġcol lect
Ġper centi
Ġperson ality
Ġs ports
gener ated
b f
ch ann
Ġorgan izations
le g
as i
aus al
Ġdisrup tion
Ġd ye
other s
Ġa th
Ġincorpor ated
Ġexp anded
es ian
aryn geal
Ġmotiv ation
particular ly
Ġprote ase
im b
Ġepidemi ological
Ġgre y
ob i
Ġam yloid
car bon
Ġprovid er
Ġdom estic
mo bil
Ġpropor tional
um ina
Ġcol our
Ġregul ates
Ġcont ents
ve olar
Ġro w
ogene ous
Ġal ign
ap ol
Ġpr ono
Ġcarry ing
y er
Ġperspec tives
af ric
tr ansi
un k
Ġinter net
Ġsymptom atic
Ġplastic ity
Ġpop ular
trac ellular
col lected
Ġconver ted
Ġlin ks
Ġtrans formed
0 25
it ated
bl ind
Ġcl ones
Ġreg istration
a ult
par ts
Ġretur ned
ol l
Ġst ain
Ġp pm
Ġreplic ates
Ġpolymorph ism
Ġ( -
ogram s
Ġab err
Ġty rosine
Ġdiss em
Ġdiss olved
Ġbeg an
Ġcolon y
v ar
Ġd ried
Ġex er
Ġec ological
st re
Ġpla que
at ch
Ġal kal
Ġdescri bing
Ġinten tion
respec tive
Ġc och
Ġgly col
Ġpl ans
15 2
Ġexpl o
cept ual
oxid ase
Ġt au
Ġcon ven
Ġ% ,
Ġax ial
Ĥ ¬
ion al
clud es
Ġg mbh
Ġtransl ational
Ġmom ent
Ġreason able
zer land
st atic
ores is
inter val
Ġadj uvant
Ġr up
Ġplot ted
Ġ10 4
oph osph
. âĢĻ
Ġpa ul
Ġcorrect ly
01 3
pregn ancy
Ġro ugh
Ġdop amine
h our
Ġcont amination
sequ encing
Ġquanti fication
Ġrel ations
consid er
om ere
bet a
Ġfeas ible
ugh t
b ow
Ġform ing
ï¿½ï¿½ ï¿½
trans cription
Ġcatal ytic
Ġseiz ures
Ġech ocardi
particip ant
metabol ic
Ġag ar
ect able
im a
iat ors
Ġlip oprotein
process es
leuk in
Ġpre p
Ġplac ement
Ġbound ary
Ġr iver
Ġpre ferences
vers us
Ġagg ressive
Ġd ot
oinform atics
lu x
iz er
15 9
ho u
n ature
de ï¬ģned
Ġag ency
Ġup regulated
Ġext end
ass um
mut ation
Ġs plic
f m
o ud
ograph s
Ġcon genital
Ġbloc king
Ġstra ight
hydrogen ase
................ ................
Ġr ain
Ġsp in
deg ree
ac g
Ġwor th
st ained
Ġhist opath
high ly
ogene ity
o lec
compon ent
Ġwas te
ri p
Ġch r
diagn osed
Ġinj ections
Ġresearc her
Ġs lices
ï¬Ĥ y
Ġagricult ural
p el
ph obic
Ġcon j
Ġcont amin
Ġfil es
Ġfr ont
Ġexp and
Ġs por
Ġisol ate
Ġquantit y
Ġ9 3
Ġk i
op ausal
Ġno vo
Ġtend ency
Ġegg s
sp ace
ophil ic
cl im
signiï¬ģcant ly
Ġacco unts
ac tivities
Ġdi astolic
Ġstr ict
mech anism
os h
are as
Ġreduc tions
comm ons
amo unt
cop ro
Ġfer tility
Ġsup ple
Ġth i
Ġg yrus
am ous
Ġsub mitted
14 9
Ġï¬ģ bro
o z
Ġa trial
Ġal igned
Ġex erc
Ġdetermin ants
ga a
Ġcr c
Ġr rna
ms cs
Ġcategor ical
Ġa lex
Ġre porter
Ġnas al
Ġdiscus sions
Ġadv ice
Ġanth rop
Ġn ps
Ġconsider ations
Ġflu orescent
liter ature
soft ware
g b
mm ol
americ an
recor ded
sum mary
17 5
Ġchromat ography
k et
Ġy es
Ġm un
ro logy
Ġre tained
func tions
Ġarchitect ure
Ġsc hematic
Ġparad igm
Ġul cer
n ation
Ġr r
Ġch ol
il ed
Ġchrom osomes
Ġexpect ations
Ġalloc ation
Ġres ol
Ġhelp ful
con text
hyper tension
Ġpre fer
Ġs tig
Ġac ting
Ġth ings
Ġcoun ted
inter actions
recomm end
Ġpar kinson
no ver
pati al
Ġp oin
Ġap ical
ari able
th ood
aw are
Ġreag ent
Ġre covered
ul ator
ron i
w an
Ġneuro de
ab normal
15 1
Ġtax a
c is
id ium
Ġcd c
l n
p ad
Ġa qu
Ġg aps
Ġstre et
al pha
ul ence
ore r
ĠðĿĳ ĥ
t aking
er ves
Ġsh ap
01 4
del iver
bet ter
Ġre aching
Ġconflic t
Ġp ca
th or
ter y
Ġen ables
Ġamong st
24 0
Ġcons ervation
Ġconn ections
h aving
Ġexpos ures
Ġeth nicity
drug s
n n
Ġsub units
alli ative
Ġcandid ates
am ycin
23 1
Ġn arr
Ġk et
str ain
Ġdetect ing
compon ents
Ġt am
ir s
t ailed
f av
box yl
Ġcreat ing
od s
health care
behavi our
Ġqu in
Ġproper ty
m rna
z es
Ġhem oglobin
her ic
analy zed
e volution
Ġcompe tition
Ġan omal
ex ercise
Ġview ed
Ġb ill
s ites
ld l
Ġï¬Ĥ ex
acknow ledg
d im
Ġl d
âľ ĵ
Ġopin ion
av oid
er gen
anc hes
Ġsp ine
eth ical
a round
ful ness
f ung
p ool
ut able
od al
Ġtrop ical
h ard
ter ms
question naire
trosc opy
re ce
ath y
no vation
caten in
id ase
Ġcorrel ates
pa ign
m agn
Ġs we
n is
Ġp par
por ters
Ġ9 1
Ġde part
ch olesterol
Ġcr p
uc l
up s
Ġunivers al
Ġvag inal
Ġtrack ing
t ask
Ġcentrifug ed
Ġsec onds
Ġminim ize
Ġest rogen
fe ed
Ġbir ds
Ġgo ing
abs ence
Ġtr ace
Ġanal ges
thres hold
g ap
Ġt es
re quire
Ġï¬ģ sh
sign aling
Ġswit ch
Ġde ad
Ġinter ference
Ġar rest
Ġed ema
inter nal
Ġbiop sies
Ġsom ewhat
op ed
yp ical
Ġefï¬ģc iency
proble ms
Ġp in
Ġacet ate
Ġexten sively
result ing
ve als
Ġmor al
bi ology
Ġcom plication
Ġtr an
Ġdr ink
Ġquick ly
yn ec
ad o
e lev
Ġc ame
Ġs el
Ġgran ul
Ġsuic ide
pl ants
Ġsc ar
sy nd
w il
Ġpre ventive
Ġsp ot
Ġï¬ģ b
Ġbroad er
us ually
elf are
Ġhom olog
Ġhe mis
cer ol
15 4
Ġtop ics
bal ance
e vent
v c
16 5
Ġinstit ution
bel ow
Ġelectro ph
Ġpolymorph isms
Ġin nov
nor m
Ġdial ysis
Ġregard ed
Ġlact ate
Ġepis ode
Ġcytoplas m
mem ory
Ġcon trover
Ġt n
Ġpath ophysi
ell ig
Ġm ur
Ġcho ices
Ġsec urity
Ġenzym atic
Ġasym ptomatic
l ag
Ġser ial
Ġjap anese
stim ulated
Ġin complete
Ġt ech
em ed
Ġc g
roscop y
Ġapop totic
ur ban
Ġger man
Ġm apped
Ġdist ances
Ġgly c
Ġmos quito
Ġ19 80
Ġdiff use
Ġgroup ed
w in
he im
th ick
Ġcons erv
Ġre act
ps s
k l
Ġcop ing
Ġcar bohydr
produc ts
profession al
Ġl on
ell ite
f ail
as m
Ġrout inely
Ġmetric s
âĢĺ âĢĺ
Ġir radiation
c atal
ne g
ever y
Ġwell s
qu artile
serv ices
Ġkine tics
pl us
identi fy
p here
Ġp u
Ġlim iting
target ed
pos ing
Ġprior ity
ie tic
Ġimmun ology
identi ï¬ģed
ti fied
Ġchemical s
Ġl ives
Ġtri ple
Ġp earson
Ġd ent
ach y
kele ton
o ks
Ġdesign s
Ġis land
Ġlab el
Ġbeh ind
Ġlat ent
Ġconsult ation
Ġreg istry
Ġcombin ing
Ġrel ating
it ric
Ġ19 89
Ġim plantation
arth ritis
s olution
hematic al
Ġstudy ing
Â §
Ġsecre ted
cr yst
nat ural
Ġprop ag
str ate
Ġm sc
Ġi od
Ġass ign
Ġr us
Ġm scs
Ġwill ing
obj ective
Ġhar v
epithel ial
Ġsurvi vors
19 0
Ġconsum ed
obes ity
15 8
Ġcur ric
15 3
Ġin herent
de le
Ġ1 80
Ġgam ma
Ġin puts
Ġpre term
par in
Ġdis covered
Ġcat tle
Ġb enz
Ġdiet s
organ ic
Ġd sm
Ġcon clude
Ġconstit u
Ġam y
monitor ing
Ġw m
Ġat rophy
Ġventi lation
s ulf
Â ª
Ġcan al
aps es
it able
re verse
anis h
Ġ( âĢľ
tr um
com mit
Ġindivid ually
Ġsuspen sion
Ġc pg
Ġpas sive
al b
Ġk ar
Ġdos ing
n ificant
Ġear th
impro vement
ill a
wor th
Ġbe ads
Ġb ank
o ic
uff ered
iti g
pat he
ti zation
Ġth ir
vi al
Ġd n
ig ation
c antly
re action
he ight
ug in
Ġdr ain
j o
k u
di rected
mal es
Ġgener ating
comp ass
on i
Ġteam s
tox ic
o virus
Ġpharmac ology
Ġconsider ably
l ac
Ġh old
Ġwork s
id ity
Ġneuro logy
Ġbes ides
Ġneutroph ils
Ġd ich
Ġemph asis
Ġe ukary
Ġpsych osocial
Ġk a
oc cup
ï Ĥ
Ġp overty
Ġmod ifications
fer roni
Ġgr ant
at ten
coun try
Ġhy dr
Ġcharacter ize
Ġsee king
Ġc ard
ï¬ģ rst
Ġspectrom etry
t ail
el i
inj ection
s ided
Ġbr ing
Ġcoup ling
il arities
Ġser ved
sur vey
ver ted
Ġec os
Ġcust om
ew ise
Ġdifferenti ate
cy tok
develop mental
admin istered
rele ase
Ġdiï¬Ģeren ces
copro tein
e ight
Ġm aster
struct ural
Ġlet ter
Ġoc ular
16 7
Ġblock ed
Ġwr iting
us ual
om at
ï¿½ .
Ġpres cription
Ġi q
Ġhe x
Ġcor tisol
Ġlung s
on ical
ger many
Ġnumer ical
Ġwhe at
deter mine
cardi ovascular
m uch
r ated
Ġs oc
Ġm ent
Ġman aged
ax el
gl ia
eff icacy
Ġorigin ally
ti tis
ri a
Ġfer til
Ġl ens
om eric
Ġstake holders
Ġper tur
mac roph
Ġs omething
Ġg all
Ġhospital ization
Ġdem ands
Ġregul ator
it z
Ġinter ven
Ġsch olar
16 4
im ages
m ids
19 5
Ġcategor ized
Ġannot ation
Ġup stream
w ild
as onal
Ġspecial ist
Ġ ign
l ap
Ġex clusively
Ġb cl
se a
Ġreg imens
Ġn ih
Ġle v
16 8
ti ary
Ġp ep
Ġdem on
Ġn d
fac ts
ut ation
vi e
Ġlat ency
Ġm ask
unct ure
l ie
cent re
ar um
oc ular
Ġef ï¬ģcient
Ġobst etric
em at
bur gh
Ġis ot
iï¬ģc ations
Ġimmun osup
Ġquanti fied
Ġknock down
Ġcaro tid
Ġp he
Ġal zheimer
Ġv ast
Ġacces sible
mem bers
Ġemo tions
Ġpel vic
ir able
miss ing
Ġpl aus
g overn
Ġlab eling
Ġpartners hip
fe atures
Ġmeaning ful
pathe tic
x ia
cl onal
Ġ rom
Ġch ic
Ġwork sh
Ġspring er
Ġb ic
clus ter
Ġtr ad
Ġ6 00
Ġgeneral ized
if n
con jugated
lic ense
o uts
s leep
Ġcont acts
d istance
Ġw ors
sk in
ang ement
Ġgr id
struct ured
j oh
l um
obser v
cri tical
Ġgest ational
c ys
Ġaddic tion
Ġc kd
ur t
Ġinc ident
l p
Ġcom plicated
Ġlap a
it ri
id in
ab dominal
ch arged
Ġtransf ection
Ġfib er
ci pro
Ġpromo tion
behavi or
Ġhippocamp al
Ġcon ï¬Ĥ
Ġsub cutaneous
ard ed
Ġinv ent
Ġb ad
Ġpar k
di vision
d yl
ol ig
Ġb md
ar ti
Ġz hang
Ġcho ose
ce mic
Ġtrans duction
tem poral
Ġsign iï¬ģ
t reat
Ġz n
Ġag onist
Ġconn ection
Ġcar b
16 6
Ġhom ogen
def in
Ġlo oking
obacter ia
Ġcent ury
Ġcheck ed
Ġsequ enced
Ġemerg ence
ag ul
mal ign
] ),
Ġr b
Ġbr ca
on om
form ing
Ġq ol
Ġsem antic
Ġspec ified
ar ts
Ġindustr ial
Ġf et
ul thood
16 2
Ġevent ually
evalu ated
re ports
Ġex pendit
Ġpre mature
Ġhistor ical
Ġmacroph age
f ew
Ġcons cious
% âĢĵ
Ġun ivariate
work ing
Ġmarked ly
b us
Ġme al
opo ietic
Ġre ferences
enz ym
om orph
ag ree
Ġcircum stances
Ġle ct
Ġsubset s
2 10
tain s
Ġappro pri
Ġsyn chron
Ġto w
Ġw aves
g est
Ġgro ss
Ġassum ing
predic ted
as ia
Ġch ose
16 1
sec re
Ġprono unced
19 98
Ġmarg inal
Ġw ard
sc ape
Ġcall s
Ġcon comitant
Ġph one
Ġw ol
produc t
p it
tr ap
Ġmar ine
Ġmalign ancy
Ġga it
Ġoptim ization
Ġloc ally
character ized
ys acchar
s ar
in clusion
z i
Ġcut off
Ġme at
Ġcon versely
Ġpro ved
ec s
Ġg angl
vit amin
Ġachie ving
Ġs b
/ -
Ġno tion
Ġmetabol ite
Ġcompr ising
Ġf lo
Ġdis advant
serv ice
01 9
Ġall ergy
my c
s id
ren ch
Ġinterest ed
opor osis
Ġd y
p ants
ap or
Ġretrie val
Ġmy c
el ds
Ġinflu ences
ce phal
âĪĴ .
Ġdist ant
proper ties
Ġter r
Ġc od
atin ib
Ġnan o
Ġconfound ing
Ġs le
Ġcom es
Ġadj usting
Ġmonth ly
Ġfall s
Ġex clude
rap id
ik ing
Ġcl ients
Ġ ;
Ġmon ocytes
Ġbec oming
Ġproduc es
lead ing
c ited
er ies
Ġsee k
( %)
Ġt f
d ate
Ġdeï¬ģn ition
Ġab d
Ġrandom ised
ĠĠĠĠĠĠĠĠĠĠĠĠĠĠĠĠĠĠĠĠĠĠĠĠĠĠĠĠĠĠĠĠ ĠĠĠĠĠĠĠĠĠĠĠĠĠĠĠĠĠĠĠĠĠĠĠĠĠĠĠĠĠĠĠĠ
Ġrecording s
p as
tic ed
Ġsat uration
Ġw inter
Ġc ue
Ġiso forms
s tit
med ication
Ġinst ability
Ġath le
p ac
Ġth ym
ifer ase
Ġre ly
cor tical
Ġsal mon
Ġn om
continu ous
Ġst ent
place bo
Ġcytot oxic
Ġpower ful
Ġcam era
Ġp ore
s ink
Ġph ag
ensi ties
cor rect
Ġout lined
Ġknock out
Ġargu ed
hel p
col le
Ġsuff ering
ti zed
on ce
p n
w ang
si al
ocrin ology
ti a
Ġvisual ization
Ġmin ute
Ġh ba
Ġtr ade
organ ization
clos ure
ap plication
Ġsyn thase
bo tic
Ġnam es
ff e
Ġap pre
support ing
Ġverte br
Ġage ing
or atory
Ġb ig
ĠâĢ ¦
Ġmim ic
Ġin equ
Ġd h
Ġex ogenous
and er
Ġcon di
on to
Ġadv oc
k ines
Ġrespon sibility
Ġequ ilibrium
Ġpot assium
ian a
Ġrem ission
kin ase
âĢĿ )
phen yl
Ġsurge ons
t et
statis tically
r ac
Ġto k
u ity
dis orders
Ġeas tern
Ġne o
Ġvulner able
in ib
appro aches
Ġhead ache
Ġshe ar
Ġdefic its
or ic
Ġak t
Ġat oms
Ġnot es
Ġst enosis
um n
Ġload ed
l iving
ere stim
tt es
och rome
fem ales
c ue
Ġinser ted
16 9
Ġm da
Ġge ographic
Ġplate lets
oblas ts
Ġdec ided
Ġmen ing
differen tiation
c x
eng ine
col on
Ġderiv atives
il ation
17 4
c ision
ad oles
Ġto day
Ġj ournals
Ġsp ain
Ġ( %
grad uate
gi ene
t ables
Ġda vid
Ġfix ation
Ġd ox
Ġim per
b ear
Ġdos age
Ġl ag
Ġ10 3
sci ence
Ġeti ology
om onas
Ġt ab
Ġelectro des
ques tions
Ġh l
Ġo m
Ġvisual ized
18 1
Ġretrie ved
Ġshif ts
Ġt i
Ġm f
et hel
Ġpoll en
c ac
Ġ1 25
Ġt ar
Ġul tra
pre par
Ġbreast feeding
Ġcomp an
Ġcare fully
Ġhighl ights
ï¬Ĥ ow
g am
Ġme x
Ġer k
Ġbul k
Ġinhib iting
polym er
incre ases
Ġdis cipl
Ġstim ulate
Ġpor tal
agre ement
Ġre veals
Ġdeter ior
Ġevalu ations
Ġcoord ination
Ġse eds
Ġex cre
uit ary
Ġcompart ment
Ġcap ital
ap pe
rom es
datab ase
Ġab str
hr an
Ġcarri er
form in
ethel ess
stud ents
Ġguid eline
at tribution
Ġin verse
Ġsh r
az ine
Ġmes h
Ġery thro
por tive
Ġlo uis
Ġscienti sts
or tion
Ġv ascul
Ġtra umatic
Ġre modeling
bacter ia
Ġperson nel
Ġclinic ian
y an
el a
m ild
ver sity
Ġass istance
cor rected
Ġimpro ves
Ġq pcr
Ġenco un
v p
Ġcomp ati
clos ed
Ġper manent
Ġ10 9
open ia
Ġnam ed
Ġgr and
Ġpa ediatric
Ġdepri vation
res piratory
Ġth inking
Ġdepic ted
n ext
it ate
Ġpop ula
Ġweak ness
sampl ing
tic ip
op last
td na
. ),
al i
Ġm ad
Î¼ m
t ac
Ġbios ynthesis
ad ults
0 24
Ġro c
oxid ation
tit ude
di al
Ġfeel ings
Ġr nas
emo tional
um ar
Ġmod es
Ġel imination
Ġcri tically
Ġst atic
Ġk im
Ġdirec tions
ï¬Ģ er
sh aped
ti fs
ep s
28 0
epti des
Ġexper tise
Ġpe g
Ġdm so
Ġp ad
Ġ19 88
Ġphot os
chall eng
pro duced
Ġclos ure
Ġillustr ate
Ġï¬ģg ure
Ġmicrobi ota
an xiety
Ġex cluding
Ġab ilities
gl ob
Ġoverl apping
s ors
Ġh if
Ġat trac
report ing
stud ied
guid elines
ti an
Ġu tilis
Ġenc oded
mark ers
Ġcor neal
18 5
op ol
Ġin adequate
sugg est
Ġs pleen
cr p
Ġacad em
d y
op sy
Ġvirt ual
Ġm rs
Ġgene tically
n uclear
Ġc ess
Ġsmo ke
Ġves icles
ĠĠĠĠ Ġ
Ġt d
Ġwithdraw al
pre vent
acc um
Ġt ap
ro tic
] :
17 1
stim ulation
Ġeffect or
part um
exam ination
Ġc odon
og y
Ġster oid
troph ic
p ack
Ġp yl
Ġan ces
Ġm hz
Ġimpl ies
Ġcomp ression
ear man
Ġexc itation
av a
l f
eng ue
Ġd rosophila
Ġh os
Ġinduc ing
Ġbon ds
g mail
Ġg ained
Ġpre dis
0 20
Ġg aba
Ġman ually
exam ined
Ġfung i
de press
n ity
Ġw arr
trans mission
Ġseg mentation
of lu
ock et
log ic
Ġconcer ned
Ġwa vel
al one
ex cluded
Ġkin ases
Ġglut amate
dec ision
ï¬ģ sh
Ġwe ar
Ġcon jug
Ġmed iators
Ġsequ ential
h ost
Ġrelax ation
ed ge
Ġdec ay
co ated
Ġfibro blasts
u ous
paramet ric
al ong
Ġcir rh
paren ts
Ġb ol
Ġsubstit ution
saf ety
Ġantag onist
Ġmech an
an at
Ġsp ir
Ġwas h
Ġinv ited
Ġrecogn ize
Ġide as
Ġperme ability
tox icity
f ere
in ï¬Ĥu
struct ures
if f
ens ed
t an
Ġw elfare
Ġnic ot
Ġh t
Ġsh o
ang ements
dynam ic
Ġmethod ological
Ġas k
Ġm ab
Ġtrans location
omy cin
ï¬ģ t
ath ione
v ul
Ã §
el lect
k k
Ġrel ate
Ġqu adr
19 9
Ġsl ice
Ġhybrid ization
lar ation
Ġre activity
Ġsc a
Ġatt ending
l os
17 6
Ġphosph atase
j ap
Ġmet all
Ġopen ing
Ġchlor ide
2 25
is o
Ġ19 86
in formed
ï¬ĥ ï¬ĥ
path ways
b led
Ġrel atives
Ġdeb ate
in form
Ġl u
Ġtrans fusion
Ġfri ends
Ġâ ģĦ
c ape
ak t
Ġstr and
Ġgly cos
17 8
Ġgener ic
ac ces
0 26
Ġar c
Ġp od
Ġmod est
com ing
Ġmuc osal
18 4
Ġdis pers
p ap
Ġan c
Ġinf ras
Ġins ufficient
Ġaddress ing
ash ion
Ġmuc osa
Ġsym bol
agg reg
accur acy
sink i
Ġarg ue
3 50
c hers
e ase
Ġcan nab
Ċ Âł
Ġmedi ate
ðĿĽ ½
ar b
Ġinform a
a o
l anguage
Ġar b
Ġsm ith
Ġtr iglycer
Ġend point
Ġfe eling
v ille
Ġmo tility
ococ cal
Ġl engths
âĢĻ -
eg fr
Ġcompet ing
ve gf
k m
Ġoptim ized
Ġpat ch
Ġsched ule
hem at
ens in
h h
il ia
Ġconf ocal
il ial
hig hest
plas tic
valid ation
pl er
Ġup regulation
Ġbelong ing
s ah
pos terior
trans l
Ġretin a
Ġt x
gen omic
Ġmeth anol
Ġdend ritic
h la
it ems
v d
Ġt ended
Ġmor ning
es cence
ell ar
Ġsp r
is sions
se ven
Ġbiof il
Ġs hed
an ial
Ġf ine
Ġig e
Ġp alliative
18 3
Ġexamin ations
tic ular
addition ally
Ġthor acic
se en
ns on
chemo therapy
ot om
Ġcap illary
men opausal
s itu
Ġinï¬Ĥu enza
Ġex pon
t ance
se pt
Ġindi an
Ġfib ers
ich ia
sugg ested
0 23
Ġch ip
Ġbip olar
Ï ĩ
gr an
Ġcl one
ef ï¬ģc
Ġs clerosis
Ġcentrifug ation
s pl
ec l
17 9
Ġhierarch ical
Ġde al
Ġstr iat
Ġreag ents
Ġr pm
Ġcor re
Ġ19 87
s ing
Ġanat omy
Ġac tively
her in
11 36
2 23
oc ortic
Ġmo uth
Ġprot on
ro y
Ġref lected
Ġp ump
Ġacet yl
flu or
Ġloss es
fac il
ver te
ass em
behavi oral
e per
Ġf inger
Ġ1 40
ip h
11 11
Ġj unction
Ġle ave
Ġnm ol
Ġa Î²
un ited
Ġprevent ed
ï¬ģn ity
Ġ1 30
Ġbi le
Ġread er
Ġph y
Ġmod ulate
Ġorgan ized
/ )
Ġdig estion
doc ument
Ġan t
20 6
Ġed ited
Ġbay esian
Ġenh ancing
at tention
Ġ1 10
sex ual
ugin osa
er k
2 30
Ġop tic
Ġcr ude
Ġgr ain
w at
fract ory
Ġsplic ing
Ġmob il
Ġthe ories
Ġstatis tic
Ġthor ough
id opsis
Ġrecombin ation
k id
cm v
Ġb ag
ce an
Ġred ox
Ġrun s
is rn
ol der
Ġiniti ative
Ġcess ation
fr ag
Ġdem ographics
up on
mat rix
Ġfav our
b ad
Ġle e
Ġdiagnos tics
Ġm tor
ren ts
âĢĻ )
ed om
19 97
Ġinten se
Ġec ology
ess ential
20 5
be an
Ġin novation
Ġcom mission
Ġcr uz
ri b
ort a
random ized
strateg ies
b is
strong ly
Ġde hydrogenase
l ies
Ġh us
pt y
commun ication
Ġcerebell ar
Ġcomp any
Ġgrad ually
proced ures
ol id
Ġattenu ated
auc oma
uc asian
Ġde generation
Ġattrib utes
implement ation
Ġprecip itation
w is
at cc
rel ation
Ġge ographical
Ġcon current
Ġsol ub
Ġstiff ness
ibr ary
Ġsuc rose
prot ective
Ġpercenti le
Ġob taining
vi an
show s
Ġspec troscopy
dam age
tr ack
pro ject
Ġchond ro
/ ).
Ġnat urally
ran ial
t ren
Ġro yal
Ġmammal s
o zo
Ģ ł
Ġl t
bi ot
Ġcytot oxicity
Ġ1 28
bu il
Ġlibr aries
Ġco urses
in ance
mitochondri al
Ġv oc
âĢ¢ âĢ¢
Ġana esthe
Ġobstr uction
k ar
u ed
ot t
pl ates
18 7
Ġsc al
Ġnutr ients
Ġansw ers
bor ne
Ġprov ince
Ġinter acting
Ġdoc uments
Ġteac hers
p seud
Ġtrans porter
Ġam mon
ab ine
Ġso on
do or
Ġswit zerland
prolif eration
Ġphot o
Ġrespon ded
Ġinst ances
c reat
Ġun fortunately
Ġaltern atively
ap pa
Ġend s
Ġatheros clerosis
bo ok
Ġint ellig
apop totic
Ġw in
des cription
Ġseiz ure
rom atic
Ġcircum ference
Ġh plc
num er
Ġelec tric
vid e
Ġmin istry
ther mo
20 2
Ġmat hematical
t z
fr am
Ġsil encing
vari ation
Ġre ally
19 2
eu tics
Ġreflec ts
Ġoper ational
ÂłÂł ÂłÂł
Ġre min
Ġn ation
Ġg ad
Ġg d
par as
Ġen larg
Ġstat ements
proble m
Ġac know
eff icient
Ġcontr ary
num bers
id en
unt ered
inflamm ation
tim ate
Ġrepe ats
th reat
ti p
Ġvic tim
cox on
duc es
Ġkeep ing
20 8
Ġmanifest ations
Ġan eur
Ġgest ation
/ ï¿½
t ax
per m
des igned
comm erc
Ġaccept ance
om ial
Ġl os
Ġexpl oration
hypothe sis
0 27
Ġdiscre te
er obic
Ġchar t
Ġcolum ns
d ark
Ġclaim s
Ġl ysis
Ġrecommend ation
epid emi
18 2
mark s
Ġt rem
Ġpost natal
Ġexplicit ly
us p
Ġex ecutive
th yroid
synd rome
7 00
s atis
Ġm w
Ġpro pos
Ġlear ned
l t
Ġavoid ance
bot tom
h ours
Ġa h
h dl
Ġt t
Ġins pec
o ke
Ġle ptin
Ġthromb osis
Ġupd ated
oc or
Ġben ch
Ġg ynec
phen otype
18 8
Ġaden ocarcinoma
Ġneutroph il
par atus
Ġsens ors
Ġun expected
metabol ism
Ġophthal m
ĠðĿ Ľ
il ateral
Ġstrom al
pul monary
Ġsulf ate
ha i
dom ains
Ġm hc
ibr ated
aro se
Ġan ten
Ġgen otyping
Ġwall s
Ġel igibility
Ġhand ling
yo u
ellect ual
Ġep i
iop ia
17 3
Ġneuro path
Ġbroad ly
Ġf gf
Ġco vers
Ġden mark
represent ed
hab it
17 7
Ġlab our
Ġno v
Ġsp ike
Ġeng aged
Ġspecial ized
Ġbeh av
Ġ ?
Ġe ï¬ĥ
Ġnot ch
w ord
Ġhemor rhage
r f
Ġvir ulence
Ġantic o
Ġoper ations
Ġhydro phobic
Ġc ass
as ome
Ġal k
Ġe cm
Ġmod alities
Ġtr aff
Ġtur nover
interest ingly
st ates
Ġall ergic
Ġbi ochemistry
Ġanaly zing
adv anced
embr y
Ġmod ules
c ro
ding s
con tin
f ish
Ġt etr
Ġpa id
com plications
Ġexpression s
ess or
Ġend ocrine
Ġmanip ulation
Ġm ast
iz ational
Ġab stract
Ġshe ep
or b
Ġab lation
v ac
et in
Ġresid ent
Ġclos er
ï¿½ï¿½ï¿½ï¿½ï¿½ï¿½ï¿½ï¿½ ï¿½ï¿½ï¿½ï¿½ï¿½ï¿½ï¿½ï¿½
Ġcam paign
bro ad
Ġse asonal
rel in
Ġrelig ious
Ġdut ch
( âĪĴ
19 3
e ï¬Ĥy
the l
import ance
Ġs on
ari o
Ġed ta
Ġblot ting
Ġstreng ths
l ment
b all
l ay
Ġe cg
Ġpair wise
Ġcoef ï¬ģcient
f ox
Ġstr uc
op hen
ren e
Ġindic ations
ac ing
Ġhist ology
Ġle aving
Ġs od
om iting
Ġcirc uit
es e
Ġillustr ates
rab bit
Ġr ho
Ġacco unting
ĠĠ Ċ
Ġequ ations
a ved
ĠâĢ Ķ
bi ent
Ġcis platin
m v
ag ents
l ateral
pl anted
Ġhous ing
er ating
Ġb ath
xim ab
Ġregul ators
Ġsearc hed
Ġcon fig
Ġfavor able
Ġcom ments
Ġintest ine
l ayer
ric es
erv o
sw it
z ero
inf ections
Ġpur iï¬ģed
Ġo ocytes
Ġun related
equ al
oplas mic
expl ained
Ġin for
r v
Ġdiss ection
Ġsyn erg
Ġcomor bidities
dif fic
Ġter med
col lection
identi fication
gener ally
Ġper mission
Ġdis placement
Ġbound aries
Ġenab led
Ġkore a
¸ Ģł
ó ¸Ģł
min ed
om otor
Ġentire ly
apl an
Ġaneur ys
od ds
Ġdefin itions
Ġindic ative
Ġhaem at
j ections
19 6
Ġuter ine
r b
sol id
tr ained
through out
similar ly
Ġad ulthood
cd c
c ong
id el
success ful
deliver y
f ri
hind awi
Ġf p
Ġtrans lated
direct ly
Ġont ology
Ġ1 60
ot en
Ġg ame
Ġcon formation
t ant
psych iatric
ad ip
molec ules
main ly
Ġbi oinformatics
ca a
Ġrev ision
Ġc ac
Ġhelp ed
prog ression
apop tosis
Ġenab ling
Ã °
gd ala
selec tive
Ġre ct
Ġsim ilarities
Ġtend on
per ipheral
Ġev olved
s till
Ã ¯
c andid
res ources
oph yl
Ġvalid ate
Ġal t
Ġd yst
Ġn oc
Ġten sion
err or
Ġst an
no vel
Ġpos ts
Ġfocus es
Ġf f
pre hen
syn thesis
od en
Ġh i
og e
Ġpre clinical
Ġvox el
Ġhormon es
Ġ ia
ser ved
Ġpol and
Ġinvent ory
pro posed
t us
Ġat ypical
Ġc k
Ġl ie
Ġpo orer
migr ation
Ġvol untary
Ġsurge on
j p
Ġ10 7
Ġcir cles
Ġin activation
Ġop posed
ric k
Ġem ail
Ġreplic ate
Ġhy giene
app endix
Ġï¬ģ br
red uce
m ers
end othelial
Ġconcentr ated
n ine
Ġ( +
ad verse
Ġfac es
Ġmeet ings
Ġcasc ade
Ġp sa
Ġd an
20 4
focus ed
Ġproduc tivity
Ġall ergen
til led
25 6
Ġwill i
Ġdeï¬ģc iency
g one
in st
Ġchrom osomal
techn ology
Ġd p
Ġpres erved
ag ic
st aining
gas tro
bear ing
Ġt an
pattern s
he patic
Ġd ensities
Ġro ck
lim itations
Ġalloc ated
cont act
19 4
Ġmus ic
Ġcover ing
Ġl ing
m w
Ġen compass
ne eded
Ġtele phone
phosphory lation
Ù Ģ
feren tial
aps ed
Ġtrans mitted
Ġcap ability
Ġl ith
br af
Ġic d
Ġattem pted
Ġd uct
fail ure
w er
Ġser ot
Ġ Âł
Ġcommerc ially
op l
tt g
orig in
Ġtok yo
al ateral
av ity
Ġfil m
n b
b ances
che ck
Ġch d
Ġam l
Ġpharmac okine
az ol
Ġsed iment
sk a
class ification
ur ip
Ġmo tifs
comp ounds
cons ent
+ -
g ium
Ġadap t
Ġstom ach
Ġwork ed
j an
Ġs ap
ub in
Ġid i
Ġquanti ï¬ģcation
treatment s
Ġcareg iver
ar coma
Ġactiv ating
ĠâĪ ¼
ot al
n os
Ġsti r
Ġwindow s
c ated
Ġshor ten
c yp
Ġconcentr a
gg g
g ated
Ġs ag
Ġsign ature
18 6
Ġcop per
loc ated
resear chers
rog ate
Ġow ing
Ġsw elling
Ġï¬ģ elds
26 0
Ġcurric ulum
e q
- .
er ance
az e
Ġhel ps
u til
minim um
Ġf mri
Ġincor rect
ad ded
Ġinc on
ser ies
5 49
or tium
methyl ation
a ver
Ġattrib utable
Ġscaff old
0 22
Ġubiqu it
Ġn os
sugg esting
Ġventric le
Ġtr unc
en ia
Ġoff ice
acr yl
g old
Ġf atal
Ġg b
Ġgo at
19 7
d in
cl ose
20 3
qi agen
Ġh it
investig ated
ÙĢ ÙĢ
Ċ ĠĠĠ
or us
Ġsevere ly
sti tial
Ġat l
Ġwal k
Ġse eded
Ġtraff ic
Ġe vi
recr uit
Ġs as
Ġsign ed
p ine
t am
Ġsum mer
Ġbir ths
Ġun ion
plate let
en n
Ġan ch
Ġfor ced
ab ec
Ġintegr in
Ġ19 85
igen ous
Ġl s
Ġsub scale
troph y
Ġr i
Ġproxim ity
Ġrad ial
Ġbon ferroni
2 12
Ġimpl ants
Ġa es
work ers
col or
Ġin active
and em
f re
Ġre public
ke ep
Ġter tiary
Ġess entially
Ġelectroph oresis
l ps
m arch
Ġby pass
Ġund erestim
ic ip
Ġh osts
Ġsup pressed
os keletal
Ġfund ed
Ġoccas ion
Ġsole ly
gen otype
c amp
yn aptic
ent ary
gen esis
Ġhom ozygous
re ason
am ents
Ġsupplement al
al and
Ġb it
ut um
20 7
Ġdec lined
Ġal iqu
Ġcirc adian
19 95
Ġel astic
Ġm olar
19 8
Ġgr ass
Ġmicro tub
Ġl ake
Ġpar i
ust ered
Ġubiqu itin
Ġwebs ite
Ġhom ology
del ay
Ġit al
anc ers
Ġheter ozygous
through put
Ġinterpre t
g y
Ġtel omere
s ources
de grad
Ġregular ly
Ġr d
Ġinï¬Ĥu enced
Ġaustr ia
ell er
Ġpr one
Ġsil ic
ag on
18 9
comple ted
Ġepid emic
Ġar ising
hs a
employ ment
Ġc ab
Ġmy co
categ ory
â ĥ
rel atively
med ia
22 2
tr im
Ġc ast
ass isted
ens tr
Ġfore ign
reg ulatory
do uble
Ġplaus ible
Ġpyl ori
Ġm itig
Ġb an
ver bal
ha z
vi er
appro ved
Ġper fect
mm p
indic ate
ox acin
Ġhand s
Ġpow der
0 28
Ġb sa
vis iae
Ġaer uginosa
Ġbreat h
v ess
Ġa i
Ġa ki
Ġc ot
tum our
to f
car ri
Ġampl ified
Ġbreat hing
n it
Ġaer obic
Ġdiarr hea
p ig
Ġshould er
develop ing
Ġconserv ative
Ã ¸
en es
im us
Ġrem ote
Ġim por
Ġmicro organisms
Ġs aw
ist an
Ġins ect
Ġinten sities
allow ing
Ġmess ages
aus tral
produc ing
g ia
re p
Ġqu ery
19 96
Ġca ud
prom o
Ġmyel oid
Ġspringer link
cl assi
Ġinc id
Ġed ges
Ġexperi encing
Ġplas mids
Ġatt ended
â Ĥ¬
ol o
Ġcom ment
Ġconstit ute
Ġrecip ients
Ġfram es
Ġcouns eling
m os
Ġlik ewise
Ġh ope
Ġser ves
Ġstig ma
Ġb t
ul tr
ar ct
Ġwhere by
Ġan onym
Ġma ize
f inal
ps on
Ġincorpor ation
Ġhe parin
a emia
Ġm ater
2 14
f b
Ġc ow
Ġestablish ment
Ġfarm ers
Ġstre t
Ġ10 8
Ġver sions
Ġagricult ure
Ġh ap
Ġland scape
c it
Ġinter leukin
Ġcompet ence
Ġastro cytes
âĥ Ŀ
Ġde ploy
Ġdis plays
Ġthan k
mut ant
Ġde emed
op recip
Ġmes enchymal
Ġconc en
Ġseg reg
v ector
Ġf ashion
Ġbelie f
cri ptional
0 29
Ġin patient
Ġdiï¬Ģeren ce
urip ot
ati le
Ġpre vi
Ġniger ia
Ġk ill
Ġestablish ing
Ġfed eral
os por
ugh ter
Ġtraject ories
isol ated
oglob ulin
Ġsil ver
Ġmiss ed
Ġins ec
ne ys
Ġh an
cor related
uv ate
Ġpers istence
Ġcontinuous ly
Ġge ometry
im pair
Ġcy an
Ġchic ago
Ġap plies
ex ternal
Ġe at
Ġch ron
Ġes ti
me ier
t as
per ceived
Ġprogen itor
Ġmar ried
Ġst ool
Ġz o
statis tics
Ġte hran
ĠÏ ĩ
Ġdro ple
b od
Ġw i
Ġdef ault
Ġline ages
Ġbab y
n ct
in fer
trans port
pan el
fo ot
t u
pr ais
Ġkine tic
s ections
Ġimmun ization
Ġs lower
Ġd est
Ġd cs
Ġf oster
Ġprot ected
Ġsystematic ally
Ġwat ers
de vi
Ġfit ness
Ġabsor bance
x x
Ġpub med
Ġcontr action
âĨ ĳ
Ġen velop
14 71
ensi tivity
Ġintro duce
hol der
ne utral
is hes
ogen icity
Ġ% ),
Ġattit ude
d as
r are
Ġc iv
system atic
Ġeas ier
ades h
cher ichia
h cl
Ġj oin
co ord
Ġf ulf
Ġco ast
altern ative
Ġexerc ises
h alf
Ġb if
27 0
met a
Ġtri plicate
________ ________
u an
x r
Ġac ti
Ġser a
techn iques
mod ified
Ġl h
ph i
di ï¬Ģeren
19 90
Ġexperiment ally
Ġannot ated
incub ated
ĉ č
Ġre cur
Ġdis per
we ak
dat as
s uit
Ġd imer
Ġcon tig
pl a
es pan
Ġder mat
Ġmet als
Ġx yl
Ġstre pt
uctu ations
n ame
Ġp n
Ġmut ated
cult ural
co a
Ġmul tim
Ġhydro lysis
0 30
ven ue
sup pl
off s
Ġpreced ing
| |
Ġab i
vari ance
19 1
Ġgener a
Ġoste oporosis
/ ),
experi enced
Ġa w
Ġcon ditional
m ust
tra umatic
ion ic
Ġlum bar
ost atic
prot ection
ic ardi
Ġsen ior
Ġun iver
ĠĊ ĠĠ
Ġ encephal
Ġimp ul
Î¼ l
tra uma
Ġdesign ated
Ġres idence
t gf
Ġres in
r ig
ish ing
prob ability
Ġens uring
Ġdes tr
str ains
20 9
Ġnucle ic
or ption
Ġf da
Ġk u
pre vention
calc ium
retro viral
Ġk ir
Ġinter fere
22 1
cap acity
le e
Ġpass ed
Ġapparent ly
Ġdiff ers
s patial
em ail
r us
ib er
par tial
Ġre com
Ġhe ating
Ġnew born
ti te
Ġd engue
Ġex pensive
y el
Ġm ism
Ġg ab
Ġat tain
Ġexpl oring
up take
ous tic
Ġdef ense
Ġactiv ates
Ġtranscri bed
Ġcompr ises
an terior
Ġal veolar
Ġmar tin
Ġpertur b
Ġfl av
categ ories
Ġad renal
Ġlys ates
p ow
re ach
eth anol
2 16
Ġg tp
ex cept
Ġaddi tive
cep tive
Ġopi oid
Ġure a
v t
Ġe cho
Ġbi od
Ġinfras tructure
techn ique
Ġend ocrinology
Ġrandom ization
Ġcirrh osis
Ġd edic
Ġl iv
Ġhel sinki
Ġj oints
Ġhyp ogly
subsequ ent
am en
Ġcont em
Ġex haus
Ġcl ient
Ġz ones
pur pose
b rown
al gorith
virus es
p neum
Ġmod ality
Ġoc clusion
bo ard
ac s
Ġcontext ual
Ġcred ited
Ġpre natal
Ġstop ped
Ġtransi tions
y cl
Ġver ify
vi vo
ill i
Ġalter ation
Ġautomatic ally
Ġb h
Ġli u
Ġmo ved
Ġaff ective
Ġprob abilities
Ġkin ds
f ixed
Ġplay ed
pr int
s np
Ġs ad
Ġp ak
ir an
Ġsqu amous
is chem
Ġf illed
ys ts
other ap
trans formed
Ġfri end
ro te
qui res
mit tent
pl ot
Ġtop ical
repe ated
Ġc ation
Ġin ference
Ġradi us
Ġnon etheless
commit tee
Ġre ctal
en na
ro c
Ġadop tion
con ventional
low ing
Ġcortic oster
Ġre fr
Ġmic ror
Ġminor ity
Ã¯ ve
Ġselec ting
Ġmap k
Ġblind ed
Ġh omes
cre ased
Ġtraject ory
Ġc cr
Ġproblem atic
es te
Ġg els
tiv iral
Ġconduc ting
Ġbios ystems
ex tr
othel ium
ub iqu
Ġenh ances
Ġcirc ular
itud es
conf lic
ex hib
s pss
Ġbus iness
re produc
Ġpre vents
Ġdel ine
Ġliter acy
Ġluc iferase
Ġcigare tte
ap ril
Ġstrati fied
fund ing
Ġh rs
amin ergic
Ġenco untered
ast om
chann el
ash i
Ġa orta
Ġ8 00
lo op
Ġcoordin ates
l ater
com fort
Ġtrigg ered
Ġexpendit ure
2 24
Ġlab elled
cr nas
Ġcre ation
Ġremo ving
Ġc en
Ġbo ots
Ġoste o
associ ations
Ġmix ing
Ġb rought
Ġnor ms
Ġfat her
Ġestim ating
k t
Ġs uffer
ell i
n ps
on bach
di vided
e ï¬Ģ
Ġf s
dis order
Ġcatal y
Ġi le
Ġwork er
Ġcontin ues
caus ed
Ġex em
flu id
es ophageal
di a
ary ng
Ġcys tic
pot entially
ict ures
estim ate
ial s
Ġser ine
mod e
f al
Ġf rench
Ġstr ing
Ġsearc hes
Ġre tic
the ses
Ġr m
acy cl
Âµ m
Ġaustral ian
typ ically
Ġcro ps
Ġarr ays
recept ors
Ġow ners
Ġend o
Ġsp ots
fung al
transl ational
Ġcl ock
a j
j une
Ġï¬Ĥu x
Ġcompan ies
Ġdescri ptions
id den
ot ensin
sever ity
Ġh in
ex clusion
Ġless er
chrom osome
a q
Ġsc aling
Ġcan adian
man ufact
Ġencour age
e z
Ġb und
Ġtrad ition
Ġr ip
ðĿĽ ¼
re covery
Ġtr ich
Ġmo ist
Ġbr anches
Ġcare ful
Ġsud den
confir med
re tin
Ġm oney
Ġl p
str ated
Ġfre edom
Ġdrain age
Ġr ct
ob lot
Ġg ot
Ġmedic inal
Ġbr ight
Ġphosphory lated
Ġlum en
Ġultr ason
Ġend points
Ġcollabor ative
Ġtr ache
Ġbal anced
Ġex ons
ph ag
Ġprog res
Ġlapa roscopic
tiss ues
the ning
Ġch or
Ġes ter
Ġplac es
0 35
Ġem issions
Ġneigh bour
av is
Ġmicroscop ic
indic ating
Ġg em
23 5
Ġplat forms
Ġinterview ed
Ġquanti ï¬ģed
electr onic
Ġco ated
22 8
pol icy
Ġth ous
Ġflu x
sat urated
cer al
Ġarch ae
2 13
c asp
23 8
nor th
Ġrequ est
ĠâĨ Ĵ
st ere
Ġutil izing
streng th
recomm ended
Ġhind awi
ogen es
Ġbr ains
consum ption
ar ant
ig f
Ġwe alth
Ġexc it
Ġarr hyth
Ġjus ti
in ser
Ġl ane
be it
Ġcerebell um
n ac
Ġtur key
Ġpass age
ox if
Ġir regular
Ġexpl oratory
Ġcf u
Ġhypoth al
m ur
he res
Ġim mobil
us ers
Ġhyp ers
comp ound
Ġfacilit ated
Ġphil os
el le
th ir
character istic
Ġalkal ine
ogr aft
Ġd d
Ġbene ï¬ģcial
cul oskeletal
Ġleaders hip
Ġmoder ately
Ġch arged
Ġend emic
Ġpress ures
Ġt one
Ġch il
Ġhom ologous
on ate
Ġguid ed
Ġbri eï¬Ĥy
Ġig m
Ġpotenti als
Ġo cean
aus sian
Ġhab its
) ),
m f
un til
Ġinfil tration
Ġfab ric
Ġcon dom
h us
Ġsy no
cho ice
Ġf t
Ġsub scales
Ġsup portive
respon dents
appe ared
Ġle uc
Ġco ating
Ġsaliv ary
Ġc ure
Ġun i
de x
25 1
Ġrepresent ations
Ġplay ers
Ġdedic ated
il ent
Ġenti ties
Ġintellig ence
it t
defic ient
Ġf bs
in tro
Ġte a
Ġc ub
Ġbe aring
eth nicity
Ġdecl are
Ġprof ound
Ġt re
ur able
Ġ1 01
am y
Ġem bol
Ġimplement ing
Ġbios ciences
Ġnot able
pe g
abol ic
Ġcir cle
cons ist
Ġsym p
adj uvant
di ameter
Ġcap ac
est ock
22 6
l aw
Ġh ill
Ġrespon ding
Ġgl aucoma
âĢł ,
Ġf ax
Ġal s
up us
Ġass ignment
26 4
Ġapp oint
Ġcry pt
m ake
Ġa tr
end ocrine
Ġthere after
rel and
Ġscan ner
p ast
Ġs av
Ġf oss
ra el
0 21
Ġmr nas
aphyl ococcus
scienti fic
Ġfr ac
Ġiniti ate
s odium
Ġper in
Ġcoun ting
opro t
ðĿĳ Ŀ
Ġcontrib ut
Ġele g
mark er
Ġbur n
Ġangi ography
Ġequip ped
Ġg t
Ġper mit
to ols
Ġneu rom
Ġaccom mod
Ġg ains
oid es
Ġprob able
Ġshe et
on uclear
Ġcor ro
it tal
Ġap paratus
Ġcl ade
Ġreproduc ibility
Ġre arr
mark ed
Ġrel ief
mul tiv
Ġrecip ient
opath ology
sus cepti
electr on
Ġpari etal
Ġg ol
Ġacadem y
Ġt ell
it ual
Ġre jection
t ude
Ġpar al
) ].
in in
in duction
Ġmet formin
Ġman aging
j ud
Ġaspir in
major ity
obes e
Ġhabit at
Ġimmunohist ochemistry
Ġhemis phere
i tic
Ġbi ases
bi as
commun ic
Ġcur rents
Ġiso form
ing e
Ġang les
ffe ine
g on
end ers
Ġnor way
Ġdam aged
d n
Ġm ari
ot oxicity
Ġt cr
bas ic
ac count
Ġmon ol
if ier
Ġ19 84
Ġslow ly
Ġun changed
am ed
Ġrup ture
Ġe ase
Ġiniti atives
Ġacces sion
Ġgl ands
relationship s
achie ved
v ary
y pt
ches ter
Ġbat ch
Ġre cipro
Ġelimin ate
Ġmich ael
Ġcer ti
Ġt ong
Ġac uity
Ġhe avi
Ġ10 2
Ġseem ed
Ġcaps ule
Ġb rom
prepar ation
Ġattrac tive
otyp ed
ag ue
Ġde form
Ġc ensus
Ġdet ector
cre te
Ġadoles cence
Ġamb igu
b g
Ġun affected
ast atin
enh ance
re fer
ag ent
Ġphosph olip
uz umab
Ġgam bling
Ġaccom pl
Ġdeï¬ģ ne
kid ney
in ks
Ġk d
Ġint ellectual
Ġpre treatment
Ġimmun ore
Ġï¬ģl ter
Ġinc ision
inhib itor
aut o
estim ates
Ġrhyth m
st op
system ic
Ġpseud o
ant om
reg ard
37 5
fam ilies
Ġs bp
Ġg s
Ġinfer red
Ġfam ilial
trans mit
Ġnormal ization
Ġwa ist
) (
Ġdis abilities
larg er
Ġj un
osp heric
Ġinterfer on
Ġreg ulations
Ġprophyl axis
he pat
Ġelic ited
ost on
Ġaggreg ates
Ġphenomen a
Ġdepos ited
elev ated
h oc
Ġt bi
Ġin ability
Ġmix tures
biom ark
od ic
respon sive
Ġsk ill
Ġradi ology
m and
og ue
Ġcompati ble
0 33
ro t
h pv
Ġe bv
Ġl inking
Ġform ulations
has one
od em
Ġpre frontal
Ġcere visiae
ox ylin
Ġfunction ally
Ġnod ules
j anuary
Ġprepar ations
Ġindirect ly
j ournals
23 9
2 15
Ã ¨
pend ence
aff in
Ġenc odes
graph ic
oblast oma
se y
ap ine
Ġtest osterone
Ġpre dom
com plement
0 34
ay lor
Ġen sem
ex in
Ġken ya
Ġmut agen
bri ef
tum ors
Ġ1 29
Ġle an
Ġsm art
subst anti
l en
Ġhapl otype
Ġchick en
z one
re ducing
Ġh ttps
22 9
Ġre cover
Ġcoun ty
r ats
hem es
continu ed
commerc ial
ven ile
Ġan kle
Ġd rought
ic c
Ġv ig
Ġat g
Ġfr anc
Ġc cl
un ivers
Ġmod iï¬ģcation
Ġd ense
Ġlik ert
ind le
Ġclass ic
dif f
Ġres ervo
les ions
str y
in cor
strateg y
Ġn est
dec ember
conn ected
d op
Ġ( âĢĺ
Ġarg ument
00 05
Ġmalign ancies
Ġclon ed
r ical
Ġset up
Ġcon to
Ġat om
arg es
Ġcomput ation
ed ema
Ġmodel ed
Ġfit ted
hip pocamp
Ġscaff olds
Ġrel ies
Ġag encies
oxid ative
Ġimpair ments
con stant
Ġworksh op
Ġp ent
Ġb ases
? âĢĿ
Ġl ived
. -
h sp
Ġadv is
Ġinvestig ator
Ġpoll ution
gl i
bacter ium
Ġsper mat
oc in
Ġhe arts
co v
Ġinstr ucted
Ġran king
u ation
Ġb s
mo vement
Ġdifferent ly
Ġcan onical
ha em
Ġad ver
ï¬ģc ients
Ġpsych o
Ġscat ter
s el
sur ve
Ġgrap hs
h cv
Ġ '
Ġm ary
Ġ î
cult ured
Ġt ai
Ġw anted
ab l
Ġv in
Ġn itric
Ġed itors
ul ators
Ġeth iopia
mm hg
Ġdistin ction
ar ma
Ġ19 70
ro ut
Ġre ality
ac i
Ġinter rup
Ġpediatric s
th r
sugg ests
och rom
Ġg ar
Ġcat ch
Ġinter acts
Ġparen ting
c ies
Ġdes ire
in ery
Ġeth yl
Ġharm ful
ir on
Ġcycl ing
j oy
sup ported
car b
Ġam bient
clin ic
Ġprom pt
v r
gramm ing
Ġ erg
at c
Ġob lig
Ġshar p
Ġs anta
Ġcarbohydr ate
b w
Ġt ak
Ġto uch
ad d
ad herence
Ġlim bs
soci o
ch ina
t cc
Ġj unc
Ġï¬ģb rosis
Ġof fic
Ġadequ ately
enti ves
Ġelic it
b cl
es ium
Ġ. .
Ġdri vers
Ġswit ching
Ġincons istent
Ġprote omics
Ġaud i
it ance
el ve
Ġn ac
Ġveget ables
ro che
Ġdimin ished
Ġnicot ine
g ut
Ġsp aces
Ġcompl aints
mir na
Ġgl u
ke ys
gu ided
al most
oph ore
Ġbud get
2 11
h ot
s an
ab e
n ative
Ġmod ify
ack s
Ġfil tered
Ġth omas
Ġf oci
os us
Ġim ple
Ġag arose
Ġend oscopic
Ġphys ically
Ġrc ts
ak o
fron t
Ġcoef ï¬ģcients
ine a
trans criptional
Ġex pec
âĨ ĵ
w ind
Ġche c
pir ation
Ġc itrate
op os
Ġbi ophys
erg ies
Ġsynd romes
t un
- )
Ġstand ing
Ġimp ed
provid es
Ġaud it
Ġsc re
sah aran
k el
Ġadministr ative
d up
Ġext ending
Ġde pressed
Ġpar tition
Ġsome one
Ġher b
Ġwa iting
alb umin
Ġs ox
yn thetic
Ġamy gdala
k h
um ination
23 6
ges tion
Ġdele tions
Ġarti ficial
Ġarab idopsis
mel an
th i
com prehen
Ġbio ï¬ģl
Ġc ement
coll agen
Ġan ne
Ġd anger
Ġper itoneal
ari um
Ġtox in
Ġdiver gence
Ġcomor bidity
influ ence
m erc
hen ce
Ġda iry
Ġsqu ares
e h
ig hed
Ġs port
Ġf us
Ġactiv ator
Ġq tl
j uly
Ġcons ortium
g an
j s
Ġn in
Ġneuro pathy
in ations
os itol
Ġselec tivity
Ġglut athione
Ġgastro enter
a rest
ss on
t end
u ent
Ġp w
stand ardized
elec tric
m h
Ġp ick
Ġf las
g lu
ocardi um
Ġrevers ed
Ġanticip ated
f en
och astic
nucle otide
Ġobstr uctive
s pr
ell es
lin king
q pcr
Ġathle tes
Ġm ere
at gg
Ġmus cular
und ant
u i
Ġattenu ation
Ġgen ital
Ġaberr ant
le m
ill ation
Ġprom oted
u ated
Ġre pre
Ġanti depress
aff ect
inde ed
Ġsuppress or
Ġreg ister
hel l
Ġacid ic
Ġa ph
Ġc in
Ġinspec tion
ure rs
Ġexact ly
Ġmanag ers
oplas tic
Ġorganis ation
Ġam p
Ġpel let
r ural
36 0
consid ering
malign ant
Ġq i
fram ework
Ġn erves
in ating
house hold
Ġdec laration
Ġcalc ulating
Ġster oids
Î¼ g
p aper
Ġcompe titive
Ġduplic ate
id o
Ġun usual
si bly
ph rine
Ġir respective
Ġexc ision
Ġenrol lment
Ġk v
Ġbi ased
Ġb ones
ter ious
ir ubin
my el
Ġcryst als
Ġrank ed
Ġsaliv a
Ġmamm ary
n ad
cent ric
29 0
Ġpregn ancies
Ġpen icillin
subsequ ently
Ġm tdna
Ġs ure
Ġg ent
Ġcor pus
Ġm cf
ad he
Ġqu ad
Ġsil ica
s light
Ġh ors
Ġepit ope
cip arum
a ag
Ġcontr alateral
Ġgly coprotein
Ġbiot in
f v
con cept
Ġphys ics
Ġdri ver
Ġth r
ce ive
ass ays
Ġpro of
Ġpro jections
st one
inter mediate
Ġleak age
y ah
re ï¬Ĥ
Ġcy steine
Ġca ution
Ġreason ing
cad herin
Ġc ities
Ġpri v
Ġpsych osis
Ġgener ations
26 5
Ġhyp o
vari ant
3 20
Ġl atin
Ġis lands
lipid emia
dis play
Ġfl ag
Ġh op
Ġcar ies
ent h
target ing
orient ed
Ġal i
Ġpot en
Ġcharacter ised
al ter
Ġcl ustered
Ġstrong est
engine ering
Ġarb itr
Ġst aging
Ġg f
Ġstr ip
Ġp un
22 7
Ġdissoci ation
ĠÂ £
troph ot
in ct
st art
for ced
Ġbo ok
Ġrepe titive
rem ains
ac quired
stud ent
rim ental
is ely
ish man
set s
Ġacknow led
Ġtr af
ort em
cd na
Ġmo unted
Ġfunctional ity
ro b
common ly
Ġb w
ter dam
tic als
compar ing
Ġf ir
24 5
Ġnon linear
sent ed
Ġsc ri
Ġpl uripot
amet hasone
Ġin gre
Ġlif espan
Ġendometri al
Ġg was
Ġnucle otides
Ġcon ference
um ental
Ġex ert
Ġcor onal
Ġadmission s
ili ence
Ġgh relin
ne eds
23 3
ĠÃ ¥
Ġ( ~
Ġtrigg ers
Ġswed ish
Ġclar ify
Ġglomer ular
ord ered
Ġhar mon
op us
Ġscat tering
os c
ad ed
pro gn
Ġder ive
0 37
Ġph yt
molec ule
Ġdramatic ally
Ġconj unction
n ar
c ode
Ġinform al
Ġpers ist
pl ast
pl oid
Ġdes irable
Ġem pty
Ġcheck list
Ġcoch rane
0 46
k an
Ġsw im
Ġprecur sors
Ġwavel ength
Ġk y
Ġj an
Ġanaly se
Ġill umina
ethyl ene
ĠĊĠĊĠ ĊĠ
Ġc es
it um
cl one
supplement al
well ing
ore mentioned
Ġmicro glia
Ġtrans membrane
Ġsk ew
Ġepider mal
Ġno tice
Ġcolon ization
Ġw u
str and
Ġcap abilities
d ar
Ġph on
Ġpot ency
Ġpneumonia e
9 00
Ġa q
at ric
Ġrational e
Ġn itro
Ġexhib its
vacc ine
an ium
Ġim possible
Ġtw in
Ġenti ty
Ġnarr ative
ecl amp
us ive
no ise
un i
g ian
Ġfacilit ating
air s
Ġze aland
Ġas ter
Ġsurprising ly
pro xim
ib ular
Ġaf ford
Ġdistur bance
Ġug anda
, *
et ary
Ġinter active
kn ock
] -
Ġim plicit
ren ces
Ġmun icip
hy brid
Ġfre ely
Ġpoin ted
Ġc ros
Ġp cs
Ġh h
ich i
spec trum
Ġposition ed
24 9
Ġbd nf
Ġpres ervation
Ġpancre as
ri al
c old
Ġtryp sin
Ġpresum ably
Ġv ac
compar isons
re ferences
Ġleg is
0 36
p ip
Ġor ange
oc ellular
Ġy ang
region al
ic d
partic les
Ġintrac ranial
Ġorth opa
Ġhemat opoietic
feren tially
Ġspec i
Ġaf ï¬ģnity
Ġir radi
tr ue
Ġas h
2 17
k es
Ġun stable
Ġins ects
bas al
Ġdifï¬ģc ulties
Ġneighbor hood
m arg
Ġv l
Ġam el
rop athy
caus es
Ġf i
Ġb eds
Ġag onists
Ġabs cess
c igare
occur red
Ġt ang
he t
Ġpe ers
Ġp ictures
ub icin
Ġap c
Ġflex ibility
s om
os yl
pre pared
Ġprior iti
Ġabd omen
Ġes ophageal
Ġdig it
Ġv p
og s
Ġmat rices
Ġselec tively
Ġtex as
Ġdas hed
.. .
Ġorgan izational
Ġcx cl
) âĢĶ
ch ol
Ġde hydr
Ġperiod ontal
Ġs g
tic ism
Ġpro ve
Ġpro to
ar ity
ï¬ģ x
Ġcl oud
Ġro dents
Ġdevelop ments
macroph ages
Ġst ro
Ġhe k
Ġsol ar
Ġinj ured
prim er
Ġk aplan
lin ing
Ġfacilit ates
Ġimmun ost
accur ate
recommend ations
prais al
Ġn u
under stand
show ing
Ġemploy ees
or rh
dis cr
rec tional
Ġl f
Ġch im
Ġsuperv ision
f lex
sub stit
Ġmit otic
Ġfit ting
categ or
d ren
Ġt l
Ġtrans verse
Ġgrad uate
al anine
im ents
ch oline
trans cript
det ailed
Ġpit uitary
it ating
Ġsugg estive
Ġoxid ase
Ġbill ion
os arcoma
24 3
coun ter
Ġlar val
aug ust
Ġradi ological
smo kers
Ġolig onucle
24 4
nm r
Ġvulner ability
Ġt ic
Ġtr abec
qual itative
p ens
Ġj a
vent ricular
Ġker atin
ec d
res ulted
Ġreview ers
Ġdop pler
Ġir re
Ġincorpor ate
represent ative
depend ing
Ġbi ob
23 2
Ġexpl aining
Ġoper ative
Ġmex ico
reg ulate
ðĿ Ĳ
cler otic
cr na
Ġreflec ting
termin us
Ġper oxidase
Ġlymph ocyte
w ing
bar ri
ac ial
omer ase
Ġcannab is
Ġingre di
0 45
m rs
om ed
Ġf ate
Ġget ting
s cribed
Ġm erg
ath yroid
Ġthough ts
Ġle thal
24 8
Ġge ometric
Ġd un
Ġw el
tr adi
Ġv omiting
Ġm h
Ġmechanis tic
Ġcontinu ing
hyper tensive
inj ected
d an
rect omy
Ġoste oc
2 19
v or
re y
ome gal
Ġev oked
tr aditional
Ġpr ism
23 7
Ġf is
res ource
under lying
ack son
Ġpredic ts
mech anical
force ment
Ġra ise
Ġsens ing
g ow
el isa
Ġcon jugated
Ġcat s
ï¬Ĥu orescence
Ġaggreg ate
p ancre
see king
Ġoper ated
Ġsen escence
Ġencour aged
adap tive
transf ected
Ġunder gone
25 5
25 4
gl ial
Ġampl iï¬ģcation
Ġnic he
Ġdie go
Ġtoler ated
Ġb mp
read ing
ag er
Ġco inc
Ġsp ik
Ġso ils
ocy an
Ġevery day
enzym es
yl es
Ġabstr acts
am er
Ġac r
Ġsym pathetic
Ġaccel er
Ġinher ited
oc ar
Ġcy clin
Ġpolym ers
coup led
ines cence
Ġinter stitial
Ġ19 83
sub strate
Ġib d
Ġcompart ments
Ġthe me
Ġre fractory
et e
25 2
Ġmen tion
to ol
Ġfr ail
Ġfer r
Ġsy ring
sc enari
Ġpul ses
Ġdistin c
b ros
Ġcare er
lab el
sk y
Ġdiffer ing
abs ent
Ġsc r
sc c
Ġspl ice
Ġdistingu ished
f as
Ġc up
Ġn ause
Ġcon fer
de ple
ail and
Ġinf lam
33 89
Ġinstit utes
of l
Ġflo or
ĉč ĠÂł
Ġan tiviral
Ġdis cover
ce in
Ġtem por
path ology
Ġmultiv ariable
Ġcontrover sial
oflu orescence
as thma
Ġhyper gly
wid th
Ġappre ci
is co
id azole
v l
tow ards
g ic
r ms
long er
Ġtib ial
Ġco operation
qu ently
27 5
Ġelong ation
Ġw ent
19 94
0 38
c gg
r anging
Ġl ies
Ġdistur bances
m ond
q l
Ġa ms
Ġd ens
invol vement
Ġanomal ies
ysacchar ide
hum ans
Ġro i
w iley
Ġwe in
Ġgovern ance
Ġf asc
24 6
Ġprof essor
Ġconform ational
min ute
Ġgly cerol
Ġglob ally
observ ations
ĠÎ ·
org anis
Ġhapl otypes
Ġe if
particip ation
Ġassem bl
im paired
Ġvill age
l ock
s b
Ġaut onomy
odem ographic
ro genic
Ġepit opes
the ast
mod elling
Ġintegr al
sci ences
Ġst yle
chlor ide
Ġam ph
sim ple
este em
ac ed
Ġper ox
Ġd mem
Ġh ox
are an
Ġhyper trophy
h ous
ion ine
pr incip
Ġauthor ity
Ġaccel erated
ĠĠĠĠ ĠĠ
2 18
Ġes cape
Ġsoci eties
ĠÏ ĥ
Ġm ec
Ġap oe
Ġmy o
Ġpix els
Ġr u
tin ction
or o
oc ation
Ġper ceptual
Ġcor n
Ġcomput ing
Ġinfil tr
Ġrespon sive
amet ers
Ġcondition ing
Ġnause a
Ġc ath
as ym
ab or
Ġresus pended
g ae
Ġmod iï¬ģcations
bl adder
Ġintr av
Ġfr uits
Ġwil coxon
Ġdepart ments
Ġp fs
Ġp lex
an yl
evalu ate
Ġexcre tion
oc currence
Ġtrans porters
Ġre pos
Ġg ing
Ġcon vers
Ġac cord
sign ificance
Ġax ons
Ġp pi
Ġpro jection
st on
rev ised
Ġass isted
ne ural
Ġtri ed
a id
ti b
Ġres cue
Ġstimul ating
Ġavoid ed
Ġp iv
colle ge
j oint
Ġs ides
et a
sm ith
Ġt sh
Ġpromo ters
Ġï¬ģx ation
oc tober
Ġavoid ing
Ġsustain able
Ġimp ly
car ried
Ġcertain ly
cor onary
i ac
Ġv ocal
ch am
Ġpip eline
sept ember
Ġidenti ï¬ģ
respon sible
comp are
tur n
cardi a
adap ted
c z
Ġd uc
mark et
so il
Ġer a
inf ec
feed back
a qu
ad mission
ant um
Ġdis charged
Ġprec isely
Ġcon st
c acy
e y
Ġm ating
immun ity
Ġrough ly
Ġagg ression
Ġpathophysi ology
Ġbur st
un ique
ang hai
Ġpix el
ig an
mix ture
g ested
ot rophic
k im
Ġtherap eutics
coun ts
Ġcovari ate
os ol
Ġch ap
Ġinform ative
bac illus
b ile
det ails
isting u
st aff
loc ations
Ġconsum ers
bel ie
Ġï¬ģt ness
Ġd ust
Ġcat he
ar ith
ms c
Ġflex ible
Ġh at
Ġdes c
Ġim aged
Ġquanti ties
at ology
Ġcm v
Ġpost partum
Ġdraw ing
us kal
com position
ep is
Ġprior i
itri le
Ġqu arter
Ġâ Ĺ
Ġderiv ative
Ġind igenous
f ocal
Ġcom ing
alle le
Ġta q
Ġneurode generative
x l
ci ency
Ġver ified
Ġexplan ations
0 39
Ġst ory
Ġgr ades
Ġsub tle
Ġdown regulated
obser ver
obser vation
c ial
gl igible
si bilities
Ġchar ac
Ġpur ification
sum mar
afric an
Ġdel ta
Ġtub ular
Ġcycl ic
Ġf m
Ġact ors
v itro
Ġcollec ting
Ġ ĊĠĊĠĊĠĊĠ
Ġdo ts
Ġdefic it
Ġsed entary
Ġmanag er
24 7
tradi ol
Ġres em
Ġro dent
Ġstress es
3 000
r ace
25 9
Ġhar bor
Ġmil itary
Ġecos ystem
Ġo ve
wall is
Ġbiofil m
om inant
23 4
angu ages
determin ation
m ach
plic ity
put ation
re ferred
Ġh ub
os an
Ġcardi ology
Ġintegr ate
Ġremark able
27 6
Ġaff ili
ank ton
Ġns clc
Ġin appropriate
em an
am el
ij ing
Ġcigare ttes
ex tracted
24 1
Ġcyt ochrome
Ġthir ty
p il
Ġk il
bec ome
Ġcris is
Ġtr unk
Ġme ant
Ġadmin is
Ġsearch ing
Ġmarg ins
Ġlab els
Ġatm osphere
Ġim mature
Ġcirc uits
Ġdenti stry
yah oo
op portun
Ġmar ital
Ġalong side
Ġadop t
tr ip
ag matic
Ġprescri bing
f isher
me tic
fr ame
i encies
et ts
ap t
ge vity
istr ies
Ġexpect ancy
f ir
at osis
Ġn ations
Ġacces sibility
ub ation
99 9
Ġachie vement
Ġax onal
Ġ Ë
Ġins u
assem bly
Ġst ore
Ġi reland
polar ization
remo ved
Ġg n
Ġsolub ility
Ġp ull
ik a
f dg
Ġc iti
Ġf ist
26 8
tr is
Ġr ins
pec ific
Ġassay ed
c osts
29 4
Ġcollec tive
typ ical
Ġechocardi ography
38 0
equ ivalent
Ġposi tivity
iss ue
Ġso y
Ġgli oma
Ġdoc king
z z
Ġpoly clonal
emerg ency
Ġliv estock
ac yl
Ġpur ity
Ġbox es
ti les
as tro
Ġ( âī¥
Ġq rt
24 2
Ġbr af
c oc
Ġk cal
avir us
Ġinvest ment
e ye
us hing
Ġcon gr
ud i
end a
Ġaccum ulated
recruit ment
Ï ĥ
Ġpro xy
pl os
na ires
indic ates
aryn x
c aps
ical s
af ting
ole t
enstr ual
me et
Ġplac ental
Ġantag onists
Ġprep are
ur on
Ġman if
Ġsent ence
Ġtu key
3 01
Ġtr ap
Ġpsych otic
Ġax on
Ġhepat ocytes
braf ish
0 44
ual s
30 8
sequ ently
Ġsul ph
Ġdiscrep ancy
ab led
Ġstar ts
Ġfer mentation
Ġcommit ment
ïĤ ·
Ġh bs
bi ased
b ond
e b
Ġl r
Ġsign atures
tein s
educ ational
Ġimmun ological
psych otic
Ġï¬Ĥu orescent
fic iency
ptom ycin
micro bial
j ust
in cludes
es tions
cept or
cc g
Ġcat ar
Ġcut aneous
Ġtax onomic
it axel
ist ol
Ġsup plied
comp uter
Ġeukary otic
for table
Ġequ ival
Ġkid neys
Ġserot onin
Ġv on
pro be
com pati
Ġend othelium
em ph
immun ohist
z ens
ab i
Ġhormon al
Ġdeterior ation
ove rex
cord ant
Ġ( *
com pe
Ġtim ely
mar ried
t etr
h arm
Ġg ag
25 8
Ġtit le
ad op
Ġad am
trans plantation
Ġ1 11
Ġsent ences
Ġmess age
Ġp sy
Ġf ill
Ġfl at
angl adesh
Ġn af
Ġhom ogeneous
Ġreal istic
g ers
es i
her ical
Ġme i
vari ants
thick ness
rop y
Ġattack s
Ġe b
Ġfal ciparum
ro id
ep i
pers pec
Ġgrad ed
y ellow
at tem
ro x
pro state
com pliance
iv a
Ġlic ensed
Ġdiv iding
Ġrespir ation
spec ifically
Ġsurvi ve
Ġshel l
z hang
Ġse v
Ġfin land
Ġs tic
Ġbr it
Ġtranscript ome
Ġhyp oxic
Ġelucid ate
Ġc row
Ġle u
Ġreg ime
ep a
27 7
Ġcys ts
Ġteac her
contrib ute
Ġd t
ip ore
Ġco agulation
0 50
Ġmicro environment
Ġphosph o
Ġassem bled
Ġdis par
Ġlo oked
Ġreli ably
Ġmas sive
f used
Ġd in
Ġpro c
str anded
Ġdocument ation
Ġauthor ities
Ġatten tional
Ġcomb ine
t ree
Ġap pend
Ġinter mittent
30 5
Ġansw ered
re quires
Ġsec ure
Ġfol ding
t lr
op ment
Ġsk ull
Ġtit ers
Ġor ders
Ġpenetr ation
25 3
c all
Ġconï¬ģ g
l an
m ad
Ġd ar
Ġdis tilled
sup erv
coun ted
48 8
Ġsl ide
Ġmanufact uring
Ġhemat ology
Ġze bra
Ġcounter parts
Ġsar coma
Ġc ock
provid ing
Ġaccept ability
con ver
Ġsex ually
at uration
0 40
st ages
Ġï¬ģ bers
interpre tation
ind ustr
Ġalle vi
Ġcytos olic
an ne
op ter
Ġbre ed
um ps
incub ation
Ġt is
si vity
Ġhum idity
Ġcd k
comple tely
Ġemploy ing
Ġig a
Ġto ld
oc king
ct gg
Ġac quire
Ġor f
Ġp ocket
Ġre per
im es
Ġg ard
Ġple ural
Ġord ered
f n
ur ations
Ġbr id
vis it
Ġrespond ers
chall enge
Ġwork flow
Ġn j
Ġat omic
Ġrespon siveness
Ġdistric ts
Ġm ci
Ġprior ities
Ġenc ode
b uffer
Ġf n
ol ym
Ġaden osine
ele ments
Ġfibr in
Ġrheumat oid
Ġre place
mic ros
bec k
c el
f arm
y ces
Ġf un
Ġgener ates
polym orph
Ġimag ery
Ġ {
jap an
Ġc ave
Ġon col
Ġun ilateral
Ġmet ab
Ġ19 82
Ġvo ice
Ġk ern
Ġsp earman
Ġfrag mentation
Ġt alk
Ġre ti
Ġorig ins
d q
e ï¬ĥ
Ã ¥
um b
ext rem
allow ed
Ġchr ist
Ġmod ulated
col labor
Ġrecogn ised
l g
te es
Ġsign if
Ġinï¬Ĥu ences
x in
Ġan astom
Ġd g
Ġf ellow
Ġpre v
pr ise
Ġdon ation
Ġcoc aine
Ġan is
ex on
Ġrna i
norm ally
0 47
Ġg sh
Ġex clusive
ne igh
Ġcy to
Ġer os
can not
z n
he at
Ġconsum er
b its
post operative
Ġs it
Ġsyn apses
Ġdissem ination
Ġantag on
Ġcontracep tive
press or
ann ual
Ġf ell
ay a
present ation
Ġdel ays
Ġhere in
Ġcouns elling
n om
res olved
Ġas king
Ġwashing ton
Ġdefin ing
Ġcl onal
Ġc hel
ph an
Ġweak er
Ġeleg ans
Ġis rael
ch ip
Ġinter ac
uter ine
Ġf dg
a vid
Ġk its
part ate
27 9
Ġincorpor ating
Ġstand ardi
Ġarri val
Ġf ecal
pl at
% ]
Ġp sor
Ġassoci ate
ophag us
Ġapproxim ate
ï¬ģc iency
correl ations
ticip ants
0 32
Ġand rogen
mal aria
inhib itors
load ing
t agged
Ġout puts
res tric
Ġ1 35
Ġmedi ating
Ġinnov ative
n ull
Ġar gin
Ġevid enced
vis ions
acl itaxel
Ġvacu um
Ġre versible
br is
rem ained
Ġmicrobi ome
keep ing
dr s
te am
Ġcon duction
ati d
Ġa pt
Ġl upus
Ġwe ather
Ġne arest
Ġimmun oblot
Ġpla ques
0 48
Ġca ucasian
0 31
Ġhem odynamic
Ġsalmon ella
Ġr ic
Ġ0 2
fe bruary
Ġstabil ization
grap hs
u el
Ġqu artile
Ġem erge
Ġgam es
Ġt il
an tim
as gow
Ġw it
et o
duc ted
Ġmid w
stim ulus
Ġt inn
19 93
28 8
spe ed
al tered
the ore
tr on
Ġfar ms
Ġse vent
Ġenc aps
cir cum
c ations
ur ic
Ġdet rimental
27 4
Ġvis ceral
plast y
de ï¬ģcient
min or
Ġmo i
ores t
Ġa us
26 7
Ġneuro imaging
recogn ition
ul ary
Ġ1 12
Ġim migr
rem aining
f ab
v ag
ï ľ
Ġg aussian
clin ically
int ake
Ġwr ong
b at
Ġsupple ments
p u
Ġb ull
Ġinc entives
eng lish
Ġtinn itus
h all
Ġch ris
sc heme
Ġelimin ated
Ġs ph
an ching
Ġk appa
Ġsc hemes
ï¿½ /ï¿½
his panic
Ġt andem
33 3
od end
mo tiv
Ġca ffeine
discus sed
en rol
Ġd api
specific ity
Ġbiological ly
Ġaster isk
Ġloop s
threat ening
Ġposition ing
Ġgluc ocortic
Ġ1 15
Ġsuff ered
Ġpropag ation
o is
Ġm dr
Ġre con
cons tit
Ġciv il
di rection
Ġb uff
bre eding
Ġoptim ize
Ġheavi ly
in burgh
ac ag
Ġres ist
ï¿½ ,
y g
Ġtr ying
Ġmigr aine
integr ation
Ġanalog ue
pro spective
Ġj ose
ax ial
Ġread ers
Ġaltern atives
Ġnorm ative
Ġanten atal
uch i
app ears
net t
Ġrequ ested
Ġreconstr ucted
-------- --------
lies t
respon ders
Ġana erobic
c ity
m ortem
Ġf ire
Ġph os
Ġi hc
ep tive
Ġfe v
some times
eclamp sia
t at
Ġb oston
tr yp
Ġbr idge
Ġm ds
el ibrary
Ġsp utum
opath ological
mother s
on lin
m agnetic
an not
ro ot
ad ing
Ġcho osing
gal act
lig and
cryst all
omat ous
Ġcomp o
Ġcompr ise
Ġro utes
cons ult
Ġdi ï¬ĥ
Ġstr iking
trans plant
neur onal
Ġcomor bid
p eptides
Ġst ochastic
ress ed
Ġpop u
Ġmut ual
Ġneon ates
Ġsched uled
Ġobser ver
grap hy
un a
Ġr ising
Ġsur rogate
ask ed
Ġ0 8
34 5
small er
Ġintr on
i ol
co verage
at onin
aterial s
Ġoutbreak s
Ġser ving
Ġprim ing
Ġfirst ly
ï¬ģn dings
saf e
Ġ âĪĹ
no vember
Ġent ering
Ġdown regulation
Ġinfer tility
Ġidi opathic
h amm
Ġcon v
iss on
Ġdrop ped
fav or
infec tious
Ġs oph
ent eric
og le
ex tent
tis tic
per i
Ġspecial ists
tid ine
n ik
Ġo sm
Ġpresent ations
Ġvis ually
Ġw c
Ġtend s
Ġblack well
y et
Ġh its
Ġaf orementioned
Ġdys p
k at
Ġtur ned
Ġtail ored
se p
Ġplac enta
li ers
Ġvox els
onlin elibrary
as d
Ġpre y
coun ting
s ds
tr ich
27 8
qu ency
Ġcarcin omas
d ase
l ondon
per g
Ġsp indle
Ġregard s
b uffered
l h
tom s
orth y
Ġdich otom
ol ab
pd b
t omy
Ġg ib
Ġfig s
frequ ently
Ġhabit ats
b ay
g ib
et nam
od il
st in
Ġimmun ode
Ġof ficial
Ġfr ank
bor ns
efï¬ģc acy
Ġenvelop e
Ġprog ester
on ing
an ing
un ch
Ġi op
Ġch al
ï¬ģ g
Ġk illing
ial ysis
ep ilep
25 7
37 0
au er
Ġam plic
Ġprolif erative
Ġspati ally
Ġduplic ation
Ġtryp an
work s
rem ark
ult ure
ex traction
Ġw ish
ain dic
Ġattend ance
or rhage
Ġb f
lik elihood
Ġblock ade
Ġsat urated
Ġoscill ations
d one
Ġco herence
techn ical
Ġs ut
Ġo k
et ine
Ġcor rec
Ġ% ).
wr itten
in oc
care g
Ġappropri ately
cl u
ow ski
Ġpre m
we b
Ġco il
conf idence
Ġtoxic ology
Ġrib osomal
Ġdestr uction
Ġh m
im etric
âĢ ī
Ġv or
phil ic
Ġresol ve
Ġgangl ia
r ain
Ġo le
acknowledg ements
in tracellular
ap ore
Ġwork place
27 1
tr igg
Ġintr aper
buil ding
ta u
Ġutil ize
Ġexc el
pos itions
26 6
Ġimpl anted
Ġju venile
oxif en
ti tions
Ġpsychiat r
b rom
b les
Ġp and
or ge
28 5
ca ag
cult ures
Ġple as
Ġcb t
3 40
Ġtable ts
oder m
Ġp th
aim s
an king
Ġun published
cop y
dist inct
Ġproce ed
Ġ3 50
Ġwell being
Ġrec ons
Ġconfound ers
Ġtr iton
sh ape
ici ous
en viron
en riched
29 8
Ġgap dh
Ġph antom
Ġprop ensity
network s
Ġscot land
Ġs ong
Ġal beit
Ġar te
Ġleuk ocyte
in duc
Ġoptim um
Ġrn ase
om nia
investig ation
ber ts
iss n
Ġver b
Ġorganis ations
i u
ģ ¢
if feren
enc oding
ens ure
oplas m
Ġexpon ential
n iï¬ģcant
Ġfat hers
Ġcoord inated
7 50
w f
ar ial
ĠÂ §
Ġno ticed
Ġtrans mit
Ġanti retroviral
Ġed iting
Ġem t
bal anced
Ġarti facts
Ġde aling
pregn ant
Ġb arc
30 3
Ġtri ang
Ġaut onomic
squ ared
Ġmach inery
govern ment
Ġs ant
Ġl b
predic tion
cos ity
Ġchlor o
Ġov ary
t re
%) ;
Ġref lex
Ġinoc ulated
Ġmulti disciplinary
diet ary
r um
Ġfem ur
hydro x
far in
ed ited
om ide
Ġhospital ized
Ġintra operative
flu orescence
vacc ination
Ġshap es
ff ee
Ġbel gium
Ġjoh nson
xi ous
Ġfair ly
infer ior
h in
l us
s ue
Ġp ax
Ġdes cript
Ġinflu encing
Ġrespond ent
never theless
t f
Ġspec iï¬ģed
Ġlig ation
Ġsag ittal
Ġprof iling
Ġextr apol
Ġver lag
Ġhyper tensive
Ġar sen
Ġinf arct
Ġl enti
Ġang el
Ġdeï¬ģc its
Ġch aper
cr t
Ġdr inks
ca ro
Ġannot ations
Ġimmunohist ochemical
Ġde eper
ip t
26 1
normal ized
arr ays
Ġdef ective
col umn
Ġregen erative
red itary
b olic
Ġpr ison
Ġstrateg ic
Ġsat ellite
++ +
Ġveget ation
al ways
Ġp ose
ex tracellular
Ġmal ay
Ġpor cine
Ġre tain
Ġh idden
lab elled
Ġhydro xyl
local ization
Ġfu el
Ġcool ing
Ġstriat um
Ġg over
Ġeng aging
p inal
vari ability
path ological
Ġcollec tively
Ġren der
ar bon
Ġh cl
pro duce
af ted
dr y
Ġas certain
Ġqu it
30 6
Ġpossi bilities
Ġperin atal
Ġradi ographic
Ġmus culoskeletal
throm b
lit tle
30 4
k ary
Ġo ocyte
se ed
ogen y
Ġmit ral
Ġconï¬Ĥ ict
n ear
ic ans
Ġcon dens
Ġpain ful
Ġden otes
Ġprogester one
Ġh ong
Ġro se
cre ative
Ġreï¬Ĥ ected
sn ps
spec t
Ġround s
Ġinter medi
Ġsp ray
Ġsupernat ants
he patitis
om o
Ġï¬ģ ber
y ield
ec k
rec onstr
Ġsn ap
âĪ ¼
Ġcare rs
Ġtherap ist
Ġattrib ute
Ġhaz ards
ap hr
Ġove res
Ġlig ament
Ġp am
us er
ul sion
ill ness
main tenance
Ġm cg
27 3
my ocardial
hol m
acet ate
c ns
v ch
gen erate
oph ils
ĠÎ¼m ol
ti er
im inal
Ġpath s
Ġidentif i
Ġrestric tions
athe red
metast atic
Ġd ates
Ġg st
Ġk le
Ġinves ti
Ġmagn ification
Ġaspir ation
ocom pati
3 15
ab sor
Ġde formation
Ġrh iz
o ured
Ġme als
Ġsib lings
Ġex osomes
ct omy
Ġres ilience
Ġoccup ation
vac izumab
a er
ti de
Ġcol itis
n ant
26 9
techn ologies
0 49
p earson
Ġin ï¬ģl
Ġe uth
Ġq t
Ġunivers it
m ag
or n
28 6
Ġgradi ents
Ġsor ting
Ġrevers al
3 10
or p
form ations
de ep
function ing
Ġlast ing
Ġpool s
resid ues
Ġ19 81
Ġes cherichia
centr ifug
appear ance
Ġverte bral
as pects
Ġj ames
estab lish
ativ ity
l oid
unc er
Ġcr ime
Ġtong ue
Ġcan n
Ġsecond ly
o i
Ġp eter
Ġar ises
ew orthy
Ġhighlight ing
Ġ( [
iss ues
Ġmass es
Ġang er
accum ulation
b h
Ġ1 70
ct c
Ġre perfusion
ab c
ab sorption
Ġra ises
Ġcompens ation
Ġsca ven
et ers
Ġperiod ic
ped iatric
Ġc ing
ul s
Ġg aze
Ġ2 40
Ġwor ry
n ary
Ġa av
ti ology
al d
Ġw ales
Ġd ia
Ġe jection
min utes
Ġgrad ual
Ġa venue
26 3
w m
ther mal
Ġload s
bil ical
e i
j ac
Ġsufficient ly
Ġbl ank
ensi tive
Ġfil tration
Ġï¬ģbro blasts
ak ed
Ġj o
gram s
Ġsil ico
Ġillness es
Ġa rous
Ġf used
Ġent ries
fe ature
Ġtrim ester
Ġt itr
Ġs itting
aa a
st ation
st ock
Ġmedi ator
ht ml
est rogen
Ġreï¬Ĥ ects
4 80
z hou
as a
cent ered
Ġ ud
Ġ0 6
les ion
Ġimp utation
Ġhel ix
30 2
Ġgl p
Ġc z
Ġ1 23
Ġro d
Ġoper ate
Ġconstit utes
Ġdisper sion
Ġmoist ure
Ġ 00
Ġ4 50
osa ic
re habilitation
Ġplay ing
Ġlys ine
challeng es
ot ub
Ġhe lic
Ġrel ates
hen g
on itrile
nm t
ill ustr
ass igned
Ġcr anial
mean ing
impair ment
r als
ad ren
di versity
Ġcons olid
lim b
âĨ Ĵ
descri ptive
Ġsmall est
Ġdom inated
Ġrobust ness
) âĢĵ
Ġa romatic
29 9
Ġd al
ten ess
hem oglobin
Ġwound s
r ating
Ġrest oration
Ġexec ution
ace tic
vidual s
Ġcont acted
u istic
cop d
Ġng s
Ġor ally
Ġsummar izes
Ġbreak down
imb urs
g ir
Ġfa ecal
Ġpro l
Ġvacc inated
dem entia
adj ust
rece iving
28 9
Ġint u
Ġsex es
Ġdig ested
Ġorth olog
Ġital ian
c arcinoma
n hs
15 00
Ġbat tery
dys function
anz ania
Ġs na
ar ab
cur r
Ġmicro bes
class ified
s un
re asons
ĠÎ »
Ġtable t
Ġstress ors
Ġiran ian
Ġass oc
Ġinv ari
sy stolic
Ġmem ories
Ġback bone
Ġmedi ates
Ġhr qol
not ed
ext ended
Ġves icle
at ation
Ġpr ices
Ġspor adic
Ġin te
Ġit er
36 5
view s
comp ut
aware ness
y ang
Ġh on
Ġjud ged
ure a
iat r
Ġdisrup ted
m ated
Ġl anguages
Ġmic ron
Ġmotiv ated
Ġcoordin ate
uncer tain
he ne
Ġr hod
gly cos
dynam ics
rane an
id ential
fam iliar
or adi
or ubicin
act or
13 71
Ġemphas ized
f eld
h im
en berg
ill ar
Ġparas it
tiv eness
ĠâĢ ł
bros pinal
Ġe a
Ġbr ack
Ġtherap ists
ne ph
Ġprim e
Ġfac ed
s low
ic an
Ġh ay
Ġk gaa
Ġur gent
Ġchalleng ed
arter ial
r ct
s g
ti r
program me
Ġtow n
Ġser ver
âĢĿ ).
Ġpractition er
document ed
Ġme g
26 2
partic le
Ġcur v
eth nic
Ġrig id
conflic t
g ression
Ġco oper
act a
Ġpar ty
Ġclass ify
Ġther mo
Ġarth ro
interview s
Ġs ounds
ult ural
Ġgl ial
Ġtas te
Ġophthalm ology
b asis
Ġmin ing
oph thal
cum in
Ġjunc tions
Ġpl ated
af en
Ġcop e
Ġe cs
Ġy r
Ġbre ad
Ġect opic
b red
Ġs ah
Ġwhe el
39 0
Ġmac ular
Ġintro ducing
e gfp
Ġk ary
Ġcar boxyl
Ġocc ip
ot oxic
Ġfif th
transi tion
ophyl l
al ex
Ġf ly
op ia
Ġsp ite
29 5
Ġcomple ting
oph arm
Ġgh ana
Ġefficient ly
ul os
ot oxin
Ġtrans duc
29 6
Ġcoup le
Ġoccasion ally
in stead
tr an
Ġk cl
Ġtrans gene
Ġcoup les
Ġb od
Ġobser vers
Ġradical s
plic ates
Ġve ins
Ġip v
ĊĠĊĠ ĊĠ
30 9
Ġ% .
Ġboots trap
Ġab ol
Ġmech a
Ġger iatric
Ġsummar ize
Ġasym metric
Ġyiel ding
ĠâĹ ¦
ul ing
accept able
Ġc ilia
ul try
im etry
Ġvi enna
ish ment
Ġann ually
Ġeï¬Ģ ective
experi ences
verte br
res pect
Ġï¬ģt ted
Ġexce ed
f ur
f ile
g ain
Ġinter personal
lim iting
Ġupd ate
incor por
s ised
Ġp estic
le u
Ġcon ce
ha o
Ġdys plasia
Ġheter o
t ab
ut o
Ġcondition ed
sw ed
plan ning
degrad ation
Ġpriv acy
Ġre plicated
Ġn itr
Ġï¬ģn ancial
Ġinstr uction
target s
Ġg ate
Ġph r
ne utroph
dm so
instit utional
ent ry
og a
Ġdi am
Ġden ote
clear ly
Ġc age
ro ad
gr aft
Ġcontem porary
Ġ1 31
urg ery
Ġclon ing
us al
mor bidity
process ed
demonstr ate
l iquid
mo id
Ġgon ad
seg ment
oplast y
or ial
ic u
Ġvill ages
austral ia
Ġstep wise
repe at
Ġl ute
w u
Ġmet aph
Ġanaly zer
34 4
Ġaut osomal
bur n
Ġlas ted
Ġis cha
Ġtr acer
Ġtermin ation
Ġtradition ally
Ġn ested
Ġco hen
19 91
expl an
dim ethyl
di astolic
ï¬ģ ce
Ġdr aft
bs a
Ġdop aminergic
ĠðĿľĩ g
uct ose
w p
don or
Ġtight ly
+ ]
Ġac oustic
Ġhe s
iz able
Ġper ipher
i q
er i
ber ger
Ġ0 9
Ġdiscontinu ation
Ġcontamin ated
Ġadver tis
v ated
li u
Ġspl en
19 92
Ġbr as
Ġexpl ains
Ġtw elve
integr ated
compet ing
- /-
Ġdetermin es
Ġpyr uvate
Ġgerm line
dele tion
Ġac knowledge
Ġle x
met al
Ġshif ted
ret inal
Ġjus tice
cast le
30 7
Ġlymph atic
indi rect
Ġarr angement
t v
Ġad sorption
itu ximab
in er
Ġm cc
Ġto l
ig e
st ability
most ly
Ġconstr ained
Ġsatis factory
Ġformal in
al ready
Ġv ice
pl ane
27 2
exam ples
ex amin
000 2
Ġalb icans
g ag
Ġgrad ing
ear lier
s as
ve f
Ġdi ï¬Ģ
though t
angi ogenic
Ġconscious ness
mod ium
child hood
Ġcreat es
aine es
at tt
ac ids
Ġas p
Ġpro pri
Ġlum inal
Ġfollic ular
, [
s oc
â ģ
Ġpre ferentially
Ġsc he
fri end
Ġb erg
os idase
Ġj ak
Ġinde pendence
Ġdiscontinu ed
Ġh ung
Ġwe ighed
Ġk hz
Ġstandard ised
Ġgu arant
Ġmaxim ize
Ġobst ac
Ġb uc
Ġdec ide
oxid ant
Ġinoc ulation
adoles cents
Ġrepeated ly
) **
m ammal
ur ane
Ġmut a
Ġaccum ulate
Ġnr f
Ġrain fall
Ġs cler
Ġne gligible
ĠĠĠĠ ĠĠĠ
Ġimmun oglobulin
Ġvascul ature
Ġsim ulate
in tensive
trans lation
Î »
Ġe e
ip ped
reli able
Ġcol onic
phys ician
lam y
Ġcl amp
10 38
Ġj ur
ab ulary
âĪ ļ
itor ies
ull ary
onom ous
Î µ
Ġst ata
Ġper oxide
Ġresult ant
Ġcandid a
h hs
v ical
cytok ines
Ġtechn ological
Ġiniti ating
Ġrepe tition
Ġn l
Ġlower ing
prac tices
ĠðĿ Ĳ
Ġcultiv ation
vi ii
differen tial
Ġmd d
n od
prom oting
program s
Ġdepos its
algorith m
in put
Ġp ci
Ġd ub
art z
Ġpharmac ists
Ġï¬Ĥu or
tub ulin
Ġarous al
p ca
28 3
29 1
Ġtem porary
3 402
Ġpi eces
Ġhd ac
Ġap ex
ning s
Ġlac to
Ġball oon
sol uble
Ġbreak s
Ġconfig uration
ter al
Ġsc anned
Ġnew s
Ġmark s
Ġdisc arded
Ġb ub
Ġr ms
Ġ0 5
Ġobstetric s
olog i
Ġexem pl
3 25
Ġrepresent atives
inf ant
Ġasym metry
Ġhistopath ological
h ong
Ġcharacter s
Ġmultiple x
Ġlat est
analys ed
k c
ca emia
Ġprom ise
Ġinstr umental
Ġabnormal ity
afric a
n ally
Ġw is
hen yl
Ġpath ologies
Ġsoci etal
recogn ized
Ġleuk ocytes
prac tical
sal ine
Ġat tr
Ġcomp ilation
Ġspec t
el igible
min ation
Ġam pk
05 2
Ġbacter i
Ġhydro xy
Ġlon gevity
Ġp all
Ġclin i
Ġimmun otherapy
occur ring
Ġencour aging
sens ory
Ġt at
Ġin verted
op rop
ne on
Ġcomprom ised
d oses
h plc
s ug
Ġn ag
Ġopin ions
b n
Ġminim ally
Ġrefer ring
m tor
Ġcaus ative
Ġhypothe tical
her ry
per ception
Ġip sil
Ġt iter
Ġper mitted
spon taneous
Ġs sc
im mediately
ik v
Ġdefic ient
stim uli
tr ast
ct a
Ġspec trophot
per me
phys icians
Ġcomprehen sion
' -
s and
Ġs ort
ax ia
Ġintegr ating
Ġconver gence
Ġph age
Ġincre mental
str a
Âµ g
en able
Ġab c
mo bility
use ful
t went
ch t
str ati
activ ating
Ġexce eded
g us
Ġa y
tro p
rol imus
chy ma
k ir
rom olec
e ast
il a
am id
allow s
ocyt openia
i ang
Ġresid ential
Ġoffer ing
phe res
Ġfet us
) =
Ġ1 44
Ġincons ist
Å Ĥ
os um
Ġg ather
Ġ1 33
28 4
Ġstimul ates
op ing
Ġdis comfort
05 5
Ġsm ad
Ġretro spectively
Ġcardi ov
Ġsep tic
ar in
Ġdis closure
Ġim balance
Ġview ing
Ġhelp ing
Ġk h
Ġend ors
Ġdefin itive
Ġst one
Ġdele terious
Ġmyel in
om od
ad ata
se arc
05 9
n v
Ġp si
Ġex port
Ġgr afts
Ġc el
Ġ1 27
qu ent
Ġtw ins
j ective
Ġ Ã©
Ġen joy
Ġlaw s
Ġcorro bor
Ġpub lis
Ġfl or
tr ia
form aldehyde
28 7
int ended
Ġfox p
5 000
Ġm pa
com or
Ġder mal
Ġdeliver ing
Ġmagn esium
Ġze brafish
Ġw ing
Ġd ed
Ġmon ocyte
Ġm cs
35 8
Ġhyper plasia
ele ment
ul monary
Ġtrans ported
cons cious
Ġbiom ech
class es
Ġpolar ity
as y
Ġ3 000
Ġstat in
Ġna ive
Ġwors ening
m im
em bedded
ph os
be yond
Ġsym metry
Ġbeg ins
Ġamel ior
w ound
Ġintegr ative
Ġcut ting
Ġaud io
oten sion
Ġs z
Ġl id
Ġam d
Ġun paired
Ġj ones
Ġreveal ing
twent y
Ġresus citation
Ġencoun ter
Ġ ]
Ġcal ibrated
app arent
Ġflu ids
Ġaddress es
sim ultaneous
icardi al
m ate
Ġ1 38
occur s
Ġrheumat ology
it ter
ol ateral
Ġcon e
Ġab ortion
Ġinf ect
me ga
comp uted
col lec
Ġsm ear
Ġdetermin ant
Ġcamp us
odend ro
Ġa ur
re presents
Ġp ten
Ġex tinction
Ġca rol
ĠðĿĳ Ŀ
Ġhous ed
Ġobvious ly
slight ly
Ġg sk
Ġvis ited
Ġtumor igen
Ġsus pended
Ġext ends
fold ed
prob ably
m ately
ut ely
cor tex
37 8
âĪĹâĪĹ âĪĹ
Ġprogramm ing
Ġpaul o
Ġdevelop s
part ners
ðĿ ľ
analy tical
Ġt ips
Ġac up
Ġhe ated
mo tic
29 7
Ġex it
Ġdiss ected
Ġmand atory
Ġelec tive
Ġsuper oxide
he ld
Ġd bs
Ġpro jected
pon ectin
Ġqu antum
iter ranean
Ġinser t
uk i
Ġampl iï¬ģed
Ġreproduc ible
it ch
28 2
Ġreduc tase
bur den
Ġhol ds
Ġhel a
compar able
vi ol
ail ing
Ġdecom position
l ates
Ġmon omer
Ġaccess ed
Ġshe ath
d ors
el ess
ose x
Ġmon otherapy
paren tal
pic ion
Ġdiscrep ancies
c ise
Ġst ores
ut in
mo tion
Ġear liest
em poral
Ġmy ocardium
identi fying
Ġacc id
Ġbr ach
Ġlymph oid
aceu tical
l ib
Ġc ylin
Ġtrans pos
Ġtransport ation
bi ochemical
er ty
Ġr bc
con tain
par allel
mir nas
physi ology
creat inine
Ġe gf
omy el
Ġinhal ation
on azole
Ġcell ulose
cre ase
Ġide ally
Ġuseful ness
w d
Ġtr ic
pt oph
Ġall o
Ġcycl o
Ġreservo ir
âģ İ
Ġal anine
Ġo ï¬Ģ
ent ricular
heter ogeneity
Ġantic ancer
- ï¿½
in fr
Ġsh aped
Ġsol ve
gene tics
Ġion ic
Ġdifï¬ģc ulty
Ġremark ably
Ġ1 13
Ġtox ins
amb igu
/ +
o il
Ġ1 16
dis tributed
Ġfac s
Ġdiscrimin ate
Ġan k
Ġconsum ing
Ġund ers
Ġorient ed
st rom
com plicated
cur y
Ġcalc u
Ġradi ographs
Ġprote ome
it an
mo ve
dist al
dic tion
abs olute
Ġbol us
Ġarbitr ary
re actions
on ed
si rna
Ġcl ot
Ġread y
bene fit
prin ted
d ot
in ase
Ġin gestion
Ġl ign
Ġna Ã¯ve
Ġclar ity
ĠðĿľĩ m
Ġs acc
Ġe uro
Ġ1 36
ri z
Ġmat ches
Ġaneurys m
Ġt achy
Ġint akes
valid ated
agul ant
0 43
Ġst aphylococcus
ri age
ga ag
orient ation
Ġs ectors
rom ycin
Ġbo ost
Ġwor st
Ġphen yl
Ġul cers
Ġp on
Ġw rote
um etric
Ġval ence
Ġunder pin
Ġover t
cons ensus
grow ing
Ġvirt ually
acycl ine
Ġn itrate
Ġ1 37
Ġdis agree
can ada
Ġenlarg ed
haz ard
ut rop
ores cein
Ġaut ologous
Ġref lection
Ġheter ozyg
Ġoxid ized
invol ving
Ġth ailand
ut ch
to id
phen omen
Ġexcit atory
i us
he al
ens ing
Ġalle lic
Ġdegrad ed
ig a
Ġim pression
obj ectives
Ġsug ars
Ġpoll ut
Ġsyno vial
is tically
29 2
Ġhol ding
3 12
ther m
Ġl ose
Ġst arch
nc bi
r aw
Ġpro st
ap c
dis rup
Ġcontr act
Ġcomm u
Ġhydro x
Ġfil ms
at trib
Ġpar is
enti re
ov arian
Ġdys regulation
Ġiv f
devi ation
Ġtr aces
artic ular
Ġpig ment
Ġmin us
Ġexhib iting
p od
Ġb igg
el ong
Ġk el
sh ared
Ġfe et
dis ability
pred ominant
so u
Ġfl ies
bri le
Ġ0 4
pul se
sid ered
Ġsub se
Ġpat ches
Ġpublic ly
Ġtriglycer ides
Ġf g
ach us
not es
commun ities
Ġmind fulness
Â £
Ġy u
chem istry
Âµ l
Ġpk c
re pair
ve get
Ġg od
ap las
v able
y u
ch an
Ġwe igh
eng er
dis charge
long itudinal
p id
Ġn emat
pro s
Ġj ia
Ġcr t
Ġmethod ologies
acc el
fal se
Ġn ig
Ġmod ulating
Ġdesign ing
Ġic p
Ġengine ered
Ġpharmacokine tic
Ġbiod iversity
Ġipsil ateral
o or
Ġmo un
Ġt ill
sh ips
ĠÎ µ
Ġnormal ity
compar ative
Ġsur fact
ob ia
Ġ7 00
Ġdepend ency
fa ir
mil k
Ġammon ium
n ish
28 1
Ġcatal yst
Ġcardiomy opathy
Ġcatar act
Ġremain der
Ġ0 7
Ġmigr ants
rout ine
f g
Ġadi ponectin
Ġcris pr
Ġp aternal
Ġ1 26
Ġbe ad
Ġsc d
Ġsugg estions
Ġbon ding
g ate
Ġr ay
Ġangi otensin
ap plications
Ġspe ak
Ġfall ing
Ġrecipro cal
comput ational
Ġad duc
Ġoper ator
numer ous
Ġun common
Ġout line
Ġaggreg ated
super ior
k da
Ġin versely
it ely
Ġ1 14
ï¬ģ ve
Ġbil irubin
Ġc og
Ġin tim
Ġcan ine
Ġrest ore
Ġster il
q c
en tive
Ġj aw
Ġtrans planted
er ving
Ġn ap
Ġr if
ex pect
Ġarr anged
Ġsubstit utions
Ġdiscipl ines
vi i
uff iciency
dr b
sim ulation
ischem ic
multiv ariate
Ġsp anish
Ġsor ted
Ġaqu atic
Ġsens ation
investig ate
f ix
Ġh uge
Ġdif fraction
ograph ically
56 2
Ġinform atics
Ġarg uments
Ġb angladesh
ers en
Ġ19 79
Ġintr igu
Ġextrem ity
Ġperi operative
Ġo pt
Ġc tr
Ġw k
Ġcom pli
Ġdu oden
i oid
Ġal umin
ip p
ign ificant
Ġcor ner
Ġpath ologic
Ġm akers
Ġ1 17
Ġst u
Ġund et
Ġhs v
Ġsom at
Ġn sa
con tained
acter ial
Ġpal p
3 13
Ġelse vier
Ġtet ra
Ġmod elled
Ġappro ached
Ġhy al
or r
Ġfor ty
Ġrece iver
re combin
et t
ch ond
Ġï¬ģ ne
read s
Ġsustain ability
promo ter
suit able
Ġconn ect
retro spective
to ok
tions hip
Ġspectrom eter
ti fication
ay ers
Ġpap ill
lr p
Ġs ister
an as
Ġpat ent
complex es
Ġery the
3 11
b ab
r ater
gr ay
istic ated
Ġcon se
ag onist
eren t
Ġalter ing
Ġmism atch
Ġsl c
Ġparamet ric
Ġbab ies
ptoph an
p par
Ġt estic
ens or
atin um
Ġfollic les
Ġsynerg istic
reproduc tive
ac il
ur inary
Ġro bert
( ï¿½
n ode
th y
Ġsem en
recor ds
ter t
Ġr is
di i
Ġle ishman
Ġï¿½ -
Ġwilli ams
f d
n and
Ġm tb
Ġcon ception
ag ers
ost omy
om b
ex press
Ġsup ers
Ġprogres sively
Ġa le
Ġd bp
Ġout liers
wid ely
Ġwein heim
Ġ19 60
Ġbio availability
acr ific
d al
w hy
Ġs now
ul as
Ġl ati
pre cision
Ġelectro ly
Ġwa it
Ġemphas ize
Ġg g
man ual
Ġcm r
isol ation
Ġosteo arthritis
ve hicle
Ġvari eties
ro st
f resh
l ence
o yl
Ġbe ar
sch izophrenia
Ġwr ist
Ġmagn et
t ak
the ory
to ire
main tained
Ġc ef
Ġcomp ute
mod iï¬ģed
Ġpsych ometric
Ġmir ror
Ġexplan atory
Ġb v
Ġch a
Ġwork force
centr ation
33 8
Ġsu ite
Ġrh in
Ġtai wan
step s
Ġanalog ous
0 41
3 17
Ġm ist
Ġg il
ore n
re test
al c
Ġres erve
Ġhom o
Ġt io
Ġk an
over weight
Ġhor se
Ġmiss ense
s pread
Ġp ink
us cular
dis trib
nucle us
Ġ1 34
br onch
sh ift
ucle in
Ġnan os
Ġabsor bed
Ġspontaneous ly
Ġmosquito es
m ab
ere s
Ġtreg s
Ġfrail ty
5 50
j c
ad p
pri vate
Ġhand le
am idal
Ġbro th
setting s
Ġelucid ated
Ġances try
Ġg athered
Ġcom fort
Ġcar ing
Ġsuc cessive
Ġplate au
Ġrac ial
on ine
11 86
Ġjudg ment
Ġin version
Ġat las
Ġcor p
yl ate
Ġfac ing
b os
Ġl an
con trac
Ġmon onuclear
Ġsymbol s
n urs
Ġargin ine
f its
opath ies
Ġlys ed
n ons
w hel
ex change
spec ified
33 5
Ġpa h
Ġpolyp hen
. âĢĻâĢĻ
Ġcap ita
Ġgly cemic
indi a
l b
Ġr pe
Ġsc ene
Ġpr p
sh ire
stand ards
Ġframework s
Ġexpec tation
Ġcollec tions
Ġsuic idal
Ġanthrop ometric
ac ies
Ġvisual ize
Ġcing ulate
Ġdiss olution
Ġbal b
therap ies
Ġcorticoster oids
pos sibility
ming ham
Ġadjust ments
Ġpropos al
Ġmicrotub ule
n isol
Ġal ive
Ġcon cordance
Ġparen theses
arr is
Ġsmo ker
3 30
Ġre form
Ġsol vents
Ġbro ken
maxim al
ultr asound
op res
caus ing
afen ib
Ġe cl
Ġh un
am ers
Ġres tr
Ġbo y
Ġdispers al
oprecip itation
Ġimmunost aining
Ġtrabec ular
Ġpar ties
fac ulty
Ġorigin ating
chlor o
n osis
Ġre nd
im plications
ad hd
Ġcontr asts
Ġmid line
inhib itory
Ġoccas ions
Ġacknowled ged
Ġt yr
Ġsp ending
inf ants
Ġglut amine
initi ally
Ġbrit ain
m ich
r ons
Ġdis pos
Ġdis aster
Ġrob ot
Ġspar se
gap dh
um s
Ġcl ub
05 6
fac ial
Ġcle aved
and ial
ĠÂ ª
pe er
Ġge org
fl ag
Ġnav igation
Ġd ha
Ġperiod icals
prim ers
Ġnc bi
reli ability
Ġadip ocytes
h ba
v astatin
Ġac yl
Ġat cc
rem ain
Ġiod ine
40 4
tra it
Ġconstit utive
Ġprogen itors
b ors
te le
Ġchar ts
Ġh ur
Ġdiagn ose
Ġgu inea
ok a
g ol
Ġad ds
odon tic
Ġatm ospheric
y i
am ins
Ġst ations
sh or
Ġfertil ization
z ol
sh am
Ġq c
ho ea
yroid ism
arter y
Ġbrazil ian
tib ular
Ġc uff
al ignment
form al
Ġlack s
Ġprote omic
Ġneoplas tic
Ġdisp arities
Ġs onic
el ic
ud ge
Ġgr az
Ġprote ases
represent ation
Ġclean ing
Ġwarr anted
Ġr ings
ans en
cept ors
ator ial
Ġsocial ly
Ġconfir mation
Ġacc ident
har v
Ġging ival
g tt
Ġinter quartile
Ġge o
em e
ore g
Ġste el
clim ate
Ġs uture
mo uth
anti biotic
Ġparad ox
Ġsuperv is
Ġhemor rh
st ad
Ġnot eworthy
Ġsoci odemographic
fat ty
a ur
Ġg ata
ophil ia
Ġposi tives
comprehen sive
Ġf sh
ren ew
Ġm ate
Ġ1 21
ad renal
Ġnew borns
Ġaliqu ots
Ġc ant
Ġse asons
Ġsch w
Ġax es
minim al
Ġprob abil
Ġsurvey ed
cere bral
arbon ate
Ġj ac
ob ut
Ġfil ters
lin ks
nisol one
Ġm tt
uc ting
Ġem pathy
Ġsu ited
Ġcheck point
Ġzebra ï¬ģsh
re cording
Ġhus band
proxim al
achus etts
s ma
bro vascular
d os
Ġm ca
Ġto t
Ġpl atinum
Ġgr ains
38 4
Ġlog ic
Ġnaf ld
at m
il um
Ġpo le
Ġorthopa edic
d ental
l on
Ġper cutaneous
Ġappro xi
Ġmic rom
odynam ics
Ġcytos keleton
dev ice
Ġowners hip
st abil
Ġbir d
angi ogenesis
separ ate
a or
anes the
Ġb row
Ġmed line
sk ills
Ġmorph ine
Ġflex ion
separ ated
Ġharv est
b ip
ed ta
Ġb im
Ġsh ah
Ġtr p
Ġsp i
Ġmal nutrition
Ġrest ored
Ġuter us
e eg
s pring
Ġa aa
Ġre aches
Ġco al
de ï¬ģn
Ġstress ful
Ġantioxid ants
Ġ4 88
Ġinf r
predic t
neu ros
nurs ing
re currence
Ġs id
Ġed inburgh
Ġcyt ology
Ġimmunosup pressive
n urses
em bol
Ġadhe sive
Ġtib ia
favor able
Ġb am
Ġpar am
Ġdex amethasone
Ġexpand ing
Ġbioï¬ģl m
Ġmere ly
Ġm abs
eng agement
Ġt v
ct tt
ner ve
Ġra ising
Ġor b
Ġel uted
det ect
Ġstrict ly
Ġpiv otal
re in
ti o
Ġin organic
and ing
Ġco ffee
oth or
ong o
34 1
b reat
Ġsim i
Ġt ween
en ol
Ġm k
Ġ1 45
Ġmicro vascular
mat ch
con sequently
mar tin
Ġattain ment
in ally
Ġn b
Ġl akes
Ġantib acterial
Ġty ph
Ġsuperv ised
Ġscre ens
g els
Ġ ï
Ġ( âĢĵ
Ġev s
sub unit
Ġfree ze
Ġclos est
cn ac
otrop y
Ġcomprom ise
Ġd or
Ġman chester
Ġmel atonin
101 6
m apping
Ġp unct
om in
cer vical
Ġmon te
week ly
Ġs ab
public ation
Ġaver aging
cere bell
s ul
Ġcr onbach
bi opsy
she et
d ried
Ġf os
et tes
to bacco
so und
Ġrp mi
Ġalex a
Ġan ter
os om
05 4
Ġequ ity
Ġthem atic
cv d
Ġultim ate
n itro
t uring
in ous
om pson
Ġfor th
ag ric
vious ly
prog ress
ti e
Ġh ole
am ines
ble eding
ci enti
Ġaver ages
al o
am yl
Ġch ang
unc lear
Ġgly cine
fol ding
achie ve
- [
fr ance
Ġdemonstr ation
Ġstraight forward
phag ia
Ġad p
of ib
34 6
neuro logical
Ġpass ing
Ġol factory
ðĿĳ ģ
Ġlys ate
glut amine
Ġstrom a
Ġthous ands
Ġo ils
Ġre ac
Ġcl ark
so ver
reg ulating
37 2
Ġaccel eration
Ġneighbor ing
Ġlith ium
ab und
ag le
similar ity
Ġp ec
Ġm ys
pro por
pro long
Ġhypothe size
Ġconflic ts
l ations
ar ms
ocy st
Ġhf d
Ġvic tor
ob s
dis tric
urg ical
oc ene
pon in
Ġarter i
Ġrich ard
Ġany thing
Ġuncertain ties
session s
rob ust
l ocus
Ġst ack
Ġres orption
Ġampl itudes
Ġorth op
Ġlab elling
Ġnan om
Ġisot ope
Ġre pression
Ġdot ted
Ġassoc ia
0 42
4 000
sure d
Ġfibro blast
fib ro
an na
pl anned
Ġmon t
predic tive
Ġrig orous
Ġglyc ogen
4 20
Ġdr ying
Ġoff set
Ġchemo kine
Ġecon om
mes h
Ġcultiv ated
prolif erative
Ġmutagen esis
Ġt ick
re z
Ġit erative
we gian
Ġsp ons
Ġgl asgow
Ġvir gin
Ġdom inance
Ġg rip
op he
istingu ish
Ġh mg
Ġas t
Ġel abor
Ġdirect or
bil ateral
Ġsc aled
Ġent ropy
( -
h v
ir r
Ġtr na
40 7
Ġep ist
Ġconsult ations
star ting
casp ase
Ġlegis lation
e gg
37 3
Ġspread ing
Ġalign ments
ec ological
Ġsub mission
impro ving
Ġn ar
Ġpost ulated
Ġwor ms
consum ing
Ġsir t
c ot
Ġ2 93
if ies
Ġch air
Ġform ulated
Ġconn ective
important ly
onym ous
remo val
Ġgen bank
ex amine
gr ant
sign als
Ġrich ness
w b
Ġrec ycl
Ġbench mark
fract ure
Ġtex ture
Ġciti zens
p ure
Ġm cp
ch anging
gr adi
Ġsu v
Ġcred it
Ġmrs a
datas et
re onine
ap art
Ġsp herical
g le
tr iglycer
Ġreg u
05 1
Ġvis cosity
acknowledg ments
r id
Ġw ire
Ġpro d
ðĿ ľĩ
Ġï¬Ĥ av
Ġmembers hip
metast asis
4 18
j b
cess es
surve illance
Ġrins ed
he ads
Ġ19 78
Ġsyring e
f etal
m ates
one ph
morph ology
w anted
it arian
Ġrepro gramming
ic z
Ġn ose
form er
Ġro ws
br azil
trans formation
prim arily
oblas tic
Ġensem ble
t led
Ġform ats
34 9
mi as
3 22
pro ï¬ģ
Ġw ake
Ġr ash
ure tic
under went
ox etine
roscop e
Ġphot on
Ġfol ate
Ġdro ps
pneum onia
out put
Ġneuro transmit
inï¬Ĥamm ation
oxygen ase
4 60
Ġt ear
it ates
ag ag
Ġor bit
Ġvers a
re activity
Ġg amet
Ġper ceive
Ġsc c
Ġcr iminal
Ġtes tis
Ġinsec tic
Ġs ati
Ġm enstrual
am l
Ġbe ijing
enc our
Ġhum id
ins on
Ġnec rotic
Ġappe tite
Ġre new
si r
Ġpl ain
map k
Ġdend r
ĊĠĊĠĊĠĊĠĊĠĊĠĊĠĊĠĊĠĊĠĊĠĊĠĊĠĊĠĊĠĊĠ ĊĠĊĠĊĠĊĠĊĠĊĠĊĠĊĠĊĠĊĠĊĠĊĠĊĠĊĠĊĠĊĠ
Ġsel en
4 10
Ġc ows
Ġb iliary
clus ters
Ġdown loaded
Ġneph ropathy
3 16
p ent
ly zed
Ġr he
Ġk illed
Ġ19 75
37 6
Ġaut ophag
Ġgo es
Ġconstr aint
pharmac ological
Ġcommunic ations
vary ing
Ġd ere
Ġre cessive
depend ence
Ġac s
az one
Ġher pes
f us
l ive
in ic
Ġe ps
Ġ1 75
Ġconï¬Ĥ ic
Ġpo ison
rem ia
Ġassum es
Ġarti ï¬ģcial
Ġdeï¬ģn itions
cytok ine
ser ious
mic roscopy
Ġfail ures
pharm acy
instr ument
Ġan i
ex cluding
33 4
34 7
Ġoccip ital
hor mone
Ġspir itual
Ġp es
Ġdr ift
pair s
Ġwilling ness
ti ate
Ġinten tions
Ġfacilit ators
aut om
Ġsegreg ation
is ure
it ron
Ġth ing
Ġdi ameters
Ġman u
Ġpel lets
Ġviol ent
Ġtheore tically
osex ual
f ibr
Ġh oney
op re
ex ist
Ġana emia
pr andial
Ġopen ed
mar ital
Ġoste oblasts
Ġcommunic ate
defin ition
delay ed
Ġrecons tit
Ġel ast
Ġinterpre ting
Ġchemo kines
l ang
on yl
Ġmill er
ro d
Ġmg cl
Ġsing apore
Ġconven ient
Ġhe me
Ġpar affin
Ġdi oxide
Ġadv ised
Ġsal v
Ġretin opathy
Ġpro spectively
iz ers
end ometri
cor rection
syn uclein
Ġnad ph
gam ma
ult in
ob str
05 8
Ġborder line
ul ae
low est
39 7
Ġ1 32
Ġcon crete
per itoneal
Ġco res
38 5
sp an
psych o
re duc
Ġm z
Ġb pd
res trial
Ġde bris
Ġplac ing
Ġirradi ated
is ters
Ġb n
50 5
Ġpo ultry
3 14
ir ium
Ġse al
Ġle ver
ex tension
then tic
h if
s par
qu ine
Ġcre di
mr c
Ġdur ations
anat omical
in ates
Ġf h
ap es
Ġap pl
cr c
l ler
re current
Ġc sa
Ġmac a
Ġpel vis
arrow s
Ġhierarch y
Ġdoub t
Ġinhal ed
h app
in ner
ar se
Ġad sor
cr y
Ġcorrespon ded
Ġwar farin
Ġdrople ts
c ard
Ġtr ig
end ogenous
ber ry
man us
present ing
34 2
44 8
Ġdil utions
Ġdisplay ing
Ġdepri ved
f os
np j
manufact urer
Ġc et
Ġ1 19
ater ally
Ġconfir ming
syn aptic
subst ance
Ġe gfp
36 8
requ is
Ġsatis fied
Ġneph rology
Ġconst ants
f da
al is
Ġf illing
ur i
Ġhe mod
Ġanalges ic
â ģĦ
im i
Ġk ong
05 7
dup lic
man ner
Ġt ms
ag m
ip ping
34 8
Ġenh ancer
Ġveget able
Ġac qu
reg ulates
Ġint ol
le gal
Ġle gs
Ġinter play
cons erved
Ġib s
gly cerol
Ġbelong s
q s
Ġe co
Ġe pa
ag i
mo bile
Ġphen ol
Ġher itability
appro val
Ġr im
st ay
Ġtrans parent
Ġbr anching
Ġstat ins
Ġstress ed
Ġï¬ģl tered
ont ology
cur ve
le ads
il ton
ĠĊĠ Ċ
epidemi ology
e vol
im umab
35 7
Ġimp acted
omegal y
Ġr cc
Ġspec ify
46 8
ost atin
Ġsurg eries
high l
Ġpul p
Ġmel ting
Ġdele ted
frequ ent
diffic ult
Ġsh rna
hist ological
im al
Ġk at
co hen
Ġrap amycin
Ġadi pos
Ġple ase
Ġmanifest ation
Ġkr uskal
Ġdisadvant age
vess el
t od
Ġp aw
com ycin
000 3
advant age
Ġferr itin
h ospitals
Ġb are
Ġtr uth
Ġbi ore
Ġhors es
Ġt aylor
Ġm ps
antim icrobial
Ġan no
ac quisition
ch ool
Ġtr ainees
Ġap praisal
ct t
med ial
ef ï¬ģcient
Ġphosph orus
Ġanat omic
Ġm osaic
Ġhe reditary
38 8
Ġaltern ate
Ġecon omy
represent ing
Ġbronch ial
Ġapproxim ation
tren d
g kin
ag land
Ġsh anghai
Ġï¬ģ le
Ġmyel oma
Ġb ivariate
Ġsup ine
c tr
it ted
Ġcolum bia
Ġtransl ate
Ġp yro
Ġcontr aindic
Ġweak ly
Ġscar ce
outs ide
os acchar
pl ots
advant ages
Ġcontracep tion
Ġmening itis
33 6
p ay
Ġb bb
Ġne go
Ġcol ored
ns ic
Ġh pa
Ġic c
Ġpersonal ized
Ġpc os
Ġo mitted
Ġv te
Ġf ried
ent ed
op ause
Ġillustr ation
factor ial
Ġgraph ical
Ġ( #
Ġtop ology
Ġg dp
nec k
ie u
da vid
will i
Ġanalges ia
3 23
c ass
m end
Ġl ang
Ġus p
sur prising
Ġunivers id
Ġcham bers
Ġstation ary
a es
min d
spec imens
Ġsm c
cham ber
Ġkern el
ifferen tiated
Ġin ev
it atively
Ġe hr
ol ia
Ġpath o
Ġd ress
Ġand re
le af
Ġre imburs
ur in
Ġgen otyped
Ġpar p
sc at
Ġbrain stem
Ġrepos itory
Ġtr uly
arg inine
33 2
48 6
method ology
Ġplex us
Ġcardi o
w c
Ġ1 18
Ġcontinu um
l ived
40 8
Ġpolar ization
Ġances tral
Ġk ol
unt reated
Ġpor tions
Ġï¬ģ ring
identi ï¬ģcation
r ically
Ġd um
ad ict
39 8
Ġfree zing
Ġexce eding
fast ing
Ġcon ting
Ġbl ots
Ġmo le
onal d
Ġsus picion
soci ety
/ (
Ġl ind
Ġres erved
ex cell
14 72
org anism
Ġil iac
Ġlist en
Ġdiver gent
ans w
Ġpseud omonas
scenari o
ari etal
ex tensive
Ġcovari ance
Ġthal iana
f atal
n ag
Ġ19 77
39 9
Ġneuro psychological
Ġï¬ģn ger
assess ing
Ġb ell
Ġcal f
Ġel lip
Ġback ward
pd f
Ġpm ol
Ġph arma
19 80
ps in
Ġol ive
Ġlob es
Ġum bilical
s od
Ã ±
ro ck
Ġad c
50 6
36 1
Ġcontinu ity
Ġthal amus
Ġingredi ents
Ġtestic ular
Ġst ories
smo oth
Ġont ario
Ġprophyl actic
c ans
Ġn ik
Ġnot ing
g at
Ġm end
ist ar
Ġsp a
dif fer
evolution ary
Ġtrem or
3 18
omen cl
ĉčĠÂł ĉčĠÂł
g all
Ġi qr
35 6
b ands
k nee
en o
meas uring
Ġpal m
c ific
m akers
Ï ī
ser ine
ĊĠ Ċ
pre cip
Ġreï¬Ĥ ecting
embry onic
Ġconf usion
Ġlamin a
Ġtriglycer ide
ex tract
Ġover load
38 9
Ġ25 6
prot ected
Ġcot ton
em pir
Ġsp end
Ġglycol ysis
ad ication
omet h
Ġvide os
Ġbe et
Ġspec ulate
cell ulose
path ogenic
Ġshif ting
Ġinher itance
Ġdecl ared
re plication
amin ase
Ġhemat oxylin
Ġnod ule
Ġre cep
33 7
trans genic
Ġperfor ation
al p
Ġf iring
sion al
Ġ9 00
Ġand erson
Ġset tle
behaviour al
Ġstret ch
d ual
j d
sc hed
Ġfil tering
ï¬ĥï¬ĥ ï¬ĥï¬ĥ
3 26
r l
Ġch an
Ġmul til
35 2
Ġaim ing
Ġacc red
Ġsulf ur
lymph ocytes
m ance
Ġm ot
si p
str ates
part ner
âĢ² ,
Ġcytos ol
Ġhapp en
Ġt ons
tow ard
Ġadipos ity
Ġh sc
Ġy am
Ġprotein uria
au x
Ġaï¬Ģ ected
3 27
Ġa vian
Ġ1 24
omy c
Ġgel atin
profession als
Ġmoi ety
m x
Ġb uffered
Ġg ill
Ġg bm
39 4
Ġmat lab
Ġless ons
Ġlog ical
Ġnecess ity
last ing
o vir
Ġan ton
Ġvi etnam
rop ol
Ġsensi tization
Ġhaem oglobin
Ġretic ulum
s bp
em ens
Ġj nk
con sequences
33 1
35 1
ls bad
Ġvoc abulary
recombin ant
Ġd ul
ic idal
ds m
path ogen
Ġlog arith
Ġacc u
Ġuniver sities
perg illus
w ick
tr ate
part ments
Ġtrunc ated
Ġpak istan
st an
36 6
cit abine
ed itor
Ġm cm
Ġb os
Ġinter vie
Ġint ent
Ġswit ched
os ens
Ġst o
Ġno thing
ath an
Ġfollow up
Ġmon keys
Ġp cv
Ġmy osin
expl ain
Ġcompet ent
................................ ................................
Ġperipher y
Ġstreng thening
c oded
g ab
uc her
sh if
sign s
Ġanesthe si
4 05
in ducing
Ġgen et
cr is
Ġrab bits
omorph ic
s ac
Ġb cr
ampl itude
Ġcardiomy ocytes
3 95
Ġt anzania
ud a
op t
Ġj ul
Ġconsid ers
f an
Ġno x
Ġqu i
ok es
tub erculosis
th ym
Ġun necessary
ob enz
als y
Ġdec lines
Ġapplic ability
tip ation
n odes
p ep
Ġr ts
op yr
gl omer
Ġmr c
Ġe ther
Ġass istant
cer n
Ġï¬ģ les
pend icular
36 2
ind uce
az ep
els on
Ġsitu ated
Ġwil son
el iness
death s
Ġbif ur
f h
f if
Ġfr on
Ġameric ans
Ġcurv ature
s ures
cy tot
Ġill umination
net herlands
gas tric
Ġanne aling
Ġdesc ending
Ġphot ore
organ ized
Ġaccompl ished
s emi
ol uble
id one
Ġmod ulus
Ġcal or
ru ent
aw ed
Ġread ings
Ġod or
Ġpresum ed
Ġb ap
Ġe h
el and
Ġn ick
Ġr g
act ual
19 89
Ġanti sense
Ġcent ered
Ġport ug
Ġmobil ization
Ġp om
Ġto ur
ari ans
par a
dif ï¬ģc
initi ation
cha rom
ï¬ģg ure
b si
s cr
Ġre ver
Ġat tract
Ġcommit tees
expl ored
Ġvictim s
m om
p rome
an us
Ġd ying
Ġ5 000
pr a
Ġbec k
follow s
w ich
Ġh n
oc a
âĢĻ ).
con tribution
37 1
Ġsol ved
Ġsmo ked
spon se
Ġevol ving
l ase
s ell
v ig
Ġpost menopausal
cam bridge
m ember
re tt
the mes
of ol
olip id
theore tical
Ġdis hes
dis covery
elec troph
conï¬ģ rmed
3 28
ic on
ac at
ost at
Ġfl uctuations
Ġpi ece
estim ation
Ġhypers ensitivity
Ġab breviations
pos sibly
Ġmanufact urers
ul ent
Ġas th
ag gg
ot roph
Ġbr istol
comp ens
oscop e
Ã³ n
Ġje jun
Ġhypergly cemia
s ults
co efficient
Ġbr and
nificant ly
substanti al
Ġb ent
ific a
e osin
m hc
there by
Ġvertebr ate
h bs
l ox
Ġd ol
met rical
sp inal
identi ty
prome ga
cor tic
Ġstruct urally
lect omy
Ġexc ised
Ġonc ogenic
Ġcass ette
induc ible
x n
am ol
pre ced
Ġadap tations
interval s
compati ble
c od
d v
Ġeditor ial
melan oma
ig ms
ab r
Ġap o
Ġden oted
v eter
Ġm ak
Ġl ym
com pl
cor ing
Ġcross ing
Ġbio active
Ġmicros at
Ġtraf ï¬ģc
3 24
a ortic
Ġin habit
ex act
Ġlig ase
Ġmethyl ated
Ġmarket ing
Ġconven ience
c ens
r g
Ġamino transferase
t ary
Ġequ iv
vari ety
Ġrs v
fit c
inï¬Ĥu ence
0 75
Ġh oles
ram er
Ġhall uc
Ġaï¬Ģ ect
Ġeros ion
Ġgr anted
omet hyl
ah an
Ġmicror na
Ġpsor iasis
il er
Ġv t
Ġcol lis
was hed
34 3
Ġpur iï¬ģcation
Ġc ag
36 7
ty r
descri be
acryl amide
Ġc af
Ġre jected
Ġacet ylation
Ġneg lected
ti ent
we es
36 9
las ts
Ġsuper ficial
Ġinsu fï¬ģcient
3 19
Ġan cient
Ġ1 22
olog ia
ia o
Ġeth n
+/ +
ophosph amide
m ans
Ġun iqu
35 5
cum ulative
abnormal ities
v enti
Ġhe pes
36 4
Ġct c
bas el
tr ust
gen bank
Ġbl o
Ġvis u
iat ry
b ion
s ufficient
Ġrem ember
hel ix
Ġpd b
Ġpb mc
prin ts
Ġinequ alities
ÙĢÙĢ ÙĢÙĢ
d ox
Ġb id
qu iry
de pressive
Ġc ca
ts burgh
cus sion
Ġang ina
Ġp ka
Ġk j
12 00
Ġher bal
Ġgo ogle
Ġf b
Ġpolymorph ic
Ġl od
tr acting
40 9
Ġconf idential
prog ressive
4 01
c ancers
s ector
ch air
Ġde af
Ġun controlled
Ġsub cellular
mon t
Ġins omnia
Ġtem plates
Ġgran ules
c arcin
Ġh osp
op ulmonary
de oxy
enc oded
36 3
Ġspe aking
lar ly
resid ual
Ġhundred s
Ġnom inal
Ġfrac tional
utrop enia
Ġpro tr
35 9
Ġcost ly
ococ ci
Ġace tic
re ward
Ġs acrific
Ġ0 3
Ġmet s
38 2
Ġent eric
Ġp aclitaxel
Ġf d
Ġb ax
iz z
Ġobser ving
hor iz
biomark ers
c ab
he aring
Ġk ras
Ġshe ets
Ġsn r
ye ast
Ġau tistic
ifi ers
j ones
Ġre cre
ch art
de ad
Ġappoint ment
Ġpand emic
k v
m da
s we
Ġal ert
Ġsc in
Ġen vi
Ġnear by
Ġgre w
valid ity
nan op
implement ed
Ġt in
Ġbe ver
Ġlow ered
Ġstreng then
acces sion
f atigue
Ġj er
Ġam i
Ġimmun os
Ġrefer rals
thor acic
Ġze iss
un less
im plantation
tr p
Ġ1 47
Ġhist ogram
exper t
Ġdis h
Ġmod ifying
ds s
Ġcat ech
Ġcarcin ogenesis
Ġatheros clerotic
Ġpluripot ent
s anta
Ġc ite
ow ing
be gin
Ġem g
Ġsl opes
Ġaer osol
Ġtermin ology
Ġmultic enter
p ired
ic us
oc o
to o
Ġinf ancy
ise q
Ġhis panic
Ġirre versible
0 60
ter ia
Ġprom pted
Ġwr ite
Ġolig o
paren cy
b arr
d ich
gl ass
Ġsl a
Ġsal inity
Ġsecre tory
Ġmerg ed
ati zation
Ġst ems
Ġquantit atively
it osan
ac o
Ġbackground s
mill ion
Ġlib itum
c hest
37 9
obacter ium
an ks
Ġw ards
Ġsy br
45 5
Ġsol ving
differen tiated
Ġheter od
Ġconto ur
Ġco operative
Ġass urance
Ġinter faces
Ġcur ative
cy an
Ġret ard
w et
Ġe igen
Ġh ct
man ip
was hing
Ġartic ular
Ġiss n
joh n
Ġsoph isticated
m atory
ent r
Ġsc rew
Ġend oscopy
inf o
Ġdisrup t
Ġsed ation
Ġirr igation
Ġtam oxifen
Ġgynec ology
05 3
Ġbacter ium
Î ¸
unc hed
Ġsup posed
Ġser otype
pre operative
wh ose
Ġecon omics
Ġtranscript ase
Ġgi ant
40 6
ï¬Ĥu or
condition ing
dial ysis
satis faction
ĠðĿĽ ½
Ġshorten ing
ut ter
Ġel bow
Ġday time
ogene ic
Ġfund s
b ered
s keletal
Ġ ).
si ï¬ģcation
co vari
Ġcent rom
Ġang ular
ĠÏ ī
ĠÃ ł
Ġr ituximab
Ġreview ing
Ġdan iel
ach i
Ġpol ice
Ġaut opsy
Ġenrol ment
olin ergic
Ġconstitu ents
Ġbe vacizumab
intro duced
h it
Ġim posed
Ġmon omers
Ġhr v
bol a
Ġe i
Ġpres erve
Ġip s
Ġfresh ly
on oids
Ġ2 20
ch d
Ġres is
Ġeduc ated
yr in
Ġarr angements
medic ations
el astic
Ġplay er
4 15
ag c
Ġnet s
fe as
0 65
Ġis rn
og onal
Ġregression s
( .
6 50
am mon
Ġpos es
il ic
40 3
Ġknow ing
39 1
Ġimp uted
Ġmit osis
f gf
se iz
Ġco urt
der iv
syn the
Ġh ir
vi tis
âĢĻ ;
co id
Ġrespon sibilities
pts d
Ġnod al
Ġstabil ized
Ġcarol ina
Ġc ages
Ġw b
tr ations
ch osen
di arr
Ġcomp ares
ox ins
33 9
Ġref lux
bes ides
bri tish
regard less
Ġdistinc tive
ocompati bility
h os
p ital
re trie
om on
Ġbr ad
39 6
back s
Ġdiscuss ing
d ated
on titis
Ġvolunte er
- /
Ġco ur
37 4
Ġcultiv ars
Ġevol ve
k ov
Ġy rs
Ġanalys ing
ens en
Ġcap e
Ġtrigg ering
Ġquin tile
Ã§ Ã£o
ac ct
Ġal p
ri e
Ġinduc ible
Ġgovern ments
inst ance
Ġb ern
Ġpre va
Ġk s
Ġventi l
Ġanaesthe sia
t ems
Ġ ich
Ġt ca
Ġte en
ogene tics
Ã¡ n
art an
Ġsurvi ved
onc ology
Ġcaud al
m atitis
Ġ1 46
ex istence
Ġvol umetric
47 3
pancre atic
f illed
Ġs Ã£o
Ġcomp act
low ering
over l
round ing
Ġtyp ing
Ġoverex pressed
c cr
un iform
Ġim ported
Ġed u
Ġed ition
bm j
Ġdescript ors
b old
âĢĵ .
Ġper oxidation
Ġpost operatively
Ġda ughter
tub e
Ġpancre atitis
independent ly
Ġcx cr
Ã Ł
Ġs anger
Ġ2 80
Ġlead er
fe v
Ġprote asome
Ġgangl ion
Ġspik es
u ates
Ġ15 00
inter fer
Ġsurvi ving
Ġoste ogenic
Ġolig odendro
Ġthromb us
Ġeuth an
w nt
Ġf le
ne o
Ġbr on
35 3
nis one
Ġambigu ous
0 67
er als
com partment
ree k
Ġplas modium
Ġparen chyma
Ġtnf Î±
Ġo sa
ies is
Ġsp he
Ġmac romolec
Ġreal ized
rh iz
agg ing
ogr afts
Ġinterfer ing
Ġcoast al
m tc
el se
/ .
c id
Ġen ergies
35 4
Ġrhyth ms
vag inal
arg o
immun o
Ġorigin ated
prom ote
Ġal d
ps a
Ġmean while
Ġanaly tic
Ġdistrib u
Ġmet adata
con tains
with draw
50 8
Ġsw iss
Ġhom ogeneity
Ġtub er
ï¬ģ br
Ġsh all
Ġsub optimal
review s
grow n
abund ance
o ul
45 4
Ġdut y
v v
Ġc ms
ag t
car bohydr
Ġconflic ting
Ġcompens ate
phosphory lated
3 29
w k
Ġb cg
Ġn pc
Ġg cs
Ġref in
stim ulating
Ġgastroenter ology
Ġm art
Ġl dh
Ġco herent
Ġbi ologic
Ġcr ani
d ard
l ane
ik i
hem is
character ization
Ġpharmaceu ticals
chann els
Ġj ackson
Ġsugg estion
Ġrib osome
Ġln crnas
g em
x s
Ġal ters
Ġmit o
Ġensure d
f mri
yl ic
Ġneph ro
Ġtransform ing
Ġscal p
t ar
Ġh unting
Ġmedi ation
Ġfed eration
k p
n ist
Ġdis location
Ġro is
39 3
Ġphysi ologic
Ġhor n
Ġspecial ty
Ġpen al
syn thetic
4 14
Ġk al
Ġ19 76
Ġhead s
ba um
n in
Ġb ark
ting ham
Ġmal awi
Ġauto antibodies
Ġattr ition
( +)
Ġpro hib
Ġsh allow
Ġelec trom
assess ments
Ġund es
Ġfores ts
Ġpb mcs
Ġorb ital
Ġhyp otension
Ġpo isson
lex ia
Ġunder lie
err ors
idel ity
et axel
Ġlear ners
Ġhepat ocellular
Ġthorough ly
as sion
Ġmigr ant
gly cer
c ale
Ġc itations
Ġb b
Ġes cal
37 7
go al
question naires
h bv
s ons
ah n
Ġpack ages
ĠðĿĳ Ľ
Ġstrati ï¬ģed
Ġhapp y
Ġsib ling
Ġjudg ments
Ġhe d
Ġstr ugg
iden tical
Ġcapac ities
er as
an ed
im s
ill aries
mac ro
Ġfif ty
cys tic
in el
as ic
Ġle th
gr av
Ġag enda
Ġrisk y
38 7
Ġmonol ayer
neon atal
Ġpublis hers
br ids
Ġï¬ģt ting
Ġcompens atory
Ġconjug ate
g un
t les
Ġin door
45 1
Ġgroup ing
ace ous
Ġconduc tivity
mer sion
Ġcompet encies
f ly
l ique
Ġex isted
38 6
improve ments
z u
Ġmut ually
lip s
is c
Ġfl ood
contin ue
Ġun adjusted
Ġi e
Ġphys ic
Ġï¬ģn ally
Ġâī Ī
Ġconn ecting
ĠÏ Ħ
young er
Ġasc ending
path ogens
Ġlink er
Ġcere brospinal
omencl ature
ib ly
ib bean
con found
Ġsub clinical
mit ting
Ġmark ets
Ġmar riage
Ġneoplas ms
h ap
Ġb g
pro gen
ven ously
sh are
Ġlat tice
Ġro botic
arch ae
Ġwell come
Ġlys osomal
neur on
electro de
Ġreper toire
h cc
Ġtr av
Ġrel ied
under stood
lo ok
Ġdifferenti ating
Ġï¬ģl led
proper ly
Ġecos ystems
Ġimp lying
Ġfail s
ji ang
g ad
Ġm erc
ur ch
Ġal titude
Ġk l
Ġep och
Ġfollic le
ment ary
Ġanalog ues
lact ate
Ġv ibration
st ake
dif fusion
pers istent
Ġdil ated
Ġatl antic
Ġsummar ised
n ut
og aster
Ġgr avity
sub jective
yr ate
arr hyth
Ġve h
Ġshort ly
Ġau x
Ġnanop article
Ġdeple ted
Ġcur cumin
atp ase
eli ac
es cent
Ġb urs
am yloid
Ġrel ie
Ġnon invasive
Ġsol u
Ġpolymer ization
random ly
Ġ2 10
Ġlong est
abol ism
Ġaccompan ying
ve x
Ġr id
di ver
lu ent
cy cles
macroph age
+ .
b j
Ġo val
un ion
id omide
so le
pr ised
Ġel ution
46 6
Ġcl ades
br and
anc hed
throm bin
apol is
charom yces
4 90
v ant
Ġp pv
Ġat axia
par kinson
38 3
Ġstret ching
Ġsav ings
os itis
ell o
Ġbas in
Ġmat urity
Ġbre eds
del ivered
Ġco he
ref lec
ozo a
4 31
Ġm am
Ġn ice
res ection
Ġx u
Ġmigr ate
Ġprescri ptions
thel ial
m um
Ġt ack
Ġbe at
st en
pt on
Ġele ven
Ġsem in
Ġhu ang
Ġhypothal amus
b ate
c ules
m ium
tic a
Ġqu asi
tit udes
ty rosine
Ġmar ia
ÂłÂłÂłÂł ÂłÂłÂłÂł
ot opic
Ġim mu
ob tain
Ġro che
Ġsr c
Ġarsen ic
mo od
behavi ors
Ġfoss il
Ġtex ts
pol yp
morph ological
candid ate
5 12
h ill
al veolar
ic ol
Ġre ass
Ġinc entive
dr inking
Ġic a
Ġconduct ance
Ġammon ia
Ġse at
Ġi x
Ġimmun ofluorescence
mat ter
Ġsar com
Ġtor onto
Ġdirec tional
Ġchondro cytes
ub e
Ġstr at
rel ig
Ġkey words
Ġsept al
Ġmalay sia
Ġt sc
ve itis
tr ated
Ġr dna
Ġass er
Ġreg istries
Ġsp here
arch itect
Ġfib re
Ġker at
magn itude
c cl
l ia
Ġs ma
Ġfor t
Ġnew castle
cop e
Ġn ah
Ġfor ma
Ġcarbohydr ates
Ġ1 48
Ġ1 49
Ġdi ary
cy steine
hol ding
classi ï¬ģcation
immunohist ochemistry
Ġt fs
Ġp ill
per haps
Ġacet onitrile
Ġendometri osis
gastro intestinal
Ġimmunore activity
Ġpartic u
Ġcar lo
provid ers
aut ophagy
l od
Ã ª
Ġm Ã©
ec m
st ored
Ġtr acts
Ġexcell ence
Ġdim ethyl
perspec tive
nec tivity
amb ia
Ġexacerb ation
Ġantidepress ant
e ased
Ġle gi
Ġbi ogenesis
Ġpost ural
Ġneuropath ic
Ġoveres tim
Ġne ga
Ġsk illed
bene fits
recr uited
Ġinequ ality
track ing
qu ence
Ġgr ants
Ġden aturation
r heumat
en em
ad el
hor mon
ur ium
si zes
Ġle wis
Ġmet agen
log istic
Ġve gfr
Ġconver t
Ġmeth an
Ġfavour able
thir ds
0 78
3 21
ti fy
ones ia
vis ible
Ġstrati fication
adap tation
environ ments
k ind
re ached
Ġf dr
Ġad e
19 88
mon o
anti biotics
Ġhist ories
inc ial
doc tor
Ġrelig ion
secre tion
p lying
ne ither
ep igene
Ġlit ter
chrom atin
Ġclaim ed
Ġinfr ared
gradi ent
Ġs end
Ġc pr
se ems
Ġmed iterranean
Ġsp acing
45 6
aut omatic
chrom at
Ġdisadvant ages
Ġm cl
Ġn ash
ib a
Ġsum med
dig ital
ing ton
im eter
Ã© s
Ġthick ening
Ġthrom bo
Ġaden oma
) ],
ab ular
Ġtr ail
Ġdid n
trans lated
yn chron
Ġweight ing
Ġclassi ï¬ģ
Ġsurround ed
b ud
Ġc ts
um ping
rom a
lis ted
Ġox y
Ġsw allowing
sl c
Ġhard ware
Ġfist ula
re ment
ul sive
Ġpro inflammatory
Ġelectro cardi
radi otherapy
iaz ep
coup ling
Ġswe et
e ating
th on
ter one
Ġsal ts
class ical
v hd
Ġp alsy
Ġd w
gl cnac
Ġkin em
ev oked
Ġn ed
bi ol
Ġmm se
Ġlast ly
Ġconj unc
Ġrus sia
Ġsho ot
Ġcol ors
Ġsyn apse
Ġneuro logic
Ġur g
gre y
Ġnav ig
m og
tin ent
Ġphysi otherapy
Ġdri ves
ocardi tis
perform ing
n oc
Ġfe a
uk er
protocol s
Ġacup uncture
the mselves
ode grad
Ġliver s
car ry
Ġphot ographs
arti les
tet ra
Ġparas itic
Ġveter ans
vess els
tryp sin
t oc
Ġg ating
ag ilent
ir i
Ġdig estive
Ġgran ular
p fc
Ġinter disciplinary
Ġprim ates
Ġsuper family
tas ks
Ġpot ato
Ġprogress ed
isol ates
) ***
0 70
Ġg fr
Ġbut ton
Ġimmun ol
45 8
Ġpros thesis
mitochondri a
Ġadvis ory
b ent
n itrogen
Ġt ender
000 4
Ġprogen y
occup ational
gest ational
glob ulin
0 66
j us
centr ations
Ġce phal
Ġpyr amidal
i aceae
Ġd pi
ul ic
ple as
45 9
n u
qu ick
ym et
row s
Ġfit c
0 80
Ġthe ta
Ġal gae
sd na
Ġlack ed
inhib ited
Ġbac illus
Ġfibr illation
concer ning
b mp
p are
Ġd v
Ġor s
Ġunder graduate
Ġair ways
Ġneutral izing
Ġthreat s
Ġanc est
Ġd ir
cent ers
mat ching
Ġher nia
let ter
Ġcoll apse
Ġsuit ability
prof ile
Ġcardiov asc
am oto
Ġmer cury
Ġhbs ag
Ġph c
-- -
Ġorigin ate
tol erance
Ġeï¬ĥ cacy
us hed
st d
Ġbir mingham
Ġtag s
enhance ment
ac ious
activ ate
Ġcall ing
plas mid
nam ely
determin ing
Ġî ģ¢
ot actic
Ġhe al
main tain
instr uctions
manus cript
Ġs ial
ch ick
pro ved
Ġdi aphr
iven ess
Ġpas te
Ġpure ly
phil is
tren ds
d end
Ï Ħ
ti i
Ġfor aging
Ġeff lux
cc c
Ġsilic on
w ol
ow ed
ati dyl
Ġhe ur
com b
Ġbr a
Ġprogram med
Ġce a
Ġdn ase
polymer ase
am ar
Ġv m
Ġir s
Ġhapp ens
Ġvertebr ates
f bs
m ess
Ġd yn
Ġcarri es
cycl ine
Ġimped ance
Ġl amp
im plant
âĪ Ĩ
cat heter
iment in
Ġhemod ialysis
Ġk new
Ġform ally
trans ferred
gu ide
gener ating
complex ity
period s
Ġempir ically
pool ed
f rozen
Ġcor nea
Ġ19 50
Ġspan ning
p rel
qu ences
ex tra
Ġsp ores
ox ford
inter quartile
Ġfac ts
Ġchem ically
Ġï¬ģl m
Ġretur ning
ïĻ ĥ
Ġket amine
suscepti ble
c ate
l ution
Ġinter pol
inter cept
47 4
Ġepis odic
Ġï¬Ĥex ibility
Ġmetall oprotein
v ox
Ġ âĢĻ
Ġl is
Ġar tem
Ġend ed
Ġï¬ģg ures
Ġstandardi zation
autom ated
6 80
Ġbe es
Ġeff usion
initi ated
Ġtransduc er
d ney
Ġin effective
Ġm ans
Ġv ibr
44 4
Ġelectro physiological
Ġcontig s
swed en
Ġflor ida
a ac
ic eptive
Ġl ub
oci ties
ct ct
Ġanti fungal
aim ed
w y
48 5
Ġphen olic
mes enchymal
Ġe ur
Ġdis ordered
pec iï¬ģc
ari atric
ob ject
Ġcr yp
dis c
Ġure th
Ġdistinguish ing
Ġphilos ophy
4 70
g ies
ic tion
Ġv ap
4 16
4 99
h ox
h apl
p ounds
Ġr y
Ġle isure
ill umina
reg istered
dro p
oster ic
Ġconstant ly
ðĿĽ ¾
c ially
Ġn ak
op in
ang ular
Ġhe ard
pro ven
local ized
s z
ab ling
Ġent r
Ġch lamy
anth rop
require ments
0 95
un ar
Ġpro bed
um i
Ġma ze
Ġprot ecting
nm ol
Ï Ģ
el ae
un ivariate
Ġreg imes
pon ents
Ġag ilent
50 3
Ġload ings
Ġcod ons
ï¬Ĥu x
Ġepidemi ologic
blast oma
0 68
b md
Ġinc i
supplement ed
Ġsept um
resid ue
Ġterr itory
Ġchec king
, *,
Ġk ur
ci ation
sup pression
Ġeven ing
Ġtur k
Ġarti fact
ot axis
ĊÂł ĊÂł
e or
pers ons
speciï¬ģc ally
rex ate
Ġskew ed
pt p
sc a
sc he
estab il
Ġtub ules
Ġlist ening
Ġib m
Ġcampaign s
wor m
Ġped ig
Ġeg ypt
Ġwilli am
Ġs q
Ġal a
Ġacid osis
lim it
olin ium
Ġdispers ed
f ever
micro bi
sol utions
emerg ing
ï¬ģx ed
n urse
id ia
Ġover whel
Ġdiagnos ing
ck d
Ġoccup ied
Ġtit les
Ġcry opres
conn ection
s cription
an il
Ġpar ity
form ance
Ġu ti
Ġfl ap
paras ite
i os
ec a
Ġch arges
Ġcl ay
Ġmod ular
44 7
Ġprin ted
Ġdox orubicin
ar p
un like
oph ores
Ġhist ologic
Ġre use
de pri
pos i
49 8
Ġscri pt
Ġams terdam
Ġperox is
ic ine
se ason
Ġpr agmatic
Ġpur su
equ ation
Ġves tibular
Ġhypogly cemia
4 40
Ġe ms
Ġbi ochem
br t
Ġstand s
0 77
re r
Ġc enti
cent red
Ġassoci ates
Ġthrough put
Ġaccess ing
Ġreplac ing
methyl ated
b order
he aling
Ġd ab
Ġg at
mid t
Ġpoin ting
Ġallergen s
t ons
Ġpsych opathology
frequ encies
Ġultrason ography
extrem ely
Ġm ant
Ġm sm
op tical
te ac
44 6
pen sion
ocr it
amus cular
Ġquadr ant
tic ing
Ġphyl ogeny
Ġpit ch
Ġram an
Ġdrople t
n ell
Ġp ier
Ġd avis
Ġwhe never
arc ia
Ġbiot echn
c ow
Ġm ath
co ugh
sp ot
muc osal
( Â±
ti ï¬ģed
ti zing
ï¬ģ ne
Ġme k
plic a
Ġvi ro
cul tiv
cx cl
wiley onlinelibrary
Ġprobabil istic
Ġw on
Ġw bc
Ġge orge
Ġneurode generation
cong en
consist ency
f ear
end o
ob e
Ġafter wards
Ġbr ady
Ġwa iver
Ġsan itation
phyl ogenetic
prop yl
Ġfranc isco
ab d
plic ating
Ġscat tered
ati de
Ġmo ves
hist or
concer ns
Ġd yes
as er
Ġl rr
19 86
Ġto ll
Ġad here
Ġmod ulates
Ġinterpre tations
Ġstream s
excell ent
d mem
Ġs of
ro les
Ġf its
Ġpre treated
sign iï¬ģcance
athe ros
Ġpup il
erge tic
Ġbic arbonate
Ġperturb ations
suscepti bility
Ġiter ations
4 29
Ġcon vention
ok en
pot ent
p ak
el in
Ġcar box
dr ig
Ġdel irium
Ġqual itatively
Ġpac ific
Ġfir m
Ġend ocytosis
47 7
uc ine
Ġex ome
Ġem power
Ġpers isted
mem branes
Ġadhe rent
down stream
Ġproï¬ģ ling
Ġatp ase
spe ech
Ġintraper itoneal
4 75
r ub
t k
Ġp ma
ces sion
Ġdise ased
38 1
opro te
metabol ites
Ġdispar ity
Ġan ion
Ġsh ares
39 2
predic tors
Ġcouns el
emb led
Ġdi pl
Ġmeas urable
Ġint ubation
Ġjob s
situ ation
requis ite
Ġ. ..
col orectal
Ġatt ach
Ġmass achusetts
Ġreason ably
spon ding
dev ices
Ġswim ming
Ġtumorigen esis
ot rexate
Ġex po
bl ocks
Ġrecogn izing
Ġamb ulatory
intra venous
assum ed
t ual
Ġim atinib
ĠâĢ ¡
Ġwork load
Ġcontr adict
sampl ed
ab we
Ġch ro
Ġconsequ ent
enh ancing
enzym atic
0 63
Ġd ict
ur red
un saturated
og on
ap plic
eff iciency
Ġbon y
Ġseed lings
Ġstrept ococcus
Ġneighbour hood
t ech
at om
Ġin activated
Ġco at
Ġinter cept
Ġbu ï¬Ģer
phen otypes
symptom atic
n early
ro in
Ġcons ume
Ġrel ational
45 7
sp earman
cu ed
Ġhistopath ology
ymet rix
Ġd anish
Ġeff ec
hu ang
Ġparad igms
hippocamp al
f ax
t ap
u as
Ġdis tract
Ġsh unt
Ġmicro arrays
Ġpa uc
omet ers
pol i
Ġsu f
Ġexc itability
aro tomy
Ġchim eric
te aching
49 7
Ġrequ ests
ad am
st a
Ġer adication
Ġver iï¬ģed
Ġrein for
w inter
Ġc bs
ple te
til lation
ital y
Ġprot ects
tra its
Ġrece ives
Ġimage j
dist ur
Ġcock tail
s ap
Ġl en
di verse
Ġactiv a
Ġanesthe tized
imb abwe
ucl ide
opos itive
j oin
t x
Ġal ph
Ġqu ies
tin ence
67 7
Ġful ï¬ģl
wal d
Ġdiarr hoea
Ġasc ites
Ġantico agulation
p ix
s ant
44 1
lo oked
Ġdam aging
Ġstop ping
antigen s
o ac
Ġs ie
comp any
Ġmand ibular
Ġpar athyroid
Ġcol ocal
Ġfr uctose
mod ern
Ġdist or
Ġconï¬ģg uration
ap ical
of acial
particip ate
Ġcatal og
Ġimmobil ized
gib co
ongo ing
em ics
Ġres ected
Ġen v
Ġen um
Ġhy stere
respon ding
Ġsil ent
Ġindustr ies
Ġju ice
adhe sion
5 20
an co
ab eth
ib m
Ġnor wegian
Ġcle ft
Ġcn v
Ġscholar ly
ow a
ad ays
iv ity
Ġ4 000
ex pensive
Ġrepro duce
Ġneg lect
Ġequ il
Ġâ Ĥ¬
Ġsaf ely
Ġsuppress es
orb ent
m aster
r ation
Ġcr yo
, âĢĻâĢĻ
ex pansion
Ġens ures
ic it
st ro
Ġch imer
par ag
Ġhydro philic
Ġfarm ing
transf ection
Ġmitig ate
res on
Ġun infected
av as
Ġinten s
indic ators
Ġcarbon ate
amo unts
stre pt
Ġrecycl ing
6 25
pur ch
br ca
48 7
Ġhyper activity
larg ely
Ġstir red
Ġbrack ets
l eng
at eness
ar ach
ad or
ip ine
ask a
ophil us
Ġpharmacokine tics
Ġc pt
Ġm ct
op tic
Ġac l
Ġem bed
Ġpol ys
Ġproduc tive
Ġs cl
Ġm ultin
Ġsqu ared
Ġphag ocytosis
4 24
w es
Ġc ml
ch inese
transi ent
4 30
4 35
Ġt on
Ġs ales
th in
oc cas
Ġsup plies
Ġour s
sh aring
Ġma h
put ative
Ġincub ator
Ġconfir ms
vide o
Ġduc tal
Ġh amp
Ġprot otype
dem ographics
Ġopi oids
Ġexplo ited
Ġbund le
oprot ective
s ud
im posed
pon ent
aff inity
Ġtop ography
Ġcompet ency
Ġgre ece
Ġp ush
ab cam
Ġex ceptions
Ġcom fortable
was h
Ġpost ure
Ġmicro wave
dec isions
adv ance
Ġconsult ant
osens ory
0 90
= .
c hel
d imensions
j unction
ro up
Ġh uv
sh ock
Ġprote olytic
tw ice
distric t
on ian
Ġp uncture
Ġb ending
Ġh v
con version
45 2
44 9
Ġexce eds
Ġweigh ing
v ill
as tric
om ib
im mediate
Ġg ri
Ġcon ceived
Ġbe ats
se al
hr p
fin ancial
Ġre ceptive
Ġcl aud
ar cer
hem atics
Ġip scs
wal king
Ġdiscipl ine
y ama
Ġc rest
Ġw istar
Ġm ock
Ġd pp
Ġf ric
Ġcom mitted
Ġcomp iled
ten e
aw ay
dem and
ubiqu itin
stin ence
l amin
m art
Ġa ward
ly l
cr anial
Ġsa udi
Ġmis sion
Ġpneum ococcal
Ġkore an
wat ers
Ġgol gi
prolong ed
ur nal
Ġat tained
Ġ3 60
Ġam az
psych iatry
hist one
Ġdepic ts
Ġare na
min eral
Ġtranscri p
Ġresidual s
Ġexer ts
Ġ19 74
pol ic
Ġret ail
Ġap i
50 2
inter acting
Ġau thentic
cycl ic
Ġtaq man
c och
Ġis let
por a
Ġqu eries
Ġval ley
Ġser ological
sh ot
Ġpap illary
Ġtax onomy
star ted
Ġundet ectable
at r
Ġh sa
25 00
bin son
constr uction
ÃŃ a
Ġleuc ine
% -
oph aryngeal
Ġca u
Ġir relevant
Ġmetabol omics
Ġov aries
constr uct
alter ations
overex pression
Ġes tradiol
Ġ15 5
Ġgraph pad
Ġber lin
Ġsimpl ified
6 20
g ard
Ġs rs
Ġe igh
ac gg
âĢĻ ),
rs v
Ġampl ify
bour ne
avid in
Ġam putation
prin ting
m erg
s q
âĢĿ ;
Ġer p
Ġcaus ality
Ġpara formaldehyde
Ġwarm ing
Ġign ored
ul ter
un published
Ġtrans duced
âĢĿ ),
las er
phosph o
Ġpay ment
Ġbrach ial
v ous
Ġb ib
Ġsh op
of old
anc et
Ġbiom olec
Ġcomm and
4 11
Ġst ap
Ġro bo
Ġtrans it
Ġbr uce
Ġter restrial
Ġsal ient
Ġta ught
Ġï¬Ĥex ible
Ġerythro cytes
plat form
Ġp ms
Ġn iv
ere mia
Ġfil ament
Ġpit tsburgh
Ġac clim
Ġsy st
Ġwhe e
Ġproced ural
rati os
Ġconform ations
instr uments
Ġperturb ation
Ġt ut
in trac
af ï¬ģn
99 8
46 9
hippocamp us
o ys
Ġcl l
Ġperform s
46 3
dec line
Ġhypoth yroidism
Ġm agne
ul o
Ġpol yn
Ġz yg
mat o
Ġcomb at
scan ning
4 12
b ov
Ġo mega
Ġr um
Ġr uled
op id
Ġelectr ons
l ass
Ï ģ
Ġal together
19 87
Ġfe brile
Ġmark ov
Â® ,
prac tition
Ġsub populations
âĪ Ļ
pen etr
Ġillustr ating
Ġhemat ological
Ġaccel erate
Ġdens it
ophthal m
f ection
p cs
ent ina
ud ine
Ġco eï¬ĥ
Ġnm da
meth anol
Ġaccommod ate
Ġcatch ment
display ed
Ġwit ness
adjust ment
Ġtot ally
e en
cl amp
Ġsh ir
Ġun iv
Ġimmun ocom
sp in
Ġinform ants
sl ope
idi rectional
phot on
Ġshed ding
s perm
or ange
Ġd educ
di e
ard o
Ġgu il
Ġobserv a
tum s
Ġmicrobi ological
Ġperme abil
Ġhistor ically
Ġabi otic
j n
em p
op ress
Ġgen u
sc ope
e tics
Ġt k
Ġdet ox
other mia
Ġnam ing
oxy cycline
Ġubiquit ous
Ġneurom uscular
Ġs keleton
Ġcl as
Ġinter ventional
tt tt
Ġx i
Ġlip osomes
fl oxacin
Ġblock ers
Ġnarr atives
Ġiod ide
Ġarc tic
Ġhypothal amic
cigare tte
Ġintermedi ates
Ġen amel
Ġop ti
Ġsee ing
Ġsubst an
ĠðĿľĩ l
is en
Ġstr ands
Ġdil atation
Ġmes enteric
micro array
public domain
Ã¼ r
Ġtraffic king
Ġcontribut ors
4 23
us s
Ġhe t
Ġpl anes
46 1
ĠĠĠĠĠĠĠĠĠĠĠĠĠĠĠĠ ĠĠĠĠĠĠĠĠ
Ġsem inal
gin ate
bel ong
cont amin
Ġreact or
ysacchar ides
Ġdiï¬ĥ cult
l ith
pro v
Ġne pal
Ġins ufficiency
Ġ16 8
Ġwar ning
Ġdehydr ation
Ġosteoc last
h ay
Ë ľ
on ectin
19 85
cop las
ih c
Ġprov in
Ġdeï¬ģc it
rece ive
er ant
Ġth yro
Ġl yn
th rop
oc onstr
ch l
Ġbut ter
Ġgr afting
ull a
tur nal
Ġencoun ters
4 95
i ance
st ated
Ġtro ponin
Ġl anes
Ġsp o
col um
Ġref ined
four th
or um
be am
Ġphen o
Ġemerg ent
Ġrestric t
ogly can
in ia
Ġf cs
Ġsc n
par ad
Ġro l
cryst al
superv ised
# #
Ġg ift
Ġas partate
og rel
Ġ19 73
46 5
Ġintegr ins
Ġseg mented
ĊĠĠ ĊĠĠ
ch arges
Ġchar les
c og
s coring
Ġp ale
Ġg w
Ġvor tex
n isms
Ġs ave
Ġb up
man ifest
** **
Ġrepro duced
cap ture
ben ign
Ġ2 60
act ors
ne tic
can onical
sl ice
Ġfore nsic
Ġclim atic
Ġidenti ties
mammal ian
r ays
Ġn ct
Ġch ow
Ġanti tumor
Ġuniform ly
Ġinnov ations
empir ical
0 64
j h
Ġth ro
od i
Ġad ren
Ġins et
Ġelectro static
socio economic
Ġd ies
gr ass
Ġel ite
Ġaut onomous
fem oral
Ġoxygen ation
Ġthrom bin
otub es
s cript
Ġincre ment
Ġes r
no id
Ġsym metric
Ġir is
Ġcompos itions
Ġgir l
Ġsoy bean
u ximab
re placement
ak is
Ġstabil ize
success fully
6 17
d imer
Ġm cd
ac compan
ag u
Ġend urance
Ġassess es
Ġuro logy
is y
ec u
pend ing
Ġquanti fying
Ġpup s
Ġstring ent
m ex
p heric
re cord
Ġk w
Ġne ovascular
Ġnor mo
public ations
4 21
od ec
Ġch ief
Ġun biased
Ġsch iz
car box
Ġstake holder
lys ine
j unc
cr uc
48 9
Ġwor m
Ġrev ascular
Ġacet one
y en
Ġm ph
ip ment
Ġpr int
eng land
Ġvol atile
Ġclass ifier
Ġhel min
Ġdeï¬ģ ning
itin ib
adren ergic
j ak
en rich
Ġc ds
Ġp cc
ic king
Ġe z
Ġu tr
Ġdel ib
Ġpolyp eptide
Ġanastom osis
ub a
bec co
Ġfa ith
Ġspl enic
sal t
r anged
Â º
er in
Ġsequ entially
cc ag
Ġsuc cin
Ġextr insic
Ġantigen ic
Ġtax on
c av
br ight
cr ude
Ġtechn ol
au tism
hyp oth
Ġinser tions
exhib ited
as n
igh ter
Ġconstit uted
Ġsed iments
Ġepider mis
circ ulation
Ġnation ally
diï¬Ģeren t
barri ers
z ema
Ġper iv
Ġinhib i
scienti ï¬ģc
d or
Ġc acl
inf arc
Ġsl udge
month ly
sus tain
mill ipore
t cg
st orage
gen otypes
Ġthromb ocytopenia
Ġeukary otes
Ġdr g
60 9
Ġeduc a
Ġsw abs
Ġoccas ional
op her
gl n
Ġcult urally
fe el
Ġutilis ed
aver aged
d aw
Ġev apor
48 2
omyel itis
0 62
Ġc ens
Ġof ï¬ģce
as se
duc tor
Ġbi oc
cy st
oles ter
aps ing
Ġmotiv ational
acr ine
Ġcomb ines
separ ation
Ġhomogen ized
verte bral
progn ostic
b ag
f lor
Ġt roph
Ġap nea
Ġpres chool
clin icians
deple ted
z inc
le tt
st ain
Ġle pt
Ġill umin
path ogenesis
Ġfore cast
oder ma
dors al
Ġs ak
od om
45 3
Ġur ic
ole mia
Ġseg mental
Ġmeth ionine
congen ital
9 37
Ġt ent
ent ral
ag ar
Ġev ap
Ġminim izing
Ġdil ation
ocr atic
chr ist
idel berg
0 98
Ġh aw
mod er
Ġtemper a
Ġguid ing
Ġmt x
Ġho ok
roy als
Ġincon tinence
Ġp tc
op tions
ost atis
ï¬ģc ations
50 9
Ġz ikv
Ġtoler ability
Ġenlarg ement
Ġbiob ank
? âĢĻ
Ġfor um
Ġv apor
Ġac a
ï¬ģ bro
Ġk umar
Ġmar sh
mor tal
Ġpor ous
Ġvit amins
nutr itional
agre ed
Ġstriat al
Ġneuro log
Ġsw ab
gir ls
Ġc ards
sur ge
Ġroom s
decre ases
Ġm arc
Ġg aining
Ġreview er
Ġrandom isation
mar row
Ġpack ed
Ġdeform ity
he avy
Ġb inge
Ġde generative
feren ced
Ġfail ing
Ġaccept or
Ġrecruit ing
o ves
t reg
Ġat tracted
ane ur
Ġ15 1
ca emic
47 6
embry os
Ġbrom ide
royals oci
4 25
5 01
Ġp est
est yle
Ġanti psychotic
60 6
ba i
Ġlinear ly
Ġtransf ers
âĸ ¡
Ġchec ks
princip al
Ġprovin ces
f orest
et yp
Ġhe pg
mun ity
Ġdiscr im
Ġp ir
und ancy
inf usion
special ty
Ġp ace
ub lishing
Ġpre g
vol unte
c ca
Ġt agged
ass emia
co ol
Ġgas tr
expl ore
Ġepilep tic
ophys ical
j amin
t ural
un s
id y
ant e
vi x
Ġinter course
Ġqu an
Ġanti hypertensive
reg istration
Ġer bb
Ġmal di
royalsoci etyp
royalsocietyp ublishing
5 10
Ġa j
am an
Ġknow l
Ġauthor ized
radi o
v m
Ġin i
br an
pre ferred
pp i
Ġste ep
Ġmich igan
ĠðĿĽ ¼
Ġimmigr ants
s cri
Ġ1 39
Ġr io
and re
bl ot
Ġcap illaries
cy tic
Â° ,
Ġfacil itation
tox in
u u
not ably
Ġiss ued
Ġland marks
heum atic
Ġdysp nea
d un
47 8
oper ated
Ġrece ipt
Ġin ferences
Ġid h
Ġperform ances
49 6
do ve
graph pad
uncertain ty
gen omes
Ġsup r
Ġ20 8
epti dase
d ow
en ough
ver tical
ct tg
hed ral
Ġsim plicity
Ġnew er
trans cripts
Ġeosin ophils
Ġworksh ops
joh nson
4 17
7 20
es ti
Ġn al
ec g
Ġdis cs
Ġbl unt
Ġmut ational
inter face
47 1
Ġleg end
Ġdissem inated
Ġbever ages
im ag
Ġas cor
Ġch ances
Ġj iang
will ing
n omic
at tributed
Ġth igh
Ġ1 42
Ġv c
act g
Ġ19 0
Ġmy ocytes
Ġfl uctu
Ġlymph aden
mor bid
blind ed
Ġtachy cardia
Ġpollut ants
s ic
er tal
Ġb art
Ġb orders
Ġn ip
Ġst s
ad h
Ġdet erg
Ġfr ustr
ade h
Ġconcentr ate
Ġher d
Ġrun x
Ġgal act
remark able
Ġintervie wees
Ġinhabit ants
5 70
44 2
Ġte ach
Ġmac roscopic
Ġinst ant
Ġcle ared
cephal us
Ġglycos ylation
0 96
Ġc fs
el ian
ot emporal
ob a
pp m
Ġvit re
predic tor
Ġ ics
ple ase
Ġdo or
Ġchild birth
Ġmuc us
Ġpac ing
Ġsub tilis
60 8
rec all
Ġuniqu ely
d ense
Ġs ect
oc ysts
Ġvari ances
Ġnec ro
Ġsem an
Ġaug mented
uge es
Ġot us
sou thern
â Ļ
Ġstre ptomycin
ofl urane
m dr
Ġdis k
are r
ug s
10 93
Ġcr ack
Ġ15 3
46 7
found ation
Ġion ization
Ġmoun tain
Ġin cl
tim ore
Ġstr ik
Ġmach ines
datas ets
progn osis
cigare ttes
Ġco arse
Ġop a
Ġtra um
Ġder matitis
Ġstar vation
g sh
ro i
ech ocardi
appro xim
reconstr uction
g ive
Ġp fc
Ġh od
Ġinf requ
Ġ7 50
Ġmon key
pr one
47 9
rup t
Ġvel ocities
ĠÎ ¸
gramm es
lymph oma
Ġvic inity
Ġae tiology
Ġpathophysi ological
Ġl vef
Ġ3 20
Ġinter neurons
vul ner
b ution
d k
n ents
r ice
Ġd ick
Ġper pendicular
Ġcal ibr
investig ations
Ġhall mark
Ġphon ological
Ġdere g
in is
Ġ1 43
we in
Ġam ine
trans duction
Ġrec ap
adoles cent
Ġrefr active
Ġbo ards
pre cur
000 6
Ġaccess ory
Ġregul a
mor bidities
Ġadvantage ous
Ġdeploy ed
ro ids
Ġd amp
Ġor phan
Ġcar lsbad
valu able
fac ility
Ġdis course
Ġdi vers
Ġhospital izations
Ġsix ty
Ġtransi ently
Ġarthro plasty
0 85
Ġre modelling
ate ver
Ġar ds
av in
Ġcomple teness
Ġperiod ontitis
Ġclass room
sim ulated
Ġcho lec
Ġchemo therapeutic
Ġexc ited
Ġmicrobi ol
amic in
c ust
h k
vel ocity
pr s
Ġformal dehyde
Ġneo adjuvant
opid ogrel
Ġc res
up loid
Ġsh aking
low ed
Ġschool ing
Ġappear ing
Ġfresh water
Ġduplic ates
Ġmargin ally
dil ution
|| ||
Ġretard ation
Ġthro at
m ec
Ġk on
Ġaccid ents
0 61
m aps
Ã º
re perfusion
we ar
ech o
Ġag ro
Ġdec lining
44 3
47 2
less ness
Ġcop yright
Ġoccup ancy
Ġabol ished
m ath
in oid
Ġp ge
Ġ( +)
el derly
ol y
Ġidentif ies
46 4
vari ations
intr on
Ġmicror nas
Ġcros sover
nor thern
Ġbm j
f ather
Â ¶
Ġin do
Ġcatal ase
Ġglucocortic oid
re tur
Ġp ione
Ġe val
Ġger mination
Ġmicros oft
Ġcongr uent
restric tion
Ġischa emic
Ġs ri
as ted
Ġg ently
ly mp
Ġse aled
ex trac
rel ax
me yer
Ġbr un
Ġimmun omod
Ġhom ozyg
Ġoste oblast
Ġos motic
Ġtitr ation
p icious
os patial
Ġser otypes
att end
Ġsv m
Ġgli oblastoma
Ġtry ptophan
Ġquadr atic
dove press
h art
Ġes ophagus
Ġimmun ogenicity
Ġhist ograms
Ġorgan elles
read mill
appro pri
Ġrearr angements
Ġal arm
ch ang
sh o
Ġcap turing
ca ucasian
Ġsix th
Ġtit anium
biomed ical
Ġdeploy ment
Ġhemorrh agic
k j
u ters
Ġan xious
ati l
bo ys
cd k
Ġsecre te
world wide
criter ion
Ġkill er
f et
x p
ed a
ing en
Ġun healthy
Ġgood s
pharm aceutical
mill er
eas y
eas tern
Ġposts ynaptic
a at
h op
is er
Ġre activation
vol tage
smo ker
Ġpreced ed
recommend ation
Ġsp iral
bl ocking
Ġimmun ized
Ġprepar ing
Ġtoxic ities
admin istr
Ġbreak fast
aggreg ation
Ġa o
ep tion
50 4
rh o
biot in
spr ay
c en
z el
Ġst ably
alth am
Ġgr asp
medi ation
n ous
tion ary
Ġincre as
Ġlab s
gly col
Ġmax illary
0 73
Ġsh im
Ġend os
wh ilst
55 5
address ed
hamm ad
) ?
es tr
Ġch olinergic
50 7
Ġcere brovascular
Ġoligonucle otide
Ġlex ical
l ers
Â ¡
it Ã©
ec an
Ġch l
ord an
Ġassign ments
Ġassembl ies
e ases
Ġd nmt
Ġas cer
ep ider
ron ectin
az a
phen otypic
ĠÏ ģ
ĠðĿ ľ
5 40
h ub
Ġg gt
âĢ ³
if era
port ant
Ġstr atum
cre ated
risk s
Ġsa ved
ïĻ Ħ
Ġjun ior
m ari
in ogen
Ġas a
ati zed
Ġcorrel a
Ġretur ns
guid ance
fall s
g ps
Ġt onic
th omas
Ġout door
Ġsch ist
Ġretro grade
Ġsou theast
pow ered
Ġp gc
Ġn ur
of en
labor atories
pot assium
opro st
Ġcz ech
ul itis
Ġcl oth
Ġab and
az o
Ġaden ovirus
enh agen
Ġmaintain s
0 88
Ġf el
iat al
int act
att achment
concer n
Ġimper ative
Ġangel es
g ress
q t
v et
tic k
Ġap r
67 8
Ġdiv ide
def ects
Ġbiot ech
opol ysaccharide
Ġgaba ergic
Ġbiomech anical
ce ed
ect om
con nectivity
Ġep ic
Ġx anth
comple tion
Ġsuspen sions
Ġsurfact ant
c pg
g tp
Â ¢
al zheimer
Ġis lets
Ġgen o
osph ate
Ġsufï¬ģcient ly
Ġconvers ation
t one
en i
Ġp de
Ġst ones
ore xia
Ġne utropenia
âĪĴ âĪĴ
predominant ly
Ġre press
af il
Ġnormal ised
Ġvi rology
Ġ16 5
sub group
Ġdup lex
Ġrot ational
ubiqu it
neigh bor
Ġalumin um
renew al
Ġg ang
Ġper taining
par ison
erc etin
sim ulations
0 99
Ġis h
Ġtr ast
de generation
Ġref used
Ġrele ases
fl p
Ġdep ths
Ġlac tic
ó¸Ģł -
trop ical
l ating
Ġm bp
os hi
Ġsh h
vi val
Ġfl ight
Ġax illary
Ġtrack s
Ġlect in
________________ ________________
all ocation
46 2
streng ths
das hed
asym ptomatic
l ibrary
il ance
Ġper icy
enc er
Ġro str
Ġbi olog
65 6
Ġhydro gel
Ġcross ed
Ġwild life
predic table
wa vel
facil itate
ropol itan
Ġn w
em aker
Ġde pres
Ġï¬Ĥ at
Ġorth ogonal
Ġmim ics
Ġpossess es
Ġchick ens
summar ized
Ġimmunoblot ting
Ġn omenclature
Ġtrans parency
relev ance
Ġdanger ous
g il
o ï¬Ģ
s per
is ma
Ġand rew
ie ties
ocy steine
Ġhist ologically
ï¿½ï¿½ï¿½ï¿½ ï¿½
Ġpoly ethylene
antic ip
emph as
p to
ic ant
Ġto mato
na v
Ġep o
Ġstatis ti
Ġver ification
tom ography
Ġanesthe tic
8 01
Ġap ps
Ġcar t
ah r
Ġdemand ing
Ġimmunode ficiency
Ë Ĩ
ol ys
Ġ1 41
Ġmet ac
Ġam yl
Ġsim on
respon d
Ġcontrast ing
Ġbin omial
Ġgluc agon
Ġfamiliar ity
discr imination
Ġoligonucle otides
Ġconsolid ation
4 34
and ra
Ġun met
Ġsub cl
Ġpack aging
Ġwithdraw n
u h
st alk
Ġneed les
Ġsleep ing
syn chron
overl apping
Ġthe ra
Ġp ine
Ġ1 200
over view
over lap
inf il
col our
Ġresid ency
ef forts
Ġste atosis
Ġangi ogenic
nl m
pit uitary
Ġerythro cyte
friend ly
tr na
Ġcon vey
49 3
Ġdys phagia
lap a
l ut
Ġp ores
Ġf eces
Ġk oh
Ġï¬Ĥ ies
rapid ly
coid osis
4 26
Ġv ps
Ġes cs
Ġindic a
Ġdys lipidemia
ulf ide
Ġip sc
coun s
integr in
Ġencephal opathy
z omib
os m
qu ilibrium
ion ized
Ġstr aw
Ġmicrotub ules
0 72
5 60
l ost
Ġj our
ob ium
Ġz ip
ers hip
ak h
pp v
biomark er
Ġpestic ides
Ġt bs
ts h
ian o
Ġpol ish
Ġarg ues
truct ural
Ġtgf Î²
Ġexer ted
Ġantidepress ants
4 37
f ects
m akes
Ġf gfr
Ġhy brids
ah am
path ic
Ġinst all
Ġcro hn
Ġord inal
Ġre ject
Ġh art
Ġr and
Ġz hou
az i
adj acent
Ġharv ard
l la
iz ability
Ġeffect ors
Ġmedic are
Ġexp ense
linear ity
Ġbeg un
Ġclean ed
Ġshap ing
epidemi ological
Ġalk yl
j ar
en os
Ġ2 30
Ġend oplasmic
48 3
Ġpri on
Ġprof es
Ġent rep
Ġquantit ation
Ġcarbon yl
datab ases
nation ally
Ġling uistic
dop amine
Ġt ank
Ġd ow
her ing
ast in
hyp oxia
aryng ology
4 33
y c
Ã ´
Ġintra venously
ï¬ĥ cient
4 32
es p
Ġf st
Ġco ok
Ġdi ï¬Ģer
Ġmat ters
Ġintr ons
Ġann exin
acces sible
0 69
r ational
Ġs j
Ġre a
ery thro
Ġdef ines
ucle otide
Ã© n
Ġfraction ation
mrs a
4 39
Ġr l
em ission
Ġtr ach
sc aff
Ġcontain er
Ġgran ule
glut amate
urg itation
Ġsick ness
Ġherb iv
al igned
at uring
Ġem base
aff ective
Ġeduc ators
sus pected
cyt os
s istent
Ġn il
Ġl iqu
Ġpro kary
Ġsub cortical
Ġmal formations
49 2
speciï¬ģc ity
invol ves
emb les
Ġimmunosup pression
Ġpartnership s
horiz ontal
re cht
at rial
Ġper tinent
ne es
cr onbach
utr ient
vent ral
con ï¬Ĥ
cons in
Ġpul sed
sol vent
Ġcomputer ized
4 13
Ġm af
Ġb ure
Ġe agle
Ġre wards
Ġper fused
Ġmedi ans
itone um
Ġc cn
Ġ( (
the ned
Ġr w
Ġat opic
vi olet
Ġinv itrogen
spec trom
Ġgo ats
vis its
Ġinternal ization
mut ated
ï¬ģn ement
ju ana
s le
Ġp cl
Ġdis appeared
Ġcap tures
consider able
l ular
Ġbe an
Ġro berts
Ġaf for
48 4
sp ir
Ġpsych otherapy
Ġspe akers
fav our
Ġkeratin ocytes
f dr
x en
ul u
Ġst ew
Ġob sc
Ġprim ate
Ġmelan ogaster
fund ed
Ġconstitu tively
Ġgf ap
g ill
w arm
an in
per ature
end emic
co le
oplas ia
Ġplant ar
Ġcontrac tile
leuk emia
Ġord inary
Ġtic ks
ys ter
orph ous
âĹ ĭ
Ġhepat ocyte
opter a
0 97
ti graphy
Ġe bola
Ġpro biotics
enc o
Ġall iance
gen s
48 1
Ġpur ple
oper ating
Ġresid ing
Ġhydro ly
lymph ocyte
Ġaberr ations
Ġreimburs ement
tr idium
ow ska
Ġdiss ol
ger man
Ġland mark
lact am
b ig
Ġl ox
Ġg un
Ġr al
st om
end ar
ocy cl
Ġdiï¬Ģeren tiation
Ġd ura
Ġ( =
Ġto ile
ad er
rom ic
ne ider
ron ate
Ġquestion ed
tem plate
inj ured
Ġpet ri
ĠÏ Ģ
Ġhapp ened
Ġmechan ics
5 30
Ġn ests
Ġsh ut
other wise
sign alling
j ing
r hyth
Ġz oon
mission s
aden ocarcinoma
Ġvalu ed
ï ĺ
Ġc and
et ed
Ġplan ar
Ġrecommend s
Ġadop ting
Ġprop ofol
Ġextrem ities
Ġapplic a
Ġgem citabine
Ġcatech ol
b ury
n acl
am n
ill o
Ġcons tipation
Ġmo unt
classi ï¬ģed
Ġl ux
ter ase
Ġparticip atory
Ġfe es
pr ises
âĢ² )
Ġmicrosat ellite
at able
Ġl amb
Ġ2 70
oc ell
up ta
pro jects
Ġloc omotor
defic iency
barri er
6 90
Ġt ape
og o
spec tral
anti oxidant
fac ilities
pack age
op tion
Ġins oluble
Ġfo etal
head ache
conduc t
g reg
Ġb ariatric
Ġe ae
ce a
overn ight
Ġintrigu ing
re tention
ent anyl
Ġv ial
ut a
por ine
pos itively
Ġag itation
Ġmin erals
dis pers
Ġox yt
Ġsl o
clos ely
Ġcool ed
Ġfet uses
4 45
Ġp ct
Ġall ogeneic
Ġcatal ysts
condition ed
Ġrein forcement
Ġv r
Ġpro biotic
ys m
Ġqu artiles
Ġout let
control ling
Ġind els
nes ota
separ ately
Ġasterisk s
ti ï¬ģcation
Ġs ic
Ġneuro l
Ġgu ang
Ġtel omerase
Ġhydr ation
g aba
s uv
Ġa per
Ġa rose
er ts
res ident
Ġv d
Ġgr a
ino is
Ġunderestim ated
Ġbod ily
4 19
Ġc iliary
Ġconf ron
Ġexperiment ation
bot t
Ġconfidential ity
Ġdis abled
ide a
Ġï¬ģ f
Ġmulti dimensional
md d
hospital ization
lit azone
quin ol
circ ulating
Ġbag s
jud g
in os
oc s
st ed
line age
Ġcri ti
Ġjud ge
rele ased
j in
m ci
Ġm ch
Ġl ying
od a
Ġcaro ten
Ġdest roy
at tg
Ġw ine
ent re
id is
Ġr af
em ann
Ġcan als
mc p
ours es
Ġmism at
Ġs gr
al kal
mic roscope
Ġsubstit uted
Ġpoison ing
j ob
am ple
ore al
Ġout reach
rel l
Ġ15 2
Ġfund us
Ġreti rement
on at
Ġl und
Ġst ance
ad ding
mal s
Ġmulti drug
Ġaff erent
Ġdefin ite
Ġwave form
conï¬ģ dence
auto immune
Ġintol erance
t rem
Ã ł
as tructure
Ġv ign
fer til
tl en
Ġcac o
Ġhop kins
Ġelectroly te
f cs
an emia
Ġf ove
tim ing
con ditional
Ġbo oks
Ġneuro protective
Ġprov incial
Ġembol ism
explan ation
t cr
Ġin r
com posite
60 7
Ġfib res
0 74
p ier
Î ·
Ġo lymp
Ġv oid
Ġst yles
ad ver
Ġpos itron
requ iring
ov as
Ġmicro glial
Ġsw ine
Ġaq p
4 22
g ren
v on
anc a
Â· Â·
lo oking
Ġhome ostatic
Ġmanif ested
Ġw es
caus al
olip oprotein
Ġarab ia
âĸ ł
Ġanonym ous
c nt
Ġg le
ag glut
Ġwh it
Ġaff airs
Ġobserv able
lif estyle
Ġdeliver ies
evalu ating
Ġthous and
5 80
f vc
ad l
min i
Ġmulti plied
Ġviv ax
Ġarrhyth mia
4 28
u o
ol la
Ġun employment
Ġsy dney
55 9
Ġhom ogenous
Ġaug ment
Ġvascul itis
Ġnsa ids
s ph
t ca
in us
Ġd ream
Ġu veitis
Ġsequ es
Ġdiss atis
provid er
bu ild
Ġcrystall ine
Ġbiofil ms
n ancy
im id
im ers
Ġtr ac
dr ical
4 27
n ated
Ġim plication
sp ain
Ġtur ning
som ewhat
Ġt ss
Ġtr acing
Ġmeas les
Ġund ifferentiated
Ġvan comycin
Ġh av
Ġse eding
49 1
vari ed
Ġhard ly
Ġdermat ology
h av
Ġp ere
Ġd estabil
Ġmod iï¬ģ
Ġmus e
equ ipment
Ġalcohol ic
ges ia
Ġorthop edic
Ġst ents
ri o
Ġhist amine
Ġadv ent
Ġcab g
Ġbiophys ical
move ments
* )
ur us
Ġ2 12
up ro
Ġk ap
ren eur
ten s
Ġinf est
cons isted
rad ical
shor ter
5 21
g st
y rene
ly n
Ġex ud
Ġsurg ically
Ġequ ality
Ġmeth ane
Ġdichotom ous
simultaneous ly
Ġqui et
prel im
0 86
Ġc ary
Ġh ots
di ed
Ġk am
Ġcharacter izing
Ġbios cience
Ġtrache al
Ġin clusive
par k
anc he
60 2
Ġprost agland
l und
Ġm j
tr ain
Ġal drich
according ly
Ġsent inel
ar boxyl
as pir
Ġpar alle
Ġen orm
nam ed
Ġste ven
sus tained
Ġdimension al
throm botic
Ġcontrover sy
Ġrestr aint
Ġe ts
Ġ[ âĪĴ
Ġes pe
Ġcompar atively
Ġsl ip
Ġchrom o
Ġattempt ing
e gf
ic ide
Ġar res
gen us
Ġfour ier
Ġthor ac
truct ures
Ġure ter
invas ion
quanti fication
Ġelong ated
6 70
f lo
in tention
Ġan e
ent ation
Ġg um
Ġar ts
Ġdet achment
gr and
Ġcycl ophosphamide
stat ement
depend s
Ġdoub ling
st ance
of il
par tially
sy non
mod ulation
Ġdef ence
4 38
ne asy
Ġ15 4
Ġear s
Ġexpl ants
fr uit
ann on
Ġparal ysis
Ġvictor ia
f ected
Ġass im
Ġmet er
Ġpattern ing
+/ âĪĴ
Ġxen opus
c odes
p sy
re vers
ï¬ģ nal
ï¬Ĥ ex
Ġcare r
Ġspecific ation
particip ating
consid eration
Ġtrast uzumab
Ġm Ã¼
om bia
ac ac
Ġdis or
me al
but yl
Ġpurch ase
Ġneoplas m
Ġatr ium
Ġvig orous
he k
os amine
Ġpro spec
Ġdi ploid
av ies
Ġbil ayer
Ġtac tile
cl ock
Ġneuros ci
Ġelimin ating
frag ment
0 71
5 90
j ee
n ostic
Ġa ic
ti ple
ist ine
Ġpres ynaptic
Ġf olic
res ol
de pressed
Ġstep hen
hydr ation
Ġwebs ites
Ġartem is
. /
c cs
Ġp ss
th ink
lu or
Ġpost prandial
80 3
random ised
Ġbat ches
resid ents
Ġpathogen icity
Ġmask ed
Ġpredis position
5 25
b ens
w l
ol k
ad di
yl van
Ġdys lexia
Ġprolif erating
indic ator
Ġolig omer
Ġrepeat ability
Ġsing h
Ġjusti fy
highl ighted
ur ious
Ġper u
fic ations
Ġharv esting
Ġantico agulant
( <
el o
ag tt
Ġtrans loc
agn er
Ġpol io
aud itory
Ġguarant ee
begin ning
o ter
vi ability
Ġpre ferential
ext reme
screen ed
Ġadvoc acy
s ad
Ġs tern
Ġex piratory
Ġco oking
Ġneuro endocrine
ann ers
Ġaden omas
Ġhol istic
carbohydr ate
Ġveh icles
g esting
Ċ ĠĠĠĠ
Ġd cm
Ġb act
Ġdi urnal
hes da
Ġrelated ness
Ġorder ing
whe at
Ġhoriz on
Ġb di
equ iv
Ġground s
n ick
Ġis otype
pro ach
Ġval ves
Ġsup pressing
Ġ15 6
Ġintra ocular
Ġincid ental
Ġarrhyth mias
m ended
oc ys
Ġdis agreement
Ġ19 71
Ġwaste water
im otor
60 3
75 1
arc he
rogen esis
run ning
orr hea
Ġcollis ion
p etr
r ide
on ium
ab an
Ġch itosan
Ġdis placed
ari ous
Ġinde pen
Ġfram ing
hor ts
h inal
Ġs pro
Ġb ins
un fortunately
Ġv aria
Ġfer ment
hist ology
prelim inary
h ire
con tributed
col i
ĠâĨ ĳ
mers ed
ischem ia
Ġphospholip ids
sug ar
f ailed
us ts
Ġac ta
Ġeff i
Ġop posing
Ġes ters
Ġins pired
Ġcalc ification
Ġadv ancing
sim on
Ġelev ations
statis tic
Ġla unched
ampl ification
Ġces arean
ce le
Ġper mis
Ġinto x
Ġins ula
Ġqual ified
Ġmtor c
opl atin
y am
per ceptions
ong ruent
rna i
Ã© r
Ġanth r
m amm
Ġdis proportion
pro vision
ex ual
calc ulation
avoid ance
Ġmidw ives
6 01
s tig
Ġm ail
per t
Ġle eds
Ġinc arcer
dic ted
combin ations
nutr ient
spe aking
assum ing
Ġaffili ated
reson ance
s omatic
an ic
Ġdis cern
Ġle ica
âĢ¢ ].
Ġsched ules
Ġbring ing
5 45
h ierarch
p ant
Ġy oga
55 1
bene ï¬ģt
sens or
Ġinï¬ģl tration
d bp
Ġdis tri
Ġmo ore
99 6
Ġsl iding
sm ad
Ġagg res
Ġfol ds
Ġfore arm
random ization
Ġfung us
Ġcontrac tions
colle agues
h anded
j k
Ġc rown
Ġc argo
im urium
Ġwe aken
ph ases
Ġes c
Ġpub erty
Ġconf ined
mat urity
Ġtw ofold
Ġfrag mented
Ġsir nas
Ġcorticoster oid
tion ally
Ġd fs
ar is
Ġph o
Ġes rd
Ġlo os
Ġpal ate
fol lic
super nat
ophosph ate
Ġant ec
discr imin
n ent
Ġt all
Ġd ash
Ġh scs
con e
adv ances
Ġque en
Ġexplo it
bsi ella
m ds
Ġn ail
Ġas pergillus
oc er
Ġac cr
iz abeth
ex plicit
inter leukin
Ġgu ardi
Ġhel per
Ġintra uterine
sum ption
chemical s
vacc inated
b ub
Ġres ide
tit le
Ġblock er
Ġhin der
Ġc q
ul ï¬ģ
Ġinter cellular
ond ary
spec tra
Ġ15 7
Ġcontain ers
Ġran ks
cont amination
Ġanis otropy
Ġselen ium
n ano
le i
ue z
ex c
gr a
gr y
Ġindex es
activ ator
Ġinterview er
mul tic
Ġmary land
Ġre volution
uc as
Ġtri angle
Ġdist ortion
Ġdial ogue
bin ed
49 4
Ġsynthe size
Ġmis use
mach ine
Ġchloro form
as tig
Ġex cep
Ġmay be
org ans
Ġvis iting
Ġnan og
breast feeding
Ġdistur bed
Ġneoplas ia
Ġsph ing
Ġc itr
Ġï¬ģ re
98 5
Ġresem ble
Ġcorrec tions
Ġobstac les
Ġpauc ity
0 87
a ï¬Ĥ
s ider
Ġc ep
oc aine
Ġdec id
Ġbr ings
65 7
Ġent om
Ġharbor ing
Ġchris tian
z ole
Ġd aw
Ġl osing
id ol
Ġpar ag
rel apse
Ġanaly tes
Ġlip ase
Ġhydro gels
Ġoper ators
h ir
â İ
Ġm sp
Ġdem ethyl
ner vous
Ġfo am
Ġjoint ly
Ġpolyp s
Ġln crna
y iel
Ġb un
os oma
Ġal f
di p
Ġro ll
pre cise
ov ic
Ġproduc ers
Ġaud ience
Ġhmg b
c hell
n ol
cre ate
Ġtur ns
Ġtermin ated
pap ers
Ġchron ically
oneph ritis
d ong
i en
er ad
ic ated
il ly
th reonine
ag onists
ph ia
immun osup
Ġadap tor
mut ants
Ġadequ acy
Ġlact ation
Ġgtp ase
enrol led
veter inary
g ross
at ct
Ġ( ÃĹ
ot on
Ġk p
ps ala
Ġmulti level
Ġradi ograph
Ġundergo es
few er
cephal y
Ġpsychiatr ists
0 84
0 79
e ed
Ġre si
el imin
Ġl ad
un adjusted
Ġim plied
ang les
Ġout growth
ins ight
equ ally
mut ase
0 83
6 40
e uro
Ġsaf er
peak s
tus sis
merc k
lem ma
Â ¸
Ġal ber
ex pon
ob st
cogn ition
stre ptomycin
] +
g sk
y fp
Ġt idal
uc ker
ri an
Ġassoci ative
tern s
Ġpair ing
dil uted
enrich ment
v ascul
Ġc nt
Ġhe roin
Ġpos ed
Ġ19 2
sc ored
Ġ15 8
tis ts
Ġassist ants
Ġsick le
psycho tics
Ġy an
con ceptual
Ġstr ata
pr ice
000 7
Ġrec alled
Ġintr amuscular
Ġnovel ty
Ġinï¬Ĥu encing
Ġpass ages
bd nf
Ġnons pecific
Ġxen ograft
Ġtal king
6 30
l ind
Ġt rough
Ġf an
and erson
mon itored
Ġindex ed
cyt oplasmic
Ġtun nel
Ġexec uted
wind ow
careg ivers
Ġa vi
Ġm asc
Ġn es
Ġpartic ulate
Ġunder take
Ġtri age
Ġcre am
Ġshort est
Ġphot ons
uz z
Ġglut am
Ġcontribut or
ylvan ia
l ent
Ġp is
Ġall ograft
Ġpsych ol
Ġdeep ly
0000 0000
Ġophthal mic
Ġs api
Ġp ear
ac cordance
Ġwh isk
all oc
Ġcons tric
Ġz hao
Ġ16 2
cg i
Ġorganis ational
Ġod d
plate lets
Ġanalog s
Ġthi ol
Ġthym us
f el
h ans
s por
Ġa is
Ġs sr
ch ris
Ġwe aning
sc ot
Ġinstit ut
Ġminim ise
Ġdys functional
Ġgn rh
ph ae
trol s
rel ations
Ġsequ elae
Ġfl t
clus tering
Ġpi per
Ġconv inc
Ġchaper one
6 47
h og
or ov
our ced
Ġinc u
Ġj ump
Ġpos ter
Ġop ens
ins ically
Ġopportun istic
Ġcreat ine
sal mon
Ġbot tle
Ġham ilton
n est
n ak
z d
Ġf idelity
Ġpro line
19 84
Ġmo unting
lev ision
97 3
prote omics
Ġcontamin ants
k ol
m ens
re tic
Ġim mersion
Ġab stinence
Ġ19 72
Ġ16 3
mm se
Ġrestric tive
Ġhous es
refer ral
Ġamplic on
s plic
Ġc ed
Ġfor k
Ġbe e
Ġbas ement
Ġci pro
Ġelectro chemical
Ġreconstr uctions
Ġappoint ments
industr y
5 15
Ġd ans
Ġf es
cur ves
Ġevery thing
Ġqual ities
main taining
p ump
Ġt ensi
at titudes
ec o
ir radiation
Ġun available
Ġab cam
ex ten
trol led
Ġmulti factorial
Ġsol itary
Ġcd cl
Ġlit term
Ġfulf illed
opportun ity
meet ing
c row
r nas
ul ins
Ġsup pressive
Ġhum oral
aff ecting
Ġsum o
hydro xyl
Ġchlor ophyll
Ġshr ink
Ġpropos als
Ġjose ph
Ġrender ing
or in
Ġd q
Ġg pcr
Ġcon currently
vol ved
cardi omy
inten se
Ġmom ents
Ġanch or
Ġmyco bacterium
Ġcontradict ory
5 11
5 13
f ried
g ation
ï¿½ -
Ġsub sp
Ġbi odegrad
ha emat
Ġdem o
dec om
nas al
Ġbelong ed
Ġsalv age
interfer on
c ock
f is
Ġo z
Ġf um
Ġth ompson
ol ith
pro ton
pro bes
Ġind onesia
acet amol
Ġrearr angement
5 96
we igh
hu a
Ġpred nisone
lat ter
okine tic
Ġexacerb ations
4 36
h on
Ġo edema
im ab
mon oclonal
Ġneuro biology
Ġsl it
Ġref ugees
Ġtub ulin
Ġevery one
Ġpor table
plas m
Ġcaps ules
Ġfric tion
n ap
Ġo u
ak in
ill ips
cor tisol
ros ome
Ġpd gf
cf u
intr insic
Ġdrink ers
observ ational
carri ers
Ġencephal itis
Ġscr utin
Ġendors ed
s ight
Ġd tt
os per
um ann
Ġcr f
bec ame
Ġarchae a
Ġdendr ites
pleas ant
h ift
an um
Ġab brevi
Ġdet ec
under going
Ġconf ident
Ġact u
Ġcri tic
Ġcategor ization
cb t
Ġrub ber
Ġscholar s
fox p
Ġequival ents
Ġpleas ure
oprop yl
Ġc ps
an ut
Ġw rap
ib s
Ġanaly te
Ġcross es
Ġpharmac ist
Ġcation ic
mich ael
Ġb ang
ther more
Ġcons ulted
cess ing
Ġread iness
Ġbios ynthetic
Ġblind ness
Ġradio activity
vin yl
Ġcasc ades
Ġphospholip id
omo tion
bov ine
re aching
le aves
qu ad
ater gic
Ġ17 1
Ġhr p
Ġspermat ozoa
) âĢł
Ġo va
ure ment
Ġdis closed
ca ud
Ġke gg
Ġbrid ging
n il
et c
Ġco valent
all ergic
Ġsy philis
Ġtest es
Ġes i
respon siveness
Ġed s
Ġmedical ly
Ġyear ly
ðĿĳ Ł
gran ul
Ġincid ents
collabor ation
Ġmerc k
n tr
Ġin timate
as tically
Ġst ocks
na Ã¯ve
Ġtim p
Ġradi ography
Ġbil aterally
Ġven om
Ġfertil izer
Ġaneurys ms
Ġubiquit ination
willi ams
e av
Ġs ized
Ġg ast
pl en
cle an
Ġdoc etaxel
âĢĻâĢĻ ,
Ġexternal izing
Ġphysiological ly
Ġcytos keletal
epigene tic
od ia
ot echnology
Ġnec es
Ġwavel engths
6 75
c rop
Ġc ada
am ps
cons ecutive
Ġsepar ating
Ã© e
prom ising
Ġga uge
offs pring
covari ates
a ic
s ler
u tility
Ġ rome
Ġc ash
Ġh oma
rom etry
Ġch ws
pres cri
co il
Ġprim ed
Ġcoll ateral
Ġna oh
w en
ent ric
ol us
pl s
Ġinc is
Ġsp oken
comp rom
Ġâ ©
ero on
Ġimmuno assay
Ġpercenti les
Ġl aryngeal
Ġr ud
Ġ15 9
Ġbu y
Ġabund ances
decre asing
Ġple i
Ġpt x
biot echnology
a ï¬Ģ
p arietal
Ġc ta
19 70
cons isting
Ġgood ness
Ġide ation
Ġcategor ised
Ġemphas izes
Ġfluor ide
Ġshorten ed
Ġmunicip al
Ġallevi ate
p ren
Ġt dp
in et
Ġin vertebr
Ġhe mi
Ġk az
me g
bi oinformatics
ns ylvania
0 81
Ġpre eclampsia
Ġsc ap
Ġ16 9
Ġlo ve
Â° )
interpre ted
Ġbiophys ics
epilep sy
v ital
Ġn it
Ġen os
65 9
Ġhand led
Ġsimpl er
opportun ities
5 95
Ġin quiry
Ġle i
Ġspec ulated
Ġdec eased
Ġ% ;
get ting
Ġround ed
cover ing
school s
kine tic
Ġscot t
ostatis tics
od iazep
ch olester
cons ervation
Ġrele asing
Ġphysi ol
Ġfox o
Ġque ens
occup ation
Ġnoc turnal
t ine
Ġt readmill
id us
im an
Ġun wanted
Ġap pli
lec ular
sur rounding
Ġele mental
inhib it
Ġground water
Ġthal amic
Ġbund les
Ġbiotin ylated
d ye
f ind
Ġh ug
Ġn v
im mer
Ġg ets
Ġj eff
bi op
67 6
Ġincorpor ates
unit inib
nec rosis
distrib utions
Ġvirgin ia
e yes
Ġin os
Ġam enable
Ġindividual ized
Ġpul s
fl av
larg est
electr ical
elev ation
Ġefï¬ģcient ly
ec ology
Ġprot ons
55 8
Ġcombin a
sup ply
Ġlacto bacillus
Ġgeorg ia
othor ax
w el
cl ark
Ġexam ines
57 1
Ġcomm ens
Ġct l
Ġaltern ating
Ġhemat oma
dig it
pine phrine
Ġrend ered
Ġimmunos orbent
in her
Ġf ing
Ġl eng
Ġrel uct
ha ir
inj e
Ġneurotransmit ter
Ġbifur cation
d api
y zed
ur onic
ĠĠ ĊĠĊĠ
cm r
chrom osomal
5 75
7 05
le ak
st m
Ġsh ot
Ġthan ks
Ġadmin ister
Ġimpul sivity
Ġal ginate
Ġtr aps
Ġï¿½ ï¿½
Ġsatis fy
7 90
v ectors
und ice
ph on
na e
Ġdec on
trac heal
Ġhel ical
Ġinstr uct
Ġpolym eric
Ġpros thetic
Ġrus sian
inser tion
h of
Ï Ĩ
out patient
Ġam ide
dis pens
55 6
65 8
sub set
Ġtrack ed
Ġfibro us
increasing ly
alcohol ic
d ur
not ch
inter act
70 8
58 4
Ġdoc u
wr iting
Ġconstitu ent
lac z
Ġphotos ynthetic
usp id
e if
y our
Ġp ie
Ġd oxycycline
le thal
Ġus ability
be at
Ġvis ibility
58 9
Ġprob ing
Ġred undant
flu orescent
home ostasis
g ot
Ġis f
se psis
vi able
Ġob lique
fer r
Ġneuro psychiatric
78 7
Ġhaem orrhage
Ġencaps ulated
Ġportug al
Ġpedig ree
Ġh arris
Ġv imentin
oc cip
tim ately
Ġdem yel
Ġil c
Ġimpair s
Ġheight ened
Ġolig omers
adel phia
c bs
Ġp gr
Ġe ug
Ġr ick
Ġj ew
Ġj ane
Ġir f
inj uries
phenomen on
Ġacqu iring
Ġs old
Ġo mn
ed ia
Ġf v
ia a
its elf
Ġgly can
gly cine
Ġreï¬Ĥ ex
Ġseem ingly
demonstr ating
Ġchen g
assum ption
b am
Ġo ss
Ġdis close
Ġgen otypic
Ġprim itive
tis one
Ġrecogn ise
0 91
at tract
Ġh gf
ot onic
Ġr ivers
ech st
ide al
ox o
fic ient
Ġmuc in
Ġvas odil
Ġrb cs
Ġrho a
re generation
th a
ati te
ex cess
supplement ation
Ġwal ker
Ġstabil izing
Ġcathe psin
Ġspectrophot ometer
n iques
Ġw ax
under go
Ġdel phi
Ġ16 7
ick ed
Ġplas min
sign ed
agg ressive
Ġnad h
influ enza
Ġheterozyg osity
l ite
Ġh pf
Ġpl ga
atis m
Ġmat the
Ġaden o
p ots
r ule
w v
ing ual
ter istics
vi le
Ġk pa
Ġag grav
Ġï¬ģ s
Ġloc ate
Ġminim ized
my co
Ġdep ict
Ġdiagram s
Ġphy to
Ġamplic ons
architect ure
5 16
5 35
o uter
Ġs her
un able
Ġpar ti
Ġsub family
Ġbl and
bin d
Ġï¬ģl tration
bios cience
lock ed
Ġsulph ate
Ġsna il
q rt
Ġrec og
Ġstim u
Ġmill ipore
Ġhox a
Ġscaven ging
8 50
b row
Ġt ears
Ġa hr
es arean
Ġre lying
the me
ch ondri
Ġsc rap
anal og
Ġeven ly
Ġlic ence
Ġacces sions
Ġrein force
Ġrefin ement
0 76
r ith
Ġc ct
ph ones
Ġsp heres
br anch
do ub
edic ine
challeng ing
l able
m k
m urine
o ub
v ices
Ġc dr
Ġnon parametric
Ġmen opause
Ġtransform ations
compe titive
di ag
Ġmet eor
Ġro ss
Ġsup ra
Ġutilis ation
p ore
Ġa rom
to oth
Ġco v
Ġcl av
Ġmal t
67 1
treat ing
knock out
Ġosteoc lasts
Ġarte facts
r ise
s ay
Ġre habil
ab use
con jug
con sequence
Ġbl inding
mod ule
amin ophen
Ġintro duc
Ġechocardi ographic
Ġrect um
complement ary
istinguish able
c ia
Ġan te
Ġb pm
em t
ob jects
Ġobj ectively
indi an
gly coprotein
Ġmanip ulated
Ġweakness es
synon ym
Ġn gf
Ġex ported
Ġac ted
Ġmon oc
Ġev ans
Ġhyper trophic
phosph atase
Ġchem ilum
Ġonc ogene
angi otensin
intern et
Ġlon eliness
Ġburn out
Ġr idge
iti zed
go als
erv ative
Ġflu ency
Ġprofession s
ĠðĿĳ ¡
Ġsubstit ute
Ġleishman ia
0 93
min ing
ns clc
Ġprob and
bec omes
mill an
exhib it
Ġgent le
Ġv ii
ger m
doc tors
frag ments
v ular
Ġde grade
Ġk c
Ġsub divided
co horts
Ġbur ns
Ġthreat ening
Ġadvance ment
Ġc ili
Ġg ay
Ġg ases
ap o
olog ie
Ġall osteric
Ġaf p
Ġcar ibbean
Ġec zema
Ġbio ethics
0 82
Ġd izz
Ġb ite
Ġcar l
ry st
99 7
Ġ17 7
Ġrest or
j ul
oc arcin
com posed
Ġgener ator
hom ologous
otrop in
Ġconï¬ģrm ing
Ġconjug ation
osc ale
Ġlenti viral
9 95
g ust
Ġd x
ul ous
Ġ2 25
Ġar ach
Ġbal timore
Ġepigene tics
person ality
rc ts
Ġhomolog s
Ġsolub il
Ġaliqu ot
Ġnotice able
m z
up regulated
Ġpre requisite
Ġap ple
trans pos
55 7
Ġpur pos
Ġerr one
Ġic am
li oma
esthe tic
b uc
d og
k inje
n arrow
Ġa ed
Ġs aving
Ġc ations
Ġl bp
val ently
oin ted
Ġhypothe sised
brid ement
dist ress
Ġcompens ated
l id
on oid
Ġl rp
Ġg dm
pro ve
Ġï¬Ĥ uctuations
go at
Ġdiver tic
buil t
Ġdizz iness
d rosophila
u tic
Ġï¬ģ bre
99 3
Ġer as
Ġ18 5
cap able
swit ch
nanop articles
g iving
in complete
Ġf ec
le ms
ag ency
pl ing
Ġcomp elling
tiv al
tal k
Ġout flow
Ġdec iding
Ġz imbabwe
Ġcompet e
astic ity
Ġinoc ulum
polic ies
g was
ti ter
Ġal dh
Ġend ing
Ġz ambia
Ġradi ol
Ġshort age
car tilage
del ta
lip tin
Ġhs ct
sin us
constr ucted
Ġcaud ate
Ġmultim odal
Ġfabric ation
Ġcathe ters
pil ot
d cs
ore pinephrine
Ġmon etary
fa ult
indic ation
Ġsuperior ity
Ġdim ers
Ġinherent ly
Ġwarr ant
Ġbuc cal
5 67
Ġtrans mis
ne ous
pa id
Ġwhere in
ins ka
68 7
Ġ17 2
Ġfre t
cyt oplasm
Ġppar Î³
5 48
b atch
Ġm se
Ġth ri
ans as
Ġsub population
57 8
acryl ate
0 89
Ġo g
Ġo ven
an ics
tion ing
Ġe o
Ġ[ (
Ġse pa
ip r
Ġun successful
ser ve
Ġel d
Ġoste osarcoma
Ġarch ives
Ġfav ored
im per
ign iï¬ģcant
Ġgu an
57 3
Ġkin et
Ġlat encies
oplas ma
Ġatten uate
thir ty
deple tion
z am
Ġf en
Ġun c
Ġph ar
Ġsp iking
pan ze
tub ule
Ġtensi le
Ġd dr
id ic
ik o
Ġsil va
Ġlys o
anth in
Ġcub ic
Ġrhin itis
c et
Ġm ts
ad ec
Ġch in
end or
Ġun explained
de pos
sp ac
position ing
Ġneigh bors
ctr l
Ġs iv
[...]
