{
  "version": "1.0",
  "truncation": null,
  "padding": null,
  "added_tokens": [
    {
      "id": 0,
      "content": "<s>",
      "single_word": false,
      "lstrip": false,
      "rstrip": false,
      "normalized": true,
      "special": true
    },
    {
      "id": 1,
      "content": "<pad>",
      "single_word": false,
      "lstrip": false,
      "rstrip": false,
      "normalized": true,
      "special": true
    },
    {
      "id": 2,
      "content": "</s>",
      "single_word": false,
      "lstrip": false,
      "rstrip": false,
      "normalized": true,
      "special": true
    },
    {
      "id": 3,
      "content": "<unk>",
      "single_word": false,
      "lstrip": false,
      "rstrip": false,
      "normalized": true,
      "special": true
    },
    {
      "id": 4,
      "content": "<mask>",
      "single_word": false,
      "lstrip": true,
      "rstrip": false,
      "normalized": true,
      "special": true
    }
  ],
  "normalizer": null,
  "pre_tokenizer": {
    "type": "ByteLevel",
    "add_prefix_space": true,
    "trim_offsets": true,
    "use_regex": true
  },
  "post_processor": {
    "type": "RobertaProcessing",
    "sep": [
      "</s>",
      2
    ],
    "cls": [
      "<s>",
      0
    ],
    "trim_offsets": true,
    "add_prefix_space": true
  },
  "decoder": {
    "type": "ByteLevel",
    "add_prefix_space": true,
    "trim_offsets": true,
    "use_regex": true
  },
  "model": {
    "type": "BPE",
    "dropout": null,
    "unk_token": null,
    "continuing_subword_prefix": "",
    "end_of_word_suffix": "",
    "fuse_unk": false,
    "vocab": {
      "<s>": 0,
      "<pad>": 1,
      "</s>": 2,
      "<unk>": 3,
      "<mask>": 4,
      "!": 5,
      "\"": 6,
      "#": 7,
      "$": 8,
      "%": 9,
      "&": 10,
      "'": 11,
      "(": 12,
      ")": 13,
      "*": 14,
      "+": 15,
      ",": 16,
      "-": 17,
      ".": 18,
      "/": 19,
      "0": 20,
      "1": 21,
      "2": 22,
      "3": 23,
      "4": 24,
      "5": 25,
      "6": 26,
      "7": 27,
      "8": 28,
      "9": 29,
      ":": 30,
      ";": 31,
      "<": 32,
      "=": 33,
      ">": 34,
      "?": 35,
      "@": 36,
      "A": 37,
      "B": 38,
      "C": 39,
      "D": 40,
      "E": 41,
      "F": 42,
      "G": 43,
      "H": 44,
      "I": 45,
      "J": 46,
      "K": 47,
      "L": 48,
      "M": 49,
      "N": 50,
      "O": 51,
      "P": 52,
      "Q": 53,
      "R": 54,
      "S": 55,
      "T": 56,
      "U": 57,
      "V": 58,
      "W": 59,
      "X": 60,
      "Y": 61,
      "Z": 62,
      "[": 63,
      "\\": 64,
      "]": 65,
      "^": 66,
      "_": 67,
      "`": 68,
      "a": 69,
      "b": 70,
      "c": 71,
      "d": 72,
      "e": 73,
      "f": 74,
      "g": 75,
      "h": 76,
      "i": 77,
      "j": 78,
      "k": 79,
      "l": 80,
      "m": 81,
      "n": 82,
      "o": 83,
      "p": 84,
      "q": 85,
      "r": 86,
      "s": 87,
      "t": 88,
      "u": 89,
      "v": 90,
      "w": 91,
      "x": 92,
      "y": 93,
      "z": 94,
      "{": 95,
      "|": 96,
      "}": 97,
      "~": 98,
      "¡": 99,
      "¢": 100,
      "£": 101,
      "¤": 102,
      "¥": 103,
      "¦": 104,
      "§": 105,
      "¨": 106,
      "©": 107,
      "ª": 108,
      "«": 109,
      "¬": 110,
      "®": 111,
      "¯": 112,
      "°": 113,
      "±": 114,
      "²": 115,
      "³": 116,
      "´": 117,
      "µ": 118,
      "¶": 119,
      "·": 120,
      "¸": 121,
      "¹": 122,
      "º": 123,
      "»": 124,
      "¼": 125,
      "½": 126,
      "¾": 127,
      "¿": 128,
      "À": 129,
      "Á": 130,
      "Â": 131,
      "Ã": 132,
      "Ä": 133,
      "Å": 134,
      "Æ": 135,
      "Ç": 136,
      "È": 137,
      "É": 138,
      "Ê": 139,
      "Ë": 140,
      "Ì": 141,
      "Í": 142,
      "Î": 143,
      "Ï": 144,
      "Ð": 145,
      "Ñ": 146,
      "Ò": 147,
      "Ó": 148,
      "Ô": 149,
      "Õ": 150,
      "Ö": 151,
      "×": 152,
      "Ø": 153,
      "Ù": 154,
      "Ú": 155,
      "Û": 156,
      "Ü": 157,
      "Ý": 158,
      "Þ": 159,
      "ß": 160,
      "à": 161,
      "á": 162,
      "â": 163,
      "ã": 164,
      "ä": 165,
      "å": 166,
      "æ": 167,
      "ç": 168,
      "è": 169,
      "é": 170,
      "ê": 171,
      "ë": 172,
      "ì": 173,
      "í": 174,
      "î": 175,
      "ï": 176,
      "ð": 177,
      "ñ": 178,
      "ò": 179,
      "ó": 180,
      "ô": 181,
      "õ": 182,
      "ö": 183,
      "÷": 184,
      "ø": 185,
      "ù": 186,
      "ú": 187,
      "û": 188,
      "ü": 189,
      "ý": 190,
      "þ": 191,
      "ÿ": 192,
      "Ā": 193,
      "ā": 194,
      "Ă": 195,
      "ă": 196,
      "Ą": 197,
      "ą": 198,
      "Ć": 199,
      "ć": 200,
      "Ĉ": 201,
      "ĉ": 202,
      "Ċ": 203,
      "ċ": 204,
      "Č": 205,
      "č": 206,
      "Ď": 207,
      "ď": 208,
      "Đ": 209,
      "đ": 210,
      "Ē": 211,
      "ē": 212,
      "Ĕ": 213,
      "ĕ": 214,
      "Ė": 215,
      "ė": 216,
      "Ę": 217,
      "ę": 218,
      "Ě": 219,
      "ě": 220,
      "Ĝ": 221,
      "ĝ": 222,
      "Ğ": 223,
      "ğ": 224,
      "Ġ": 225,
      "ġ": 226,
      "Ģ": 227,
      "ģ": 228,
      "Ĥ": 229,
      "ĥ": 230,
      "Ħ": 231,
      "ħ": 232,
      "Ĩ": 233,
      "ĩ": 234,
      "Ī": 235,
      "ī": 236,
      "Ĭ": 237,
      "ĭ": 238,
      "Į": 239,
      "į": 240,
      "İ": 241,
      "ı": 242,
      "Ĳ": 243,
      "ĳ": 244,
      "Ĵ": 245,
      "ĵ": 246,
      "Ķ": 247,
      "ķ": 248,
      "ĸ": 249,
      "Ĺ": 250,
      "ĺ": 251,
      "Ļ": 252,
      "ļ": 253,
      "Ľ": 254,
      "ľ": 255,
      "Ŀ": 256,
      "ŀ": 257,
      "Ł": 258,
      "ł": 259,
      "Ń": 260,
      "Ġt": 261,
      "Ġa": 262,
      "in": 263,
      "re": 264,
      "he": 265,
      "on": 266,
      "ti": 267,
      "en": 268,
      "er": 269,
      "Ġs": 270,
      "Ġthe": 271,
      "Ġo": 272,
      "Ġc": 273,
      "al": 274,
      "ed": 275,
      "Ġp": 276,
      "es": 277,
      "or": 278,
      "at": 279,
      "Ġin": 280,
      "an": 281,
      "Ġw": 282,
      "Ġan": 283,
      "is": 284,
      "Ġof": 285,
      "Ġm": 286,
      "it": 287,
      "tion": 288,
      "ro": 289,
      "Ġd": 290,
      "Ġf": 291,
      "ar": 292,
      "Ġb": 293,
      "as": 294,
      "Ġand": 295,
      "ic": 296,
      "ing": 297,
      "le": 298,
      "Ġ(": 299,
      "ent": 300,
      "Ġe": 301,
      "Ġre": 302,
      "Ġto": 303,
      "us": 304,
      "el": 305,
      "ation": 306,
      "om": 307,
      "ac": 308,
      "Ġh": 309,
      "Ġn": 310,
      "ec": 311,
      "Ġth": 312,
      "ul": 313,
      "ol": 314,
      "Ġl": 315,
      "et": 316,
      "ur": 317,
      "os": 318,
      "ig": 319,
      "un": 320,
      "id": 321,
      "ve": 322,
      "im": 323,
      "Ġg": 324,
      "ly": 325,
      "ere": 326,
      "ith": 327,
      "il": 328,
      "âĢ": 329,
      "ce": 330,
      "the": 331,
      "th": 332,
      "tr": 333,
      "Ġfor": 334,
      "Ġ2": 335,
      "res": 336,
      "Ġ1": 337,
      "ter": 338,
      "Ġwith": 339,
      "Ġal": 340,
      "am": 341,
      "Ġas": 342,
      "ab": 343,
      "ow": 344,
      "Ġcon": 345,
      "ati": 346,
      "Ġv": 347,
      "Ġst": 348,
      "ts": 349,
      "Ġpro": 350,
      "Ġis": 351,
      "ut": 352,
      "uc": 353,
      "od": 354,
      "um": 355,
      "ag": 356,
      "if": 357,
      "00": 358,
      "tic": 359,
      "ot": 360,
      "ity": 361,
      "Ġr": 362,
      "em": 363,
      "Ġon": 364,
      "oc": 365,
      "ver": 366,
      "ad": 367,
      "Ġbe": 368,
      "Ġex": 369,
      "se": 370,
      "ated": 371,
      "ud": 372,
      "st": 373,
      "si": 374,
      "ir": 375,
      "Ġwas": 376,
      "op": 377,
      "ment": 378,
      ").": 379,
      "Ġthat": 380,
      "ate": 381,
      "Ġwere": 382,
      "ted": 383,
      "ain": 384,
      "qu": 385,
      "og": 386,
      "ure": 387,
      "ap": 388,
      "and": 389,
      "ri": 390,
      "up": 391,
      "Ġcom": 392,
      "ï¬": 393,
      "01": 394,
      "ell": 395,
      "Ġac": 396,
      "Ġor": 397,
      "rom": 398,
      "ay": 399,
      "Ġby": 400,
      "Ġus": 401,
      "Ġ[": 402,
      "ch": 403,
      "ical": 404,
      "pl": 405,
      "Ġat": 406,
      "ess": 407,
      "Ġare": 408,
      "ant": 409,
      "Ġres": 410,
      "Ġde": 411,
      "ents": 412,
      "Ġch": 413,
      "ore": 414,
      "âĢĵ": 415,
      "ine": 416,
      "di": 417,
      "ub": 418,
      "ï¬ģ": 419,
      "ers": 420,
      "vel": 421,
      "und": 422,
      "Ġdis": 423,
      "Ġwh": 424,
      "ies": 425,
      "Ġhe": 426,
      "for": 427,
      "Ġfrom": 428,
      "por": 429,
      "ase": 430,
      "Ġthis": 431,
      "cl": 432,
      "Ġse": 433,
      "are": 434,
      "igh": 435,
      "Ġ3": 436,
      "ther": 437,
      "Ġim": 438,
      "able": 439,
      "pec": 440,
      "ug": 441,
      "pro": 442,
      "Ġstud": 443,
      "Ġad": 444,
      "ff": 445,
      "),": 446,
      "sion": 447,
      "ib": 448,
      "per": 449,
      "Ġet": 450,
      "ip": 451,
      "Ġcomp": 452,
      "te": 453,
      "ence": 454,
      "].": 455,
      "Ġsh": 456,
      "ign": 457,
      "vi": 458,
      "ations": 459,
      "Ġle": 460,
      "Ġtr": 461,
      "iz": 462,
      "duc": 463,
      "Ġwe": 464,
      "ys": 465,
      "ge": 466,
      "Ġpre": 467,
      "ous": 468,
      "Ġ0": 469,
      "Ġk": 470,
      "Ġne": 471,
      "end": 472,
      "Ġper": 473,
      "to": 474,
      "Ġ201": 475,
      "Ġnot": 476,
      "tive": 477,
      "Ġit": 478,
      "Ġcell": 479,
      "ons": 480,
      "age": 481,
      "we": 482,
      "ĠĠ": 483,
      "Ġco": 484,
      "est": 485,
      "ich": 486,
      "Ġpati": 487,
      "ph": 488,
      "act": 489,
      "ial": 490,
      "Ġgen": 491,
      "eren": 492,
      "Ġpar": 493,
      "ans": 494,
      "tions": 495,
      "com": 496,
      "iv": 497,
      "pres": 498,
      "olog": 499,
      "ia": 500,
      "ary": 501,
      "of": 502,
      "feren": 503,
      "ave": 504,
      "pt": 505,
      "Ġass": 506,
      "Ġcl": 507,
      "form": 508,
      "Ġ4": 509,
      "âĢĻ": 510,
      "ist": 511,
      "Ġsc": 512,
      "yp": 513,
      "Ġun": 514,
      "ance": 515,
      "Ġcan": 516,
      "Ġ5": 517,
      "vid": 518,
      "Ġap": 519,
      "our": 520,
      "enti": 521,
      "de": 522,
      "Ġ.": 523,
      "10": 524,
      "ple": 525,
      "tro": 526,
      "lec": 527,
      "ors": 528,
      "all": 529,
      "Ġdif": 530,
      "her": 531,
      "ost": 532,
      "ari": 533,
      "Ġdi": 534,
      "ect": 535,
      "ak": 536,
      "Ġgro": 537,
      "enc": 538,
      "Ġinter": 539,
      "Ġme": 540,
      "ative": 541,
      "ally": 542,
      "ue": 543,
      "Ġab": 544,
      "ach": 545,
      "Ġy": 546,
      "¿½": 547,
      "ï¿½": 548,
      "tiv": 549,
      "ion": 550,
      "Ġhave": 551,
      "ata": 552,
      "ased": 553,
      "Ġpatients": 554,
      "Ġ=": 555,
      "Ġall": 556,
      "Ġwhich": 557,
      "reat": 558,
      "Ġstudy": 559,
      "ill": 560,
      "Ġsy": 561,
      "ular": 562,
      "Ġpl": 563,
      "Ġinc": 564,
      "ween": 565,
      "cri": 566,
      "ear": 567,
      "ong": 568,
      "Ġbet": 569,
      "ren": 570,
      "Ġsign": 571,
      "so": 572,
      "ast": 573,
      "Ġph": 574,
      "Âł": 575,
      "Ġmod": 576,
      "ight": 577,
      "Ġanal": 578,
      "Ġmet": 579,
      "Ġcons": 580,
      "Ġj": 581,
      "val": 582,
      "ific": 583,
      "ory": 584,
      "ĠÂ": 585,
      "ding": 586,
      "Ġman": 587,
      "Ġen": 588,
      "tim": 589,
      "uld": 590,
      "ose": 591,
      "ved": 592,
      "Ġthese": 593,
      "Ġwhe": 594,
      "Ġob": 595,
      "Ġar": 596,
      "alth": 597,
      "ber": 598,
      "con": 599,
      "Ġsub": 600,
      ".,": 601,
      "Ġdifferen": 602,
      "clud": 603,
      "Ġmed": 604,
      "Ġ200": 605,
      "port": 606,
      "12": 607,
      "low": 608,
      "Ġbetween": 609,
      "Ġshow": 610,
      "Ġreg": 611,
      "ugh": 612,
      "na": 613,
      "Ġ6": 614,
      "ass": 615,
      "ual": 616,
      "ates": 617,
      "Ġeff": 618,
      "Ġdata": 619,
      "oci": 620,
      "ult": 621,
      "cent": 622,
      "Ġgroup": 623,
      "Ġpres": 624,
      "pon": 625,
      "par": 626,
      "Ġcells": 627,
      "fig": 628,
      "ew": 629,
      "ex": 630,
      "ms": 631,
      "co": 632,
      "tain": 633,
      "one": 634,
      "Ġstr": 635,
      "ï¬ģc": 636,
      "ard": 637,
      "ome": 638,
      "11": 639,
      "mo": 640,
      "Ġalso": 641,
      "Ġsam": 642,
      "Ġno": 643,
      "ath": 644,
      "ail": 645,
      "cess": 646,
      "dic": 647,
      "ven": 648,
      "ang": 649,
      "Ġusing": 650,
      "ility": 651,
      "ct": 652,
      "Ġqu": 653,
      "Ġrel": 654,
      "Ġro": 655,
      "Ġspec": 656,
      "Ġbeen": 657,
      "ound": 658,
      "Ġhas": 659,
      "Ġused": 660,
      "âĪ": 661,
      "ten": 662,
      "min": 663,
      "Ġmore": 664,
      "Ġanalys": 665,
      "Ġcor": 666,
      "ood": 667,
      "Ġaf": 668,
      "pos": 669,
      "Ġbi": 670,
      "ely": 671,
      "uth": 672,
      "Ġother": 673,
      "gen": 674,
      "Ġtrans": 675,
      "ults": 676,
      "wo": 677,
      "uch": 678,
      "iti": 679,
      "Ġtheir": 680,
      "out": 681,
      "Ġpr": 682,
      "Ġsur": 683,
      "Ġthere": 684,
      "Ġhealth": 685,
      "Ġdet": 686,
      "Ġtim": 687,
      "under": 688,
      "trol": 689,
      "Ġincre": 690,
      "ater": 691,
      "ĠâĢ": 692,
      "Ġinf": 693,
      "gr": 694,
      "unc": 695,
      "ree": 696,
      "ork": 697,
      "tein": 698,
      "Ġbo": 699,
      "ser": 700,
      "ob": 701,
      "red": 702,
      "Ġpos": 703,
      "cor": 704,
      "ne": 705,
      "Ġmay": 706,
      "aus": 707,
      "15": 708,
      "13": 709,
      "tional": 710,
      "Ġcol": 711,
      "ases": 712,
      "Ġthan": 713,
      "ces": 714,
      "Ġlevel": 715,
      "ants": 716,
      "ulation": 717,
      "reatment": 718,
      "ech": 719,
      "Ġvari": 720,
      "ĊĠ": 721,
      "ĠÂ±": 722,
      "Ġdes": 723,
      "%)": 724,
      "Ġsp": 725,
      "cer": 726,
      "Ġ10": 727,
      "ide": 728,
      "20": 729,
      "Ġpartic": 730,
      "Ġ7": 731,
      "14": 732,
      "Ġi": 733,
      "ects": 734,
      "rap": 735,
      "ating": 736,
      "ros": 737,
      "ures": 738,
      "trib": 739,
      "ology": 740,
      "ep": 741,
      "Ġval": 742,
      "Ġinclud": 743,
      "yl": 744,
      "mun": 745,
      "19": 746,
      "Ġag": 747,
      "ution": 748,
      "201": 749,
      "iver": 750,
      "tal": 751,
      "br": 752,
      "Ġam": 753,
      "ied": 754,
      "Ġhow": 755,
      "arch": 756,
      "Ġunder": 757,
      "Ġmodel": 758,
      "Ġone": 759,
      "ens": 760,
      "ack": 761,
      "stem": 762,
      "hed": 763,
      "Ġafter": 764,
      "âĪĴ": 765,
      "Ġtwo": 766,
      "Ġhigh": 767,
      "Ġbut": 768,
      "Ġsup": 769,
      "mal": 770,
      "velop": 771,
      "Ġ9": 772,
      "ollow": 773,
      "ice": 774,
      "ds": 775,
      "ection": 776,
      "pression": 777,
      "Ġbl": 778,
      "ik": 779,
      "hod": 780,
      "ild": 781,
      "uring": 782,
      "Ġmo": 783,
      "16": 784,
      "Ġinv": 785,
      "Ġeach": 786,
      "Ġout": 787,
      "Ġstudies": 788,
      "Ġï¬ģ": 789,
      "Ġover": 790,
      "rel": 791,
      "me": 792,
      "tivity": 793,
      "Ġ19": 794,
      "ever": 795,
      "ared": 796,
      "av": 797,
      "ile": 798,
      "Ġnum": 799,
      "ues": 800,
      "with": 801,
      "Ġanalysis": 802,
      "der": 803,
      "arg": 804,
      "les": 805,
      "cur": 806,
      "Ġlow": 807,
      "Ġclin": 808,
      "Ġ8": 809,
      "ace": 810,
      "ould": 811,
      "vely": 812,
      "18": 813,
      "Ġtime": 814,
      "Ġcontrol": 815,
      "Ġtreatment": 816,
      "Ġuse": 817,
      "ble": 818,
      "ĠĠĠĠ": 819,
      "ite": 820,
      "Ġassoci": 821,
      "ting": 822,
      "25": 823,
      "Ġsim": 824,
      "17": 825,
      "Ġid": 826,
      "ered": 827,
      "Ġprotein": 828,
      "als": 829,
      "Ġcar": 830,
      "Ġdec": 831,
      "Ġmeas": 832,
      "acter": 833,
      "ays": 834,
      "med": 835,
      "sy": 836,
      "Ġboth": 837,
      "Ġsuch": 838,
      "be": 839,
      "ears": 840,
      "Ġexper": 841,
      "ized": 842,
      "Ġfollow": 843,
      "ox": 844,
      "ported": 845,
      "Ġanti": 846,
      "ond": 847,
      "Ġser": 848,
      "duction": 849,
      "iï¬ģc": 850,
      "Ġfact": 851,
      "cr": 852,
      "str": 853,
      "ange": 854,
      "Ġdise": 855,
      "inal": 856,
      "nal": 857,
      "mon": 858,
      "table": 859,
      "Ġhad": 860,
      "Ġrese": 861,
      "Ġop": 862,
      "ric": 863,
      "Ġdevelop": 864,
      "af": 865,
      "ificant": 866,
      "ï¬Ĥ": 867,
      "Ġresults": 868,
      "Ġsystem": 869,
      "ological": 870,
      "50": 871,
      "ype": 872,
      "sc": 873,
      "ition": 874,
      "atic": 875,
      "tical": 876,
      "isk": 877,
      "lis": 878,
      "Ġmin": 879,
      "ma": 880,
      "Ġmon": 881,
      "Ġappro": 882,
      "duced": 883,
      "Ġthey": 884,
      "osis": 885,
      "Ġonly": 886,
      "ments": 887,
      "ational": 888,
      "Ġdr": 889,
      "Ġour": 890,
      "uthor": 891,
      "pend": 892,
      "fore": 893,
      "sh": 894,
      "pe": 895,
      "Ġprovid": 896,
      "ability": 897,
      "ale": 898,
      "now": 899,
      "Ġem": 900,
      "30": 901,
      "plic": 902,
      "Ġgene": 903,
      "Ġnumber": 904,
      "ected": 905,
      "Ġmethod": 906,
      "Ġfunc": 907,
      "fer": 908,
      "Ġperform": 909,
      "ium": 910,
      "24": 911,
      "ogen": 912,
      "anc": 913,
      "Ġduring": 914,
      "Ġresearch": 915,
      "Ġdifferent": 916,
      "oin": 917,
      "view": 918,
      "pre": 919,
      "Ġup": 920,
      "Ġcr": 921,
      "Ġpresent": 922,
      "Ġclinical": 923,
      "ited": 924,
      "Ġhowever": 925,
      "Ġwho": 926,
      "agn": 927,
      "hen": 928,
      "Ġidenti": 929,
      "ature": 930,
      "sity": 931,
      "Ġmost": 932,
      "iss": 933,
      "Ġtest": 934,
      "Ġrespon": 935,
      "Ġgener": 936,
      "Ġobser": 937,
      "Ġnon": 938,
      "Ġwhen": 939,
      "Ġindi": 940,
      "tit": 941,
      "its": 942,
      "uct": 943,
      "Ġinto": 944,
      "Ġes": 945,
      "atory": 946,
      "Ġbr": 947,
      "itive": 948,
      "ough": 949,
      "23": 950,
      "Ġparticip": 951,
      "ark": 952,
      "Ġexam": 953,
      "hy": 954,
      "lic": 955,
      "Ġsignificant": 956,
      "Ġfound": 957,
      "figure": 958,
      "ise": 959,
      "Ġdo": 960,
      "ian": 961,
      "Ġgl": 962,
      "Ġav": 963,
      "22": 964,
      "cript": 965,
      "Ġcomple": 966,
      "ress": 967,
      "ency": 968,
      "ym": 969,
      "ause": 970,
      "âĢĿ": 971,
      "Ġfr": 972,
      "Ġma": 973,
      "rough": 974,
      "Ġins": 975,
      "Ġwork": 976,
      "bi": 977,
      "Ġindic": 978,
      "Ġwell": 979,
      "Ġsec": 980,
      "uro": 981,
      "Ġpol": 982,
      "action": 983,
      "tern": 984,
      "Ġage": 985,
      "Ġrisk": 986,
      "ery": 987,
      "ute": 988,
      "Ġcy": 989,
      "ization": 990,
      "dition": 991,
      "tin": 992,
      "05": 993,
      "Ġdisease": 994,
      "tt": 995,
      "ha": 996,
      "cept": 997,
      "hem": 998,
      "til": 999,
      "Ġmeasure": 1000,
      "Ġhig": 1001,
      "ie": 1002,
      "ps": 1003,
      "hib": 1004,
      "led": 1005,
      "tics": 1006,
      "Ġend": 1007,
      "pa": 1008,
      "vidual": 1009,
      "Ġyears": 1010,
      "Ġmanus": 1011,
      "Ġlevels": 1012,
      "wh": 1013,
      "vious": 1014,
      "ines": 1015,
      "40": 1016,
      "Ġits": 1017,
      "Ġassess": 1018,
      "ugg": 1019,
      "formation": 1020,
      "Ġpub": 1021,
      "Ġnor": 1022,
      "Ġfe": 1023,
      "gro": 1024,
      "man": 1025,
      "urther": 1026,
      "ix": 1027,
      "Ġmic": 1028,
      "Ġu": 1029,
      "Ġchild": 1030,
      "Ġgr": 1031,
      "26": 1032,
      "Ġexpression": 1033,
      "lu": 1034,
      "atis": 1035,
      "Ġpop": 1036,
      "27": 1037,
      "Ġreported": 1038,
      "old": 1039,
      "ive": 1040,
      "Ġpatient": 1041,
      "28": 1042,
      "ages": 1043,
      "reg": 1044,
      "spec": 1045,
      "Ġpath": 1046,
      "200": 1047,
      "Ġif": 1048,
      "Ġcare": 1049,
      "ilar": 1050,
      "Ġoc": 1051,
      "21": 1052,
      "Ġcent": 1053,
      "Ġint": 1054,
      "ties": 1055,
      "ital": 1056,
      "Ġwill": 1057,
      "pr": 1058,
      "],": 1059,
      "ential": 1060,
      "ples": 1061,
      "Ġprocess": 1062,
      "Ġsome": 1063,
      "ks": 1064,
      "Ġhum": 1065,
      "met": 1066,
      "no": 1067,
      "ived": 1068,
      "ane": 1069,
      "ust": 1070,
      "Ġloc": 1071,
      "Ġthree": 1072,
      "29": 1073,
      "bin": 1074,
      "Ġcompared": 1075,
      "centr": 1076,
      "Ġform": 1077,
      "Ġmanuscript": 1078,
      "ize": 1079,
      "ade": 1080,
      "Ġbec": 1081,
      "Ġso": 1082,
      "qui": 1083,
      "Ġhy": 1084,
      "ions": 1085,
      "Ġcur": 1086,
      "fic": 1087,
      "Ġcancer": 1088,
      "Ġcal": 1089,
      "100": 1090,
      "ĠÎ": 1091,
      "Ġdem": 1092,
      "rent": 1093,
      "pati": 1094,
      "Ġeffect": 1095,
      "ww": 1096,
      "Ġwithin": 1097,
      "adi": 1098,
      "Ġmul": 1099,
      "ement": 1100,
      "Ġwhere": 1101,
      "Ġmm": 1102,
      "Ġassociated": 1103,
      "ulated": 1104,
      "ness": 1105,
      "ke": 1106,
      "Ġï¿½": 1107,
      "tained": 1108,
      "Ġchar": 1109,
      "Ġ<": 1110,
      "erg": 1111,
      "Ġmean": 1112,
      "Ġshown": 1113,
      "bed": 1114,
      "Ġset": 1115,
      "Ġany": 1116,
      "press": 1117,
      "ĠâĢľ": 1118,
      "ural": 1119,
      "iter": 1120,
      "ci": 1121,
      "Ġcould": 1122,
      "ences": 1123,
      "Ġfig": 1124,
      "other": 1125,
      "sive": 1126,
      "Ġpot": 1127,
      "ake": 1128,
      "Ġimport": 1129,
      "was": 1130,
      "Ġsugg": 1131,
      "Ġtri": 1132,
      "ody": 1133,
      "valu": 1134,
      "Ġhigher": 1135,
      "Ġdescri": 1136,
      "oid": 1137,
      "Ġavail": 1138,
      "by": 1139,
      "ption": 1140,
      "were": 1141,
      "rect": 1142,
      "Ġfurther": 1143,
      "ores": 1144,
      "33": 1145,
      "echn": 1146,
      "tively": 1147,
      "ii": 1148,
      "anis": 1149,
      "Ġconsid": 1150,
      "ily": 1151,
      "ins": 1152,
      "Ġindividual": 1153,
      "Ġactivity": 1154,
      "respon": 1155,
      "Ġz": 1156,
      "ful": 1157,
      "ĠâĢĺ": 1158,
      "Ġthose": 1159,
      "Ġgroups": 1160,
      "vir": 1161,
      "present": 1162,
      "irst": 1163,
      "ung": 1164,
      "Ġthrough": 1165,
      "Ġsm": 1166,
      "Ġbased": 1167,
      "Ġdeter": 1168,
      "Ġpe": 1169,
      "ves": 1170,
      "ities": 1171,
      "tribution": 1172,
      "osp": 1173,
      "eng": 1174,
      "ross": 1175,
      "ning": 1176,
      "Ġ&": 1177,
      "usion": 1178,
      "Ġed": 1179,
      "..": 1180,
      "Ġev": 1181,
      "tig": 1182,
      "ĊĠĊĠ": 1183,
      "Ġprim": 1184,
      "Ġmem": 1185,
      "arget": 1186,
      "35": 1187,
      "ron": 1188,
      "Ġknow": 1189,
      "cell": 1190,
      "95": 1191,
      "art": 1192,
      "not": 1193,
      "iversity": 1194,
      "omen": 1195,
      "Ġsimilar": 1196,
      "ental": 1197,
      "36": 1198,
      "Ġprevious": 1199,
      "Ġartic": 1200,
      "Ġter": 1201,
      "dis": 1202,
      "Ġbas": 1203,
      "Ġlik": 1204,
      "ateg": 1205,
      "Ġeffects": 1206,
      "onstr": 1207,
      "lished": 1208,
      "bl": 1209,
      "xim": 1210,
      "Ġcoun": 1211,
      "Ġincreased": 1212,
      "Ġdiagn": 1213,
      "34": 1214,
      "ort": 1215,
      "Ġep": 1216,
      "sible": 1217,
      "inding": 1218,
      "that": 1219,
      "Ġexperim": 1220,
      "king": 1221,
      "ics": 1222,
      "Ġobserved": 1223,
      "ality": 1224,
      "iqu": 1225,
      "Ġtotal": 1226,
      "60": 1227,
      "aw": 1228,
      "Ġsequ": 1229,
      "Ġmain": 1230,
      "Ġinde": 1231,
      "Ġimmun": 1232,
      "Ġtherap": 1233,
      "000": 1234,
      "Ġnew": 1235,
      "ograp": 1236,
      "Ġlim": 1237,
      "anges": 1238,
      "anti": 1239,
      "dr": 1240,
      "over": 1241,
      "38": 1242,
      "Ġsyn": 1243,
      "Ġavailable": 1244,
      "aining": 1245,
      "lear": 1246,
      "ths": 1247,
      "37": 1248,
      "amet": 1249,
      "Ġ20": 1250,
      "pendent": 1251,
      "cre": 1252,
      "Ġhuman": 1253,
      "Ġtum": 1254,
      "this": 1255,
      "Ġabout": 1256,
      "Ġneed": 1257,
      "Ġperformed": 1258,
      "plement": 1259,
      "org": 1260,
      "ind": 1261,
      "Ġparticipants": 1262,
      "ective": 1263,
      "cus": 1264,
      "Ġshould": 1265,
      "requ": 1266,
      "Ġstruct": 1267,
      "Ġcharacter": 1268,
      "Ġfirst": 1269,
      "Ġevalu": 1270,
      "lected": 1271,
      "Ġinformation": 1272,
      "Ġstand": 1273,
      "Ġ12": 1274,
      "Ġpost": 1275,
      "Ġvol": 1276,
      "Ġtiss": 1277,
      "ï¿½ï¿½": 1278,
      "ov": 1279,
      "line": 1280,
      "havi": 1281,
      "Ġfactors": 1282,
      "Ġwhile": 1283,
      "iod": 1284,
      "Ġdue": 1285,
      "Ġidentif": 1286,
      "45": 1287,
      "Ġmulti": 1288,
      "Ġmg": 1289,
      "ient": 1290,
      "80": 1291,
      "sequ": 1292,
      "amm": 1293,
      "Ġauthor": 1294,
      "Ġrespec": 1295,
      "ene": 1296,
      "Ġrate": 1297,
      "Ġ15": 1298,
      "mc": 1299,
      "Ġresponse": 1300,
      "Ġshowed": 1301,
      "Ġamong": 1302,
      "Ġsol": 1303,
      "Ġthen": 1304,
      "ately": 1305,
      "ety": 1306,
      "Ġwould": 1307,
      "Ġlong": 1308,
      "Ġimportant": 1309,
      "ains": 1310,
      "Ġblood": 1311,
      "**": 1312,
      "Ġsame": 1313,
      "arm": 1314,
      "Ġimpro": 1315,
      "iï¬ģcant": 1316,
      "oph": 1317,
      "Ġinhib": 1318,
      "Ġvis": 1319,
      "mod": 1320,
      "part": 1321,
      "Ġmut": 1322,
      "Ġcompar": 1323,
      "Ġmor": 1324,
      "Ġcases": 1325,
      "based": 1326,
      "ogn": 1327,
      "Ġfunction": 1328,
      "001": 1329,
      "Ġear": 1330,
      "Ġincluding": 1331,
      "reated": 1332,
      "Ġvalues": 1333,
      "Ġmedic": 1334,
      "ry": 1335,
      "Ġpredic": 1336,
      "trac": 1337,
      "Ġtable": 1338,
      "Ġuniversity": 1339,
      "Ġconcentr": 1340,
      "Ġmicro": 1341,
      "oint": 1342,
      "Ġsamples": 1343,
      "page": 1344,
      "Ġinvol": 1345,
      "Ġrequi": 1346,
      "ocy": 1347,
      "stud": 1348,
      "39": 1349,
      "Ġdevelopment": 1350,
      "Ġarticle": 1351,
      "Ġel": 1352,
      "Ġtechn": 1353,
      "ptom": 1354,
      "Ġcase": 1355,
      "asc": 1356,
      "Ġdrug": 1357,
      "uted": 1358,
      "Ġtarget": 1359,
      "Ġgrow": 1360,
      "elf": 1361,
      "tis": 1362,
      "cording": 1363,
      "ested": 1364,
      "Ġgenes": 1365,
      "Ġcalc": 1366,
      "Ġdid": 1367,
      "ife": 1368,
      "sych": 1369,
      "inter": 1370,
      "ined": 1371,
      "Ġsever": 1372,
      "ty": 1373,
      "Ġcap": 1374,
      "Ġresult": 1375,
      "bo": 1376,
      "32": 1377,
      "Ġsci": 1378,
      "hip": 1379,
      "ded": 1380,
      "Ġmedical": 1381,
      "Ġcd": 1382,
      "Ġfollowing": 1383,
      "ca": 1384,
      "Ġreview": 1385,
      "Ġsubj": 1386,
      "Ġpopulation": 1387,
      "tent": 1388,
      "Ġoutcom": 1389,
      "arge": 1390,
      "Ġchildren": 1391,
      "ns": 1392,
      "31": 1393,
      "Ġsym": 1394,
      "Ġdef": 1395,
      "ld": 1396,
      "ĠĠĠĠĠĠĠĠ": 1397,
      "44": 1398,
      "ax": 1399,
      "99": 1400,
      "ock": 1401,
      "Ġrem": 1402,
      "Ġsecond": 1403,
      "from": 1404,
      "cop": 1405,
      "Ġsmall": 1406,
      "Ġpers": 1407,
      "//": 1408,
      "Ġevid": 1409,
      "Ġacid": 1410,
      "70": 1411,
      "ink": 1412,
      "Ġaddition": 1413,
      "Ġexpl": 1414,
      "Ġbecause": 1415,
      "ced": 1416,
      "Ġestim": 1417,
      "Ġorg": 1418,
      "rec": 1419,
      "Ġaff": 1420,
      "ool": 1421,
      "://": 1422,
      "ised": 1423,
      "ypes": 1424,
      "ingle": 1425,
      "Ġincrease": 1426,
      "trans": 1427,
      "ically": 1428,
      "Ġlower": 1429,
      "Ġ%": 1430,
      "âĢĶ": 1431,
      "ml": 1432,
      "90": 1433,
      "az": 1434,
      "Ġsample": 1435,
      "Ġques": 1436,
      "ord": 1437,
      "Ġinves": 1438,
      "Ġstatis": 1439,
      "ditions": 1440,
      "cle": 1441,
      "Ġtype": 1442,
      "Ġmech": 1443,
      "gl": 1444,
      "Ġtem": 1445,
      "Ġer": 1446,
      "aren": 1447,
      "cs": 1448,
      "Ġincluded": 1449,
      "ospital": 1450,
      "related": 1451,
      "work": 1452,
      "lev": 1453,
      "Ġ30": 1454,
      "des": 1455,
      "jor": 1456,
      "ocial": 1457,
      "Ġmat": 1458,
      "iel": 1459,
      "Ġmice": 1460,
      "75": 1461,
      "48": 1462,
      "Ġmethods": 1463,
      "Ġiniti": 1464,
      "zed": 1465,
      "vention": 1466,
      "Ġlab": 1467,
      "Ġchanges": 1468,
      "Ġbehavi": 1469,
      "acy": 1470,
      "mit": 1471,
      "ceived": 1472,
      "reen": 1473,
      "Ġpa": 1474,
      "mis": 1475,
      "unt": 1476,
      "Ġactiv": 1477,
      "ests": 1478,
      "Ġfam": 1479,
      "Ġdel": 1480,
      "sis": 1481,
      "tric": 1482,
      "ensi": 1483,
      "ume": 1484,
      "Ġperiod": 1485,
      "cep": 1486,
      "Ġhyp": 1487,
      "stand": 1488,
      "Ġless": 1489,
      "Ġwee": 1490,
      "Ġinvestig": 1491,
      "Ġprot": 1492,
      "fr": 1493,
      "Ġ2014": 1494,
      "ination": 1495,
      "eff": 1496,
      "more": 1497,
      "Ġlead": 1498,
      "Ġrole": 1499,
      "istr": 1500,
      "hes": 1501,
      "Ġsch": 1502,
      "Ġnormal": 1503,
      "own": 1504,
      "ference": 1505,
      "Ġstandard": 1506,
      "ables": 1507,
      "viron": 1508,
      "Ġdecre": 1509,
      "Ġpart": 1510,
      "Ġcurrent": 1511,
      "46": 1512,
      "abol": 1513,
      "verage": 1514,
      "Ġmolec": 1515,
      "author": 1516,
      "ward": 1517,
      "ision": 1518,
      "Ġ2013": 1519,
      "tra": 1520,
      "Ġrec": 1521,
      "Ġsigniï¬ģcant": 1522,
      "du": 1523,
      "Ġrat": 1524,
      "Ġline": 1525,
      "Ġoccur": 1526,
      "Ġsurg": 1527,
      "ner": 1528,
      "ttp": 1529,
      "ites": 1530,
      "Ġaccess": 1531,
      "Ġpat": 1532,
      "Ġconf": 1533,
      "Ġrepresent": 1534,
      "Ġvi": 1535,
      "Ġapp": 1536,
      "Ġprac": 1537,
      "gative": 1538,
      "Ġfrequ": 1539,
      "Ġhist": 1540,
      "Ġwomen": 1541,
      "47": 1542,
      "though": 1543,
      "oma": 1544,
      "group": 1545,
      "way": 1546,
      "Ġrecent": 1547,
      "Ġinj": 1548,
      "Ġfac": 1549,
      "Ġyo": 1550,
      "Ġthus": 1551,
      "Ġver": 1552,
      "Ġmany": 1553,
      "Ġmark": 1554,
      "ouse": 1555,
      "Ġpotential": 1556,
      "Ġphys": 1557,
      "Ġimp": 1558,
      "Ġsize": 1559,
      "ained": 1560,
      "55": 1561,
      "Ġvalue": 1562,
      "Ġtherefore": 1563,
      "ator": 1564,
      "Ġdays": 1565,
      "gram": 1566,
      "Ġ2015": 1567,
      "osph": 1568,
      "ior": 1569,
      "bs": 1570,
      "Ġdifferences": 1571,
      "dro": 1572,
      "ither": 1573,
      "Ġx": 1574,
      "Ġevidence": 1575,
      "iven": 1576,
      "Ġcommon": 1577,
      "Ġpri": 1578,
      "Ġmal": 1579,
      "cc": 1580,
      "Ġclass": 1581,
      "aging": 1582,
      "inf": 1583,
      "Ġmy": 1584,
      "Ġ2012": 1585,
      "49": 1586,
      "ðĿ": 1587,
      "aterial": 1588,
      "ï¬ģed": 1589,
      "Ġ16": 1590,
      "ism": 1591,
      "itor": 1592,
      "Ġte": 1593,
      "Ġsingle": 1594,
      "ft": 1595,
      "Ġcommun": 1596,
      "ense": 1597,
      "Ġdescribed": 1598,
      "Ġvir": 1599,
      "ae": 1600,
      "Ġpositive": 1601,
      "Ġtissue": 1602,
      "Ġdna": 1603,
      "Ġ18": 1604,
      "Ġmonths": 1605,
      "Ġfour": 1606,
      "tex": 1607,
      "yn": 1608,
      "Ġdesign": 1609,
      "Ġmajor": 1610,
      "do": 1611,
      "Ġca": 1612,
      "eline": 1613,
      "omic": 1614,
      "Ġwithout": 1615,
      "Ġdemonstr": 1616,
      "othe": 1617,
      "face": 1618,
      "Ġir": 1619,
      "42": 1620,
      "anal": 1621,
      "Ġequ": 1622,
      "Ġconditions": 1623,
      "Ġorig": 1624,
      "omet": 1625,
      "arc": 1626,
      "Ġox": 1627,
      "onal": 1628,
      "Ġcomplex": 1629,
      "Ġcult": 1630,
      "very": 1631,
      "sp": 1632,
      "Ġneuro": 1633,
      "ently": 1634,
      "Ġstat": 1635,
      "98": 1636,
      "Ġdom": 1637,
      "Ġ2016": 1638,
      "Ġgu": 1639,
      "ick": 1640,
      "65": 1641,
      "oss": 1642,
      "Ġlo": 1643,
      "Ġpur": 1644,
      "Ġmodels": 1645,
      "erc": 1646,
      "eration": 1647,
      "ression": 1648,
      "ï¬Ģ": 1649,
      "Ġalthough": 1650,
      "Ġelec": 1651,
      "Ġanim": 1652,
      "Ġspecies": 1653,
      ");": 1654,
      "ually": 1655,
      "Ġexperi": 1656,
      "Ġdetermin": 1657,
      "Ġbeing": 1658,
      "ournal": 1659,
      "Ġchange": 1660,
      "els": 1661,
      "lection": 1662,
      "Ġ11": 1663,
      "duce": 1664,
      "Ġwor": 1665,
      "Ġbel": 1666,
      "Ġseveral": 1667,
      "Ġhospital": 1668,
      "uff": 1669,
      "Ġproteins": 1670,
      "Ġexpos": 1671,
      "acc": 1672,
      "ysis": 1673,
      "Ġgreat": 1674,
      "tes": 1675,
      "ral": 1676,
      "Ġsymptom": 1677,
      "Ġobtained": 1678,
      "ardi": 1679,
      "Ġï¬Ĥ": 1680,
      "Ġopen": 1681,
      "comp": 1682,
      "nor": 1683,
      "Ġsupport": 1684,
      "41": 1685,
      "43": 1686,
      "cy": 1687,
      "Ġlife": 1688,
      "gn": 1689,
      "Ġlarge": 1690,
      "Ġke": 1691,
      "sub": 1692,
      "Ġbre": 1693,
      "Ġnet": 1694,
      "bers": 1695,
      "Ġprimary": 1696,
      "Ġrange": 1697,
      "ince": 1698,
      "patients": 1699,
      "Ġanaly": 1700,
      "partment": 1701,
      "Ġcombin": 1702,
      "ving": 1703,
      "67": 1704,
      "Ġbefore": 1705,
      "Ġrespectively": 1706,
      "ditional": 1707,
      "Ġresp": 1708,
      "Ġstim": 1709,
      "Ġfactor": 1710,
      "Ġpsych": 1711,
      "ocus": 1712,
      "Ġprovided": 1713,
      "ok": 1714,
      "sure": 1715,
      "vari": 1716,
      "Ġscore": 1717,
      "Ġ+": 1718,
      "Ġrelated": 1719,
      "Ġgrowth": 1720,
      "pri": 1721,
      "itation": 1722,
      "ÃĹ": 1723,
      "andom": 1724,
      "Ġtherapy": 1725,
      "Ġcaus": 1726,
      "Ġ2011": 1727,
      "can": 1728,
      "erest": 1729,
      "dom": 1730,
      "bet": 1731,
      "ucle": 1732,
      "ulations": 1733,
      "97": 1734,
      "vironment": 1735,
      "Ġ50": 1736,
      "ascular": 1737,
      "hel": 1738,
      "ĠâĢĵ": 1739,
      "gg": 1740,
      "omy": 1741,
      "Ġfigure": 1742,
      "dif": 1743,
      "Ġabs": 1744,
      "Ġmechanis": 1745,
      "Ġsignal": 1746,
      "Ġcorrel": 1747,
      "app": 1748,
      "ograph": 1749,
      "iat": 1750,
      "ste": 1751,
      "ish": 1752,
      "Ġplas": 1753,
      "Ġpossible": 1754,
      "uk": 1755,
      "pressed": 1756,
      "ove": 1757,
      "Ġday": 1758,
      "Ġcontr": 1759,
      "col": 1760,
      "hol": 1761,
      "taining": 1762,
      "ull": 1763,
      "Ġfem": 1764,
      "vement": 1765,
      "96": 1766,
      "Ġgeneral": 1767,
      "Ġ24": 1768,
      "ists": 1769,
      "Ġaccording": 1770,
      "Ġproper": 1771,
      "Ġgiven": 1772,
      "http": 1773,
      "oh": 1774,
      "Ġdistribution": 1775,
      "Ġproduc": 1776,
      "Ġcardi": 1777,
      "Ġspecific": 1778,
      "âĢ¢": 1779,
      "ison": 1780,
      "sup": 1781,
      "verse": 1782,
      "Ġquality": 1783,
      "Ġrati": 1784,
      "Ġsl": 1785,
      "Ġpublic": 1786,
      "Ġallow": 1787,
      "Ġsocial": 1788,
      "Ġregion": 1789,
      "ices": 1790,
      "mic": 1791,
      "57": 1792,
      "Ġ14": 1793,
      "Ġusa": 1794,
      "utr": 1795,
      "ationship": 1796,
      "medi": 1797,
      "Ġearly": 1798,
      "Ġdirect": 1799,
      "cons": 1800,
      "Ġparticular": 1801,
      "Ġadv": 1802,
      "ured": 1803,
      "Â±": 1804,
      "fact": 1805,
      "Ġexample": 1806,
      "Ġconsidered": 1807,
      "Ġthem": 1808,
      "rop": 1809,
      "ters": 1810,
      "cd": 1811,
      "Ġ100": 1812,
      "sign": 1813,
      "Ġsk": 1814,
      "Ġ-": 1815,
      "Ġvery": 1816,
      "row": 1817,
      "istics": 1818,
      "Ġapproach": 1819,
      "actions": 1820,
      "Ġwhether": 1821,
      "Ġ13": 1822,
      "Ġlocal": 1823,
      "och": 1824,
      "asing": 1825,
      "Ġlikely": 1826,
      "Ġstress": 1827,
      "lik": 1828,
      "Ġ25": 1829,
      "ier": 1830,
      "ann": 1831,
      "Ġmetabol": 1832,
      "Ġeth": 1833,
      "Ġaut": 1834,
      "which": 1835,
      "68": 1836,
      "Ġagain": 1837,
      "Ġbrain": 1838,
      "time": 1839,
      "hyl": 1840,
      "Ġche": 1841,
      "Ġsuggest": 1842,
      "Ġpain": 1843,
      "Ġconduc": 1844,
      "rs": 1845,
      "ople": 1846,
      "Ġtumor": 1847,
      "53": 1848,
      "Ġorder": 1849,
      "amin": 1850,
      "uthors": 1851,
      "clusion": 1852,
      "Ġmen": 1853,
      "ame": 1854,
      "Ġreport": 1855,
      "Ġpattern": 1856,
      "Ġwater": 1857,
      "Ġparamet": 1858,
      "Ġ2010": 1859,
      "ession": 1860,
      "Ġrecept": 1861,
      "vere": 1862,
      "Ġpo": 1863,
      "Ġmultiple": 1864,
      "gf": 1865,
      "atively": 1866,
      "Ġ2017": 1867,
      "Ġeven": 1868,
      "Ġmeasured": 1869,
      "Ġpresence": 1870,
      "aff": 1871,
      "vol": 1872,
      "Ġil": 1873,
      "Ġci": 1874,
      "Ġradi": 1875,
      "aking": 1876,
      "Ġbody": 1877,
      "Ġprogram": 1878,
      "66": 1879,
      "Ġsignificantly": 1880,
      "88": 1881,
      "set": 1882,
      "Ġarea": 1883,
      "Ġmus": 1884,
      "agement": 1885,
      "Ġeither": 1886,
      "results": 1887,
      "Ġdifference": 1888,
      "Ġprof": 1889,
      "ified": 1890,
      "Ġmedicine": 1891,
      "Ġconsist": 1892,
      "tice": 1893,
      "cal": 1894,
      "Ġacross": 1895,
      "Ġhel": 1896,
      "land": 1897,
      "ĠÎ¼": 1898,
      "tically": 1899,
      "www": 1900,
      "tributed": 1901,
      "atal": 1902,
      "Ġproble": 1903,
      "Ġcir": 1904,
      "Ġhyper": 1905,
      "uration": 1906,
      "Ġinterest": 1907,
      "Ġanalyses": 1908,
      "58": 1909,
      "Ġweight": 1910,
      "Ġprior": 1911,
      "go": 1912,
      "Ġindividuals": 1913,
      "data": 1914,
      "ules": 1915,
      "Ġself": 1916,
      "Â·": 1917,
      "56": 1918,
      "Ġantib": 1919,
      "Ġmight": 1920,
      "Ġfinding": 1921,
      "Ġsex": 1922,
      "comm": 1923,
      "oper": 1924,
      "Ġcriter": 1925,
      "Ġml": 1926,
      "tegr": 1927,
      "oy": 1928,
      "Ġinfection": 1929,
      "Ġpublished": 1930,
      "Ġ17": 1931,
      "vent": 1932,
      "ems": 1933,
      "plied": 1934,
      "ings": 1935,
      "Ġphen": 1936,
      "Ġdiscus": 1937,
      "Ġvs": 1938,
      "here": 1939,
      "Ġquestion": 1940,
      "ustr": 1941,
      "Ġâ": 1942,
      "Ġserv": 1943,
      "tinu": 1944,
      "inc": 1945,
      "Ġleast": 1946,
      "Ġfocus": 1947,
      "control": 1948,
      "ta": 1949,
      "Ġinstit": 1950,
      "ended": 1951,
      "Ġnec": 1952,
      "clin": 1953,
      "itro": 1954,
      "Ġreduced": 1955,
      "Ġorgan": 1956,
      "amp": 1957,
      "formed": 1958,
      "Ġterms": 1959,
      "idence": 1960,
      "Ġfamily": 1961,
      "Ġknown": 1962,
      "veal": 1963,
      "Ġproced": 1964,
      "las": 1965,
      "Ġnegative": 1966,
      "Ġq": 1967,
      "mat": 1968,
      "Ġloss": 1969,
      "78": 1970,
      "uit": 1971,
      "Ġdiagnos": 1972,
      "Ġatt": 1973,
      "Ġmedium": 1974,
      "Ġdiagnosis": 1975,
      "Ġdat": 1976,
      "ject": 1977,
      "hemical": 1978,
      "Ġher": 1979,
      "there": 1980,
      "Ġtra": 1981,
      "Ġrandom": 1982,
      "ire": 1983,
      "Ġgo": 1984,
      "ware": 1985,
      "Ġprovide": 1986,
      "Ġol": 1987,
      "roph": 1988,
      "ledge": 1989,
      "Ġpreviously": 1990,
      "ield": 1991,
      "Ġauthors": 1992,
      "Ġrates": 1993,
      "apy": 1994,
      "study": 1995,
      "Ġsensi": 1996,
      "Ġrelationship": 1997,
      "estab": 1998,
      "Ġadj": 1999,
      "Ġsurvi": 2000,
      "Ġisol": 2001,
      "ra": 2002,
      "mission": 2003,
      "Ġder": 2004,
      "93": 2005,
      "Ġsubjects": 2006,
      "otype": 2007,
      "ports": 2008,
      "test": 2009,
      "Ġ2009": 2010,
      "Ġsus": 2011,
      "Ġ|": 2012,
      "Ġsymptoms": 2013,
      "rna": 2014,
      "Ġcre": 2015,
      "mean": 2016,
      "Ġstatus": 2017,
      "Ġassociation": 2018,
      "02": 2019,
      "see": 2020,
      "Ġstrong": 2021,
      "Ġdose": 2022,
      "func": 2023,
      "Ġeduc": 2024,
      "64": 2025,
      "da": 2026,
      "Ġnm": 2027,
      "Ġmaterial": 2028,
      "ored": 2029,
      "77": 2030,
      "rst": 2031,
      "85": 2032,
      "lo": 2033,
      "Ġsince": 2034,
      "....": 2035,
      "ule": 2036,
      "between": 2037,
      "posed": 2038,
      "Ġpeople": 2039,
      "onses": 2040,
      "ances": 2041,
      "ways": 2042,
      "pected": 2043,
      "istance": 2044,
      "Ġref": 2045,
      "94": 2046,
      "ours": 2047,
      "log": 2048,
      "oles": 2049,
      "tot": 2050,
      "Ġsw": 2051,
      "Ġill": 2052,
      "Ġparen": 2053,
      "ource": 2054,
      "Ġinten": 2055,
      "ina": 2056,
      "ength": 2057,
      "Ġenvironment": 2058,
      "erv": 2059,
      "Ġsum": 2060,
      "cluded": 2061,
      "Ġaverage": 2062,
      "ici": 2063,
      "care": 2064,
      "ible": 2065,
      "ably": 2066,
      "Ġvolume": 2067,
      "Ġda": 2068,
      "ronic": 2069,
      "ned": 2070,
      "Ġscale": 2071,
      "Ġstrateg": 2072,
      "Ġtreated": 2073,
      "normal": 2074,
      "less": 2075,
      "olution": 2076,
      "atures": 2077,
      "Ġhiv": 2078,
      "Ġrecor": 2079,
      "iving": 2080,
      "Ġphase": 2081,
      "Ġoften": 2082,
      "Ġprob": 2083,
      "mi": 2084,
      "Ġclear": 2085,
      "Ġbar": 2086,
      "Ġfood": 2087,
      "ids": 2088,
      "ales": 2089,
      "Ġabove": 2090,
      "partic": 2091,
      "Ġratio": 2092,
      "Ġcountr": 2093,
      "Ġpresented": 2094,
      "Ġcompon": 2095,
      "Ġgenetic": 2096,
      "aps": 2097,
      "istic": 2098,
      "ank": 2099,
      "treatment": 2100,
      "yr": 2101,
      "Ġdist": 2102,
      "ĠÃĹ": 2103,
      "level": 2104,
      "sd": 2105,
      "health": 2106,
      "51": 2107,
      "Ġsuc": 2108,
      "92": 2109,
      "eric": 2110,
      "sur": 2111,
      "Ġsurve": 2112,
      "ture": 2113,
      "86": 2114,
      "ling": 2115,
      "oft": 2116,
      "lation": 2117,
      "54": 2118,
      "Ġdifferenti": 2119,
      "52": 2120,
      "fs": 2121,
      "method": 2122,
      "Ġyear": 2123,
      "ering": 2124,
      "associ": 2125,
      "Ġcorrespon": 2126,
      "plications": 2127,
      "Ġweeks": 2128,
      "Ġbiom": 2129,
      "ask": 2130,
      "ique": 2131,
      "Ġsurgery": 2132,
      "Ġdiab": 2133,
      "ode": 2134,
      "71": 2135,
      "Ġcriteria": 2136,
      "Ġoutcomes": 2137,
      "Ġbaseline": 2138,
      "Ġent": 2139,
      "Ġcont": 2140,
      "know": 2141,
      "aken": 2142,
      "type": 2143,
      "cin": 2144,
      "Ġvariables": 2145,
      "Ġstructure": 2146,
      "mm": 2147,
      "63": 2148,
      "Ġschool": 2149,
      "ulin": 2150,
      "Ġcharacteristics": 2151,
      "dress": 2152,
      "Ġsystems": 2153,
      "lamm": 2154,
      "Ġcm": 2155,
      "Ġnetwork": 2156,
      "zy": 2157,
      "ancy": 2158,
      "Ġsurface": 2159,
      "Ġprog": 2160,
      "Ġoverall": 2161,
      "Ġtemper": 2162,
      "Ġadmin": 2163,
      "Ġmass": 2164,
      "62": 2165,
      "Ġlarg": 2166,
      "ections": 2167,
      "89": 2168,
      "âĢĺ": 2169,
      "get": 2170,
      "Ġcomm": 2171,
      "Ġidentified": 2172,
      "Ġstate": 2173,
      "Ġidentify": 2174,
      "Ġflu": 2175,
      "Ġread": 2176,
      "Ġpap": 2177,
      "Ġconcentration": 2178,
      "Ġur": 2179,
      "Ġresid": 2180,
      "Ġneur": 2181,
      "72": 2182,
      "oints": 2183,
      "Ġleft": 2184,
      "Ġscores": 2185,
      "Ġadditional": 2186,
      "bility": 2187,
      "valence": 2188,
      "Ġ2008": 2189,
      "Ġreveal": 2190,
      "ried": 2191,
      "Ġlip": 2192,
      "Ġmolecular": 2193,
      "these": 2194,
      "Ġbene": 2195,
      "ification": 2196,
      "Ġimpact": 2197,
      "plication": 2198,
      "most": 2199,
      "Ġassessment": 2200,
      "anced": 2201,
      "Ġfl": 2202,
      "Ġsal": 2203,
      "59": 2204,
      "03": 2205,
      "etes": 2206,
      "round": 2207,
      "omes": 2208,
      "Ġï¬ģrst": 2209,
      "urope": 2210,
      "69": 2211,
      "Ġserum": 2212,
      "Ġdeath": 2213,
      "use": 2214,
      "Ġbacter": 2215,
      "ulate": 2216,
      "Â°": 2217,
      "Ġphysical": 2218,
      "day": 2219,
      "Ġrequired": 2220,
      "arr": 2221,
      "Ġstep": 2222,
      "ergy": 2223,
      "Ġagainst": 2224,
      "incre": 2225,
      "det": 2226,
      "num": 2227,
      "Ġgreater": 2228,
      "61": 2229,
      "epti": 2230,
      "Ġjournal": 2231,
      "ah": 2232,
      "esis": 2233,
      "Ġbone": 2234,
      "Ġeng": 2235,
      "Ġscreen": 2236,
      "ocol": 2237,
      "Ġmade": 2238,
      "Ġinvolved": 2239,
      "tor": 2240,
      "ators": 2241,
      "lab": 2242,
      "ef": 2243,
      "Ġrepro": 2244,
      "Ġactivation": 2245,
      "Ġphosph": 2246,
      "brane": 2247,
      "87": 2248,
      "Ġfunctional": 2249,
      "dl": 2250,
      "Ġrelative": 2251,
      "Ġ>": 2252,
      "Ġef": 2253,
      "hold": 2254,
      "ĠĊĠ": 2255,
      "ially": 2256,
      "ources": 2257,
      "mine": 2258,
      "imen": 2259,
      "Ġdeveloped": 2260,
      "Ġoriginal": 2261,
      "ðĿĳ": 2262,
      "%,": 2263,
      "read": 2264,
      "ton": 2265,
      "ĠĊ": 2266,
      "Ġexposure": 2267,
      "pair": 2268,
      "how": 2269,
      "ides": 2270,
      "Ġinclude": 2271,
      "ogene": 2272,
      "ibr": 2273,
      "Ġmix": 2274,
      "Ġach": 2275,
      "Ġfail": 2276,
      "tality": 2277,
      "ga": 2278,
      "sm": 2279,
      "Ġ95": 2280,
      "Ġconducted": 2281,
      "order": 2282,
      "Ġcateg": 2283,
      "term": 2284,
      "lish": 2285,
      "Ġvarious": 2286,
      "clus": 2287,
      "Ġpoint": 2288,
      "Ġsite": 2289,
      "Ġintegr": 2290,
      "Ġvalid": 2291,
      "ury": 2292,
      "Ġbinding": 2293,
      "Ġtimes": 2294,
      "pol": 2295,
      "back": 2296,
      "Ġright": 2297,
      "73": 2298,
      "Ġlabor": 2299,
      "vers": 2300,
      "Ġlack": 2301,
      "icity": 2302,
      "Ġtrial": 2303,
      "Ġsepar": 2304,
      "04": 2305,
      "utions": 2306,
      "Ġtypes": 2307,
      "Ġtraining": 2308,
      "Ġunderstand": 2309,
      "Ġsoci": 2310,
      "wor": 2311,
      "Ġmir": 2312,
      "ploy": 2313,
      "otic": 2314,
      "Ġsmo": 2315,
      "Ġpercent": 2316,
      "using": 2317,
      "Ġhand": 2318,
      "cum": 2319,
      "ysi": 2320,
      "Ġintervention": 2321,
      "pub": 2322,
      "abil": 2323,
      "till": 2324,
      "dependent": 2325,
      "Ġpmc": 2326,
      "utes": 2327,
      "ih": 2328,
      "Ġwhat": 2329,
      "td": 2330,
      "Ġ(%)": 2331,
      "Ġtranscri": 2332,
      "91": 2333,
      "enced": 2334,
      "Ġï¬ģn": 2335,
      "Ġdiseases": 2336,
      "Ġvia": 2337,
      "ze": 2338,
      "Ġbehavior": 2339,
      "Ġdetail": 2340,
      "Ġuk": 2341,
      "aving": 2342,
      "Ġresponses": 2343,
      "dence": 2344,
      "Ġlater": 2345,
      "eding": 2346,
      "Ġerr": 2347,
      "Ġcalculated": 2348,
      "ason": 2349,
      "Ġback": 2350,
      "Ġsequence": 2351,
      "fe": 2352,
      "ĠâĪĴ": 2353,
      "Ġkey": 2354,
      "Ġliter": 2355,
      "atin": 2356,
      "Ġcontrast": 2357,
      "76": 2358,
      "Ġang": 2359,
      "Ġmeasures": 2360,
      "Ġdemonstrated": 2361,
      "Ġtrials": 2362,
      "Ġdetermined": 2363,
      "have": 2364,
      "Ġareas": 2365,
      "Ġdoes": 2366,
      "Ġiss": 2367,
      "yes": 2368,
      "Ġinï¬Ĥ": 2369,
      "Ġperformance": 2370,
      "Ġinflu": 2371,
      "differen": 2372,
      "Ġlic": 2373,
      "Ġnucle": 2374,
      "74": 2375,
      "Ġfindings": 2376,
      "Ġenh": 2377,
      "high": 2378,
      "Ġshows": 2379,
      "Ġdiet": 2380,
      "rence": 2381,
      "ss": 2382,
      "put": 2383,
      "Ġve": 2384,
      "Ġmar": 2385,
      "Ġparameters": 2386,
      "eu": 2387,
      "84": 2388,
      "cm": 2389,
      "text": 2390,
      "odies": 2391,
      "Ġcogn": 2392,
      "plant": 2393,
      "sam": 2394,
      "Ġsee": 2395,
      "like": 2396,
      "ground": 2397,
      "83": 2398,
      "Ġ2007": 2399,
      "ower": 2400,
      "Ġindex": 2401,
      "Ġknowledge": 2402,
      "Ġindependent": 2403,
      "Ġproduction": 2404,
      "ĊĠĊĠĊĠĊĠ": 2405,
      "Ġachie": 2406,
      "79": 2407,
      "Ġestab": 2408,
      "Ġpharm": 2409,
      "Ġspeciï¬ģc": 2410,
      "Ġliver": 2411,
      "Ġoutcome": 2412,
      "Ġul": 2413,
      "Ġ40": 2414,
      "ude": 2415,
      "Ġfew": 2416,
      "non": 2417,
      "Ġexpressed": 2418,
      "ole": 2419,
      "Ġaim": 2420,
      "kg": 2421,
      "onic": 2422,
      "troduction": 2423,
      "ender": 2424,
      "Ġhydro": 2425,
      "Ġext": 2426,
      "Ġshe": 2427,
      "Ġsites": 2428,
      "Ġreduction": 2429,
      "Ġpractice": 2430,
      "bp": 2431,
      "sec": 2432,
      "82": 2433,
      "81": 2434,
      "Ġcontrib": 2435,
      "Ġshort": 2436,
      "Ġcomparison": 2437,
      "Ġregions": 2438,
      "analysis": 2439,
      "urs": 2440,
      "key": 2441,
      "Ġpressure": 2442,
      "Ġsurvival": 2443,
      "path": 2444,
      "inary": 2445,
      "Ġlear": 2446,
      "Ġrna": 2447,
      "ographic": 2448,
      "Ġcentral": 2449,
      "Ġtop": 2450,
      "ocytes": 2451,
      "Ġdoc": 2452,
      "Ġselected": 2453,
      "Ġhere": 2454,
      "Ġincreasing": 2455,
      "Ġfollowed": 2456,
      "Î²": 2457,
      "Ġchronic": 2458,
      "mar": 2459,
      "Ġles": 2460,
      "induced": 2461,
      "Ġrelev": 2462,
      "Ġconstr": 2463,
      "uture": 2464,
      "Ġrepe": 2465,
      "national": 2466,
      "doi": 2467,
      "Ġassessed": 2468,
      "iting": 2469,
      "Ġcollected": 2470,
      "Ġmac": 2471,
      "Ġapplied": 2472,
      "Ġimaging": 2473,
      "Ġobserv": 2474,
      "dec": 2475,
      "Ġtool": 2476,
      "ography": 2477,
      "Ġexperiments": 2478,
      "Ġcyt": 2479,
      "lif": 2480,
      "la": 2481,
      "after": 2482,
      "Ġnational": 2483,
      "Ġact": 2484,
      "Ġcoh": 2485,
      "Ġfrequency": 2486,
      "tle": 2487,
      "Ġreceptor": 2488,
      "Ġbetter": 2489,
      "Ġger": 2490,
      "vities": 2491,
      "aneous": 2492,
      "icient": 2493,
      "Ġanother": 2494,
      "emic": 2495,
      "active": 2496,
      "used": 2497,
      "ired": 2498,
      "come": 2499,
      "Ġvers": 2500,
      "Ġenc": 2501,
      "year": 2502,
      "asis": 2503,
      "exper": 2504,
      "rome": 2505,
      "appro": 2506,
      "Ġinitial": 2507,
      "Ġvisual": 2508,
      "encing": 2509,
      "06": 2510,
      "Ġsoft": 2511,
      "Ġaddress": 2512,
      "Ġtests": 2513,
      "patient": 2514,
      "):": 2515,
      "igg": 2516,
      "Ġdepend": 2517,
      "Ġremo": 2518,
      "clinical": 2519,
      "aged": 2520,
      "Ġchrom": 2521,
      "Ġstatistical": 2522,
      "Ġsevere": 2523,
      "Ġlimited": 2524,
      "terior": 2525,
      "Ġcop": 2526,
      "protein": 2527,
      "hs": 2528,
      "Ġfat": 2529,
      "Ġcross": 2530,
      "Ġguid": 2531,
      "Ġstage": 2532,
      "Ġeurope": 2533,
      "ck": 2534,
      "ferred": 2535,
      "Ġbreast": 2536,
      "Ġindicated": 2537,
      "sim": 2538,
      "Ġstill": 2539,
      "Ġmaxim": 2540,
      "Ġfund": 2541,
      "Ġcorrelation": 2542,
      "Ġcondition": 2543,
      "Ġactive": 2544,
      "tation": 2545,
      "Ġdown": 2546,
      "ensity": 2547,
      "Ġcontrols": 2548,
      "orders": 2549,
      "rem": 2550,
      "ucose": 2551,
      "Ġvacc": 2552,
      "Ġinteraction": 2553,
      "Ġseen": 2554,
      "Ġaccur": 2555,
      "Ġanimals": 2556,
      "Ġexperimental": 2557,
      "ï¿½ï¿½ï¿½ï¿½": 2558,
      "cence": 2559,
      "tivities": 2560,
      "roscop": 2561,
      "ymph": 2562,
      "Ġii": 2563,
      "Ġcommunity": 2564,
      "Ġextr": 2565,
      "Ġacco": 2566,
      "Ġhom": 2567,
      "Ġoper": 2568,
      "Ġtesting": 2569,
      "eth": 2570,
      "Ġdetected": 2571,
      "Ġtested": 2572,
      "sions": 2573,
      "Ġprevalence": 2574,
      "emia": 2575,
      "ories": 2576,
      "Ġms": 2577,
      "total": 2578,
      "Ġassay": 2579,
      "gene": 2580,
      "Ġbir": 2581,
      "Ġamo": 2582,
      "Ġability": 2583,
      "Ġsynthe": 2584,
      "2016": 2585,
      "ring": 2586,
      "igr": 2587,
      "Ġmit": 2588,
      "Ġminim": 2589,
      "itu": 2590,
      "ument": 2591,
      "Ġpropor": 2592,
      "Ġrevealed": 2593,
      "meas": 2594,
      "Ġevents": 2595,
      "immun": 2596,
      "nas": 2597,
      "Ġhypothe": 2598,
      "Ġconcentrations": 2599,
      "Ġmortality": 2600,
      "Ġtemperature": 2601,
      "Ġ21": 2602,
      "Ġ2006": 2603,
      "Ġcontinu": 2604,
      "Ġ60": 2605,
      "Ġge": 2606,
      "Ġview": 2607,
      "Ġextrac": 2608,
      "Ġhistory": 2609,
      "Ġfin": 2610,
      "obal": 2611,
      "specific": 2612,
      "cells": 2613,
      "Ġwhereas": 2614,
      "well": 2615,
      "Ġclus": 2616,
      "Ġmanagement": 2617,
      "Ġrecomm": 2618,
      "priate": 2619,
      "loc": 2620,
      "Ġhighly": 2621,
      "2017": 2622,
      "Ġlung": 2623,
      "Ġsn": 2624,
      "pose": 2625,
      "ember": 2626,
      "iatric": 2627,
      "Ġlink": 2628,
      "Ġimprove": 2629,
      "Ġhelp": 2630,
      "lying": 2631,
      "Ġmid": 2632,
      "ĠĠĠĠĠĠĠĠĠĠĠĠĠĠĠĠ": 2633,
      "Ġanalyzed": 2634,
      "car": 2635,
      "Ġprom": 2636,
      "Ġgood": 2637,
      "Ġvirus": 2638,
      "Ġprotocol": 2639,
      "bre": 2640,
      "Ġliterature": 2641,
      "Ġcat": 2642,
      "Ġdetermine": 2643,
      "eral": 2644,
      "equ": 2645,
      "cg": 2646,
      "Ġheart": 2647,
      "number": 2648,
      "io": 2649,
      "Ġmale": 2650,
      "erate": 2651,
      "Ġsubsequ": 2652,
      "Ġdys": 2653,
      "Ġsix": 2654,
      "ots": 2655,
      "Ġct": 2656,
      "Ġlength": 2657,
      "Ġlymph": 2658,
      "Ġsaf": 2659,
      "08": 2660,
      "Ġhis": 2661,
      "Ġâī": 2662,
      "int": 2663,
      "odes": 2664,
      "Ġsupplement": 2665,
      "Ġchall": 2666,
      "Ġtub": 2667,
      "Ġsetting": 2668,
      "istration": 2669,
      "hers": 2670,
      "Ġinstr": 2671,
      "Ġrele": 2672,
      "antit": 2673,
      "Ġdiabetes": 2674,
      "Ġgas": 2675,
      "pts": 2676,
      "07": 2677,
      "Ġic": 2678,
      "Ġha": 2679,
      "gu": 2680,
      "hr": 2681,
      "Î±": 2682,
      "Ġsuper": 2683,
      "Ġlog": 2684,
      "opath": 2685,
      "Ġacute": 2686,
      "model": 2687,
      "Ġcri": 2688,
      "Ġeducation": 2689,
      "Ġreceived": 2690,
      "resear": 2691,
      "Ġregul": 2692,
      "Ġversus": 2693,
      "Ġrap": 2694,
      "Ġsuccess": 2695,
      "Ġformation": 2696,
      "pat": 2697,
      "Ġplace": 2698,
      "Ġcause": 2699,
      "nf": 2700,
      "Ġlicense": 2701,
      "associated": 2702,
      "Ġplasma": 2703,
      "alf": 2704,
      "Ġyoung": 2705,
      "many": 2706,
      "ynam": 2707,
      "positive": 2708,
      "uary": 2709,
      "cohol": 2710,
      "Ġcer": 2711,
      "Ġele": 2712,
      "ird": 2713,
      "itis": 2714,
      "rol": 2715,
      "develop": 2716,
      "den": 2717,
      "Ġcountries": 2718,
      "Ġinterval": 2719,
      "Ġpul": 2720,
      "ler": 2721,
      "Ġresistance": 2722,
      "Ġimplement": 2723,
      "Ġfacil": 2724,
      "Ġoff": 2725,
      "ector": 2726,
      "Ġlight": 2727,
      "Ġtyp": 2728,
      "tention": 2729,
      "xi": 2730,
      "Ġbro": 2731,
      "--": 2732,
      "Ġdecreased": 2733,
      "Ġarter": 2734,
      "Ġstimul": 2735,
      "Ġmuch": 2736,
      "Ġplac": 2737,
      "arding": 2738,
      "Ġoptim": 2739,
      "Ġculture": 2740,
      "cepted": 2741,
      "Ġhealthy": 2742,
      "Ġmechanisms": 2743,
      "Ġimages": 2744,
      "pir": 2745,
      "Ġcost": 2746,
      "operative": 2747,
      "âĪĹ": 2748,
      "Ġaffect": 2749,
      "ogenic": 2750,
      "Ġeffective": 2751,
      "particip": 2752,
      "aches": 2753,
      "Ġyou": 2754,
      "Ġsd": 2755,
      "Ġfree": 2756,
      "ximately": 2757,
      "mor": 2758,
      "izing": 2759,
      "Ġtox": 2760,
      "Ġdam": 2761,
      "uts": 2762,
      "Ġthough": 2763,
      "ising": 2764,
      "ram": 2765,
      "Ġcenter": 2766,
      "ands": 2767,
      "Ġconsider": 2768,
      "Ġinhibit": 2769,
      "Ġintr": 2770,
      "Ġindicate": 2771,
      "Ġpregn": 2772,
      "comple": 2773,
      "cluding": 2774,
      "Ġ2005": 2775,
      "Ġevaluation": 2776,
      "Ġfeatures": 2777,
      "Ġ22": 2778,
      "__": 2779,
      "oth": 2780,
      "bor": 2781,
      "tur": 2782,
      "Ġtur": 2783,
      "function": 2784,
      "Ġrecogn": 2785,
      "Ġadap": 2786,
      "activ": 2787,
      "Ġcompound": 2788,
      "Ġdistributed": 2789,
      "let": 2790,
      "Ġheter": 2791,
      "current": 2792,
      "Ġsolution": 2793,
      "Ġpan": 2794,
      "ellular": 2795,
      "Ġpathway": 2796,
      "urse": 2797,
      "Ġsem": 2798,
      "Ġmuscle": 2799,
      "lect": 2800,
      "Ġable": 2801,
      "Ġdepartment": 2802,
      "Ġcontaining": 2803,
      "Ġpoor": 2804,
      "Ġconsistent": 2805,
      "Ġfull": 2806,
      "pite": 2807,
      "Ġmembrane": 2808,
      "Ġsubst": 2809,
      "Ġprocesses": 2810,
      "09": 2811,
      "Ġcho": 2812,
      "Ġcontext": 2813,
      "Ġplay": 2814,
      "Ġcontent": 2815,
      "Ġcompos": 2816,
      "Ġweek": 2817,
      "Ġrather": 2818,
      "ĠÂ¼": 2819,
      "ets": 2820,
      "hum": 2821,
      "tension": 2822,
      "ones": 2823,
      "Ġincub": 2824,
      "Ġtaken": 2825,
      "Ġdrugs": 2826,
      "char": 2827,
      "Ġreduc": 2828,
      "Ġlast": 2829,
      "Ġcognitive": 2830,
      "ventions": 2831,
      "Ġlines": 2832,
      "sk": 2833,
      "ogenesis": 2834,
      "fac": 2835,
      "aa": 2836,
      "ney": 2837,
      "Ġfemale": 2838,
      "Ġlike": 2839,
      "Ġconcer": 2840,
      "Ġimmune": 2841,
      "Ġservices": 2842,
      "ansi": 2843,
      "tricted": 2844,
      "istry": 2845,
      "Ġreports": 2846,
      "Ġgly": 2847,
      "lor": 2848,
      "tial": 2849,
      "po": 2850,
      "ye": 2851,
      "sw": 2852,
      "Ġbiological": 2853,
      "pan": 2854,
      "Ġreal": 2855,
      "Ġfuture": 2856,
      "Ġpolym": 2857,
      "Ġdetection": 2858,
      "plac": 2859,
      "Ġdon": 2860,
      "department": 2861,
      "Ġemerg": 2862,
      "two": 2863,
      "treated": 2864,
      "Ġestimated": 2865,
      "Ġregression": 2866,
      "Ġrelevant": 2867,
      "mg": 2868,
      "Ġbur": 2869,
      "usted": 2870,
      "Ġposition": 2871,
      "enz": 2872,
      "2015": 2873,
      "Ã©": 2874,
      "pecially": 2875,
      "Ġexpected": 2876,
      "au": 2877,
      "off": 2878,
      "reng": 2879,
      "Ġexperiment": 2880,
      "Ġdiv": 2881,
      "ying": 2882,
      "Ġnecess": 2883,
      "Ġexist": 2884,
      "Ġgenome": 2885,
      "Ġrece": 2886,
      "Ġenergy": 2887,
      "Ġelectro": 2888,
      "Ġconn": 2889,
      "yst": 2890,
      "Ġspe": 2891,
      "methods": 2892,
      "amine": 2893,
      "Ġanimal": 2894,
      "Ġpoints": 2895,
      "Ġdomain": 2896,
      "Ġphysi": 2897,
      "Ġsurvey": 2898,
      "covery": 2899,
      "vis": 2900,
      "sa": 2901,
      "Ġtoward": 2902,
      "Ġviv": 2903,
      "isted": 2904,
      "Ġsensitivity": 2905,
      "Ġdeg": 2906,
      "however": 2907,
      "Ġpolic": 2908,
      "Ġax": 2909,
      "Ġrequire": 2910,
      "Ġdeliver": 2911,
      "Ġpower": 2912,
      "Ġred": 2913,
      "Ġsequences": 2914,
      "Ġkin": 2915,
      "Ġdisorders": 2916,
      "lim": 2917,
      "Ġobj": 2918,
      "known": 2919,
      "Ġmeans": 2920,
      "Ġlat": 2921,
      "bid": 2922,
      "Ġdev": 2923,
      "Ġimage": 2924,
      "Ġfil": 2925,
      "follow": 2926,
      "Ġfib": 2927,
      "Ġnat": 2928,
      "Ġactivities": 2929,
      "Ġec": 2930,
      "play": 2931,
      "Ġcellular": 2932,
      "Ġhor": 2933,
      "Ġpd": 2934,
      "Ġconsum": 2935,
      "Ġtask": 2936,
      "Ġmouse": 2937,
      "Ġpopulations": 2938,
      "Ġworld": 2939,
      "Ġinterview": 2940,
      "where": 2941,
      "Ġcohort": 2942,
      "mark": 2943,
      "Ġlaboratory": 2944,
      "Ġexperience": 2945,
      "Ġsignaling": 2946,
      "otor": 2947,
      "has": 2948,
      "hest": 2949,
      "Ġnan": 2950,
      "Ġwid": 2951,
      "Ġreference": 2952,
      "activity": 2953,
      "Ġnutr": 2954,
      "Ġevery": 2955,
      "oplas": 2956,
      "Ġdecrease": 2957,
      "Ġdeï¬ģ": 2958,
      "Ġaltern": 2959,
      "reported": 2960,
      "Ġcomplete": 2961,
      "therapy": 2962,
      "Ġresulting": 2963,
      "ula": 2964,
      "Ġmutations": 2965,
      "lin": 2966,
      "lex": 2967,
      "Ġhome": 2968,
      "agen": 2969,
      "research": 2970,
      "Ġbest": 2971,
      "also": 2972,
      "Ġpoly": 2973,
      "Ġinjury": 2974,
      "Ġow": 2975,
      "grad": 2976,
      "Ġsection": 2977,
      "bon": 2978,
      "pop": 2979,
      "Ġpepti": 2980,
      "uble": 2981,
      "Ġquestionna": 2982,
      "Ġonline": 2983,
      "son": 2984,
      "âĢ²": 2985,
      "Ġpeak": 2986,
      "Ġ28": 2987,
      "Ġflow": 2988,
      "Ġway": 2989,
      "Ġrats": 2990,
      "Ġbelow": 2991,
      "Ġpaper": 2992,
      "Ġ/": 2993,
      "Ġpcr": 2994,
      "Ġhaving": 2995,
      "Ġselection": 2996,
      "ication": 2997,
      "nd": 2998,
      "Ġreaction": 2999,
      "Ġconfir": 3000,
      "ided": 3001,
      "Ġmedian": 3002,
      "Ġstar": 3003,
      "Ġglobal": 3004,
      "Ġmental": 3005,
      "Ġsigniï¬ģcantly": 3006,
      "Ġsu": 3007,
      "Ġglucose": 3008,
      "Ġlimit": 3009,
      "Ġevaluated": 3010,
      "Ġfurthermore": 3011,
      "hydro": 3012,
      "olic": 3013,
      "Ġhead": 3014,
      "Ġcontain": 3015,
      "Ġproblems": 3016,
      "ights": 3017,
      "entially": 3018,
      "mem": 3019,
      "Ġfive": 3020,
      "correspon": 3021,
      "Ġdatab": 3022,
      "Ġinstitute": 3023,
      "anged": 3024,
      "Ġload": 3025,
      "Ġvitro": 3026,
      "bec": 3027,
      "eutic": 3028,
      "Ġinflamm": 3029,
      "Ġstates": 3030,
      "but": 3031,
      "Ġprocedure": 3032,
      "Ġmedi": 3033,
      "leep": 3034,
      "Ġdos": 3035,
      "Ġduration": 3036,
      "Ġra": 3037,
      "Ġothers": 3038,
      "tosis": 3039,
      "Ġwhole": 3040,
      "fication": 3041,
      "Ġsuggested": 3042,
      "Ġsecondary": 3043,
      "rh": 3044,
      "Ġdefined": 3045,
      "Ġ23": 3046,
      "Ġquanti": 3047,
      "Ġclos": 3048,
      "stract": 3049,
      "oding": 3050,
      "Ġtw": 3051,
      "fusion": 3052,
      "pd": 3053,
      "Ġassum": 3054,
      "ba": 3055,
      "Ġinteractions": 3056,
      "may": 3057,
      "Ġlay": 3058,
      "Ġsoftware": 3059,
      "pers": 3060,
      "Ġadult": 3061,
      "obser": 3062,
      "long": 3063,
      "dem": 3064,
      "tok": 3065,
      "âĢľ": 3066,
      "Ġproperties": 3067,
      "studies": 3068,
      "yo": 3069,
      "Ġrecently": 3070,
      "Ġsitu": 3071,
      "Ġvivo": 3072,
      "ondri": 3073,
      "tg": 3074,
      "tem": 3075,
      "Ġcreative": 3076,
      "Ġsens": 3077,
      "Ġalle": 3078,
      "Ġexamined": 3079,
      "tc": 3080,
      "Ġemploy": 3081,
      "Ġadults": 3082,
      "Ġside": 3083,
      "Ġinternational": 3084,
      "been": 3085,
      "anes": 3086,
      "Ġsource": 3087,
      "identi": 3088,
      "ls": 3089,
      "agg": 3090,
      "Ġitems": 3091,
      "Ġscreening": 3092,
      "Ġantibody": 3093,
      "Ġampl": 3094,
      "Ġdaily": 3095,
      "indi": 3096,
      "ious": 3097,
      "ercise": 3098,
      "Ġalong": 3099,
      "Ġconï¬ģ": 3100,
      "Ġsynd": 3101,
      "%),": 3102,
      "Ġdetect": 3103,
      "Ġess": 3104,
      "otypes": 3105,
      "Ġltd": 3106,
      "Ġrespond": 3107,
      "Ġmust": 3108,
      "Ġcombination": 3109,
      "ape": 3110,
      "ream": 3111,
      "Ġmeasurements": 3112,
      "Ġrecr": 3113,
      "pect": 3114,
      "osts": 3115,
      "Ġreduce": 3116,
      "Ġutil": 3117,
      "such": 3118,
      "Ġ2004": 3119,
      "ili": 3120,
      "open": 3121,
      "Ġinduced": 3122,
      "ectiv": 3123,
      "Ġincidence": 3124,
      "Ġbu": 3125,
      "Ġpatterns": 3126,
      "Ġconsequ": 3127,
      "gor": 3128,
      "pcr": 3129,
      "sch": 3130,
      "Ġoxid": 3131,
      "Ġdynam": 3132,
      "Ġcirc": 3133,
      "combin": 3134,
      "received": 3135,
      "Ġscience": 3136,
      "system": 3137,
      "my": 3138,
      "Ġrapid": 3139,
      "ateral": 3140,
      "cles": 3141,
      "Ġlearning": 3142,
      "Ġpair": 3143,
      "bas": 3144,
      "their": 3145,
      "sed": 3146,
      "elines": 3147,
      "fied": 3148,
      "bal": 3149,
      "Ġcere": 3150,
      "roke": 3151,
      "istered": 3152,
      "***": 3153,
      "omal": 3154,
      "Ġepid": 3155,
      "ochondri": 3156,
      "Ġvariable": 3157,
      "Ġalcohol": 3158,
      "Ġseg": 3159,
      "Ġquestions": 3160,
      "encies": 3161,
      "ygen": 3162,
      "Ġcall": 3163,
      "pp": 3164,
      "Ġdiffer": 3165,
      "Ġelectr": 3166,
      "Ġplant": 3167,
      "ote": 3168,
      "when": 3169,
      "zyme": 3170,
      "Ġrest": 3171,
      "Ġdensity": 3172,
      "Ġcomponents": 3173,
      "discus": 3174,
      "rection": 3175,
      "Ġmechanism": 3176,
      "Ġolder": 3177,
      "Ġadded": 3178,
      "Ġdiffic": 3179,
      "than": 3180,
      "Ġobes": 3181,
      "Ġmake": 3182,
      "0001": 3183,
      "Ġupon": 3184,
      "assi": 3185,
      "Ġerror": 3186,
      "iques": 3187,
      "aternal": 3188,
      "Ġair": 3189,
      "Ġhours": 3190,
      "Ġquantit": 3191,
      "Ġtransi": 3192,
      "uter": 3193,
      "Ġdiss": 3194,
      "Ġdri": 3195,
      "Ġwr": 3196,
      "risk": 3197,
      "Ġepit": 3198,
      "Ġprolif": 3199,
      "rix": 3200,
      "Ġproblem": 3201,
      "Ġproposed": 3202,
      "men": 3203,
      "Ġabsence": 3204,
      "Ġpossi": 3205,
      "ï¬ģcation": 3206,
      "Ġprevent": 3207,
      "Ġlarger": 3208,
      "Ġrecorded": 3209,
      "Ġdirectly": 3210,
      "Ġdepression": 3211,
      "gether": 3212,
      "Ġfailure": 3213,
      "dise": 3214,
      "Ġintra": 3215,
      "ope": 3216,
      "Ġcycle": 3217,
      "both": 3218,
      "angu": 3219,
      "Ġperson": 3220,
      "pc": 3221,
      "Ġparticularly": 3222,
      "acity": 3223,
      "Ġstudents": 3224,
      "Ġlig": 3225,
      "uction": 3226,
      "Ġ37": 3227,
      "Ġoral": 3228,
      "Ġappropriate": 3229,
      "Ġrelatively": 3230,
      "Ġmorph": 3231,
      "Ġeas": 3232,
      "pared": 3233,
      "Ġvariation": 3234,
      "ovascular": 3235,
      "content": 3236,
      "uclear": 3237,
      "olar": 3238,
      "Ġplan": 3239,
      "Ġunderstanding": 3240,
      "Ġaround": 3241,
      "Ġtissues": 3242,
      "yro": 3243,
      "Ġ2018": 3244,
      "Ġbio": 3245,
      "ologies": 3246,
      "inant": 3247,
      "position": 3248,
      "Ġcarried": 3249,
      "Ġperm": 3250,
      "Ġtogether": 3251,
      "Ġincreases": 3252,
      "Ġ%)": 3253,
      "mul": 3254,
      "akes": 3255,
      "Ġidentiï¬ģed": 3256,
      "Ġ26": 3257,
      "range": 3258,
      "Ġï¬ģnding": 3259,
      "Ġinst": 3260,
      "Ġespecially": 3261,
      "Ġmembers": 3262,
      "va": 3263,
      "during": 3264,
      "nt": 3265,
      "bly": 3266,
      "Ġoste": 3267,
      "Ġlinear": 3268,
      "Ġhar": 3269,
      "show": 3270,
      "che": 3271,
      "Ġlit": 3272,
      "Ġcolle": 3273,
      "Ġregarding": 3274,
      "Ġstudied": 3275,
      "Ġcollection": 3276,
      "Ġamin": 3277,
      "Ġelev": 3278,
      "Ġstreng": 3279,
      "arily": 3280,
      "through": 3281,
      "ext": 3282,
      "Ġplate": 3283,
      "pm": 3284,
      "Ġstem": 3285,
      "Ġpercentage": 3286,
      "eness": 3287,
      "Ġpathways": 3288,
      "orph": 3289,
      "Ġreli": 3290,
      "Ġapproximately": 3291,
      "gorith": 3292,
      "net": 3293,
      "Ġtreat": 3294,
      "expression": 3295,
      "Ġregard": 3296,
      "Ġneurons": 3297,
      "Ġlist": 3298,
      "Ġamount": 3299,
      "Ġproportion": 3300,
      "Ġsil": 3301,
      "Ġaffected": 3302,
      "Ġsuggests": 3303,
      "Ġocc": 3304,
      "Ġfer": 3305,
      "fa": 3306,
      "Ġinvestigated": 3307,
      "Ġsampl": 3308,
      "Ġimproved": 3309,
      "Ġpharmac": 3310,
      "statis": 3311,
      "Ġinterventions": 3312,
      "years": 3313,
      "Ġinterpre": 3314,
      "oxid": 3315,
      "Ġsearch": 3316,
      "abstract": 3317,
      "Ġdevi": 3318,
      "Ġcorresponding": 3319,
      "ĠÂ°": 3320,
      "mental": 3321,
      "value": 3322,
      "oti": 3323,
      "Ġskin": 3324,
      "Ġphot": 3325,
      "child": 3326,
      "Ġaction": 3327,
      "ats": 3328,
      "Ġden": 3329,
      "Ġsciences": 3330,
      "Ġgender": 3331,
      "Ġmoreover": 3332,
      "Ġmonitor": 3333,
      "state": 3334,
      "Ġprec": 3335,
      "ulted": 3336,
      "Ġcommons": 3337,
      "Ġnovel": 3338,
      "speciï¬ģc": 3339,
      "Ġthird": 3340,
      "gal": 3341,
      "Ġstatistically": 3342,
      "Ġmaximum": 3343,
      "xt": 3344,
      "Ġinhibition": 3345,
      "mid": 3346,
      "ulf": 3347,
      "Ġcombined": 3348,
      "brid": 3349,
      "Ġinsulin": 3350,
      "Ġstructures": 3351,
      "aling": 3352,
      "ash": 3353,
      "point": 3354,
      "ï¬Ģeren": 3355,
      "icians": 3356,
      "Ġneeded": 3357,
      "Ġemo": 3358,
      "Ġadhe": 3359,
      "Ġ2000": 3360,
      "tered": 3361,
      "Ġbal": 3362,
      "Ġuntil": 3363,
      "Ġcardiac": 3364,
      "li": 3365,
      "Ġ27": 3366,
      "Ġinï¬Ĥu": 3367,
      "Ġdig": 3368,
      "Ġspecial": 3369,
      "Ġcritical": 3370,
      "Ġthres": 3371,
      "Ġsurgical": 3372,
      "Ġmemory": 3373,
      "ped": 3374,
      "wee": 3375,
      "groups": 3376,
      "human": 3377,
      "Ġagg": 3378,
      "Ġcolon": 3379,
      "ocardi": 3380,
      "Ġstrategies": 3381,
      "Ġfunctions": 3382,
      "Ġproducts": 3383,
      "ĠÎ¼m": 3384,
      "Ġderived": 3385,
      "fold": 3386,
      "Ġscienti": 3387,
      "pen": 3388,
      "aring": 3389,
      "Ġmetast": 3390,
      "chem": 3391,
      "significant": 3392,
      "etal": 3393,
      "Ġdistin": 3394,
      "Ġantibodies": 3395,
      "igned": 3396,
      "Ġmajority": 3397,
      "prim": 3398,
      "osome": 3399,
      "Ġsyndrome": 3400,
      "ception": 3401,
      "pv": 3402,
      "Ġip": 3403,
      "fl": 3404,
      "Ġind": 3405,
      "Ġfield": 3406,
      "Ġevent": 3407,
      "cribed": 3408,
      "rup": 3409,
      "izes": 3410,
      "Ġwild": 3411,
      "take": 3412,
      "assess": 3413,
      "Ġafric": 3414,
      "Ġenti": 3415,
      "Ġdamage": 3416,
      "Ġrun": 3417,
      "Ġdespite": 3418,
      "words": 3419,
      "Ġbri": 3420,
      "uffer": 3421,
      "Ġhighest": 3422,
      "iï¬ģed": 3423,
      "Ġaccepted": 3424,
      "Ġexhib": 3425,
      "Ġmigr": 3426,
      "Ġdiver": 3427,
      "Ġrenal": 3428,
      "eg": 3429,
      "acts": 3430,
      "Ġgenerated": 3431,
      "Ġhip": 3432,
      "Ġsleep": 3433,
      "Ġchemical": 3434,
      "tum": 3435,
      "ĠÂµ": 3436,
      "Ġmarkers": 3437,
      "Ġnumbers": 3438,
      "including": 3439,
      "........": 3440,
      "labor": 3441,
      "Ġcourse": 3442,
      "Ġfinal": 3443,
      "elling": 3444,
      "Ġstrain": 3445,
      "Ġversion": 3446,
      "Ġinternal": 3447,
      "Ġpor": 3448,
      "plas": 3449,
      "Ġdiagnostic": 3450,
      "Ġcut": 3451,
      "free": 3452,
      "pi": 3453,
      "Ġstrains": 3454,
      "Ġdecision": 3455,
      "mitted": 3456,
      "ulating": 3457,
      "fron": 3458,
      "Ġresearc": 3459,
      "Ġmrna": 3460,
      "Ġnear": 3461,
      "Ġprovides": 3462,
      "tors": 3463,
      "Ġcam": 3464,
      "ocal": 3465,
      "spective": 3466,
      "post": 3467,
      "change": 3468,
      "Ġapproaches": 3469,
      "nm": 3470,
      "Ġisolated": 3471,
      "ray": 3472,
      "only": 3473,
      "sor": 3474,
      "journal": 3475,
      "eter": 3476,
      "although": 3477,
      "Ġcaused": 3478,
      "que": 3479,
      "rm": 3480,
      "cat": 3481,
      "orescence": 3482,
      "eld": 3483,
      "Ġreason": 3484,
      "Ġ2003": 3485,
      "Ġpermits": 3486,
      "Ġbirth": 3487,
      "process": 3488,
      "emi": 3489,
      "Ġbiology": 3490,
      "Ġaccount": 3491,
      "Ġiv": 3492,
      "Ġshowing": 3493,
      "cv": 3494,
      "rt": 3495,
      "Ġblock": 3496,
      "otyp": 3497,
      "2013": 3498,
      "Ġ35": 3499,
      "Ġembr": 3500,
      "Ġproduced": 3501,
      "Ġmill": 3502,
      "Ġavoid": 3503,
      "Ġ90": 3504,
      "Ġrelease": 3505,
      "wise": 3506,
      "experim": 3507,
      "fam": 3508,
      "pot": 3509,
      "Ġdisorder": 3510,
      "ova": 3511,
      "bio": 3512,
      "weight": 3513,
      "Ġorigin": 3514,
      "Ġhouse": 3515,
      "Ġattribution": 3516,
      "mary": 3517,
      "each": 3518,
      "ked": 3519,
      "Ġ48": 3520,
      "restricted": 3521,
      "ipher": 3522,
      "ibility": 3523,
      "Ġexercise": 3524,
      "ameter": 3525,
      "Ġcluster": 3526,
      "Ġamino": 3527,
      "Ġbehaviour": 3528,
      "atives": 3529,
      "Ġseries": 3530,
      "estern": 3531,
      "coun": 3532,
      "Ġfram": 3533,
      "psych": 3534,
      "phosph": 3535,
      "Ġnow": 3536,
      "dm": 3537,
      "Ġprofession": 3538,
      "ocyte": 3539,
      "isation": 3540,
      "Ġdelivery": 3541,
      "Ġappear": 3542,
      "Ġleading": 3543,
      "Ġchemo": 3544,
      "ars": 3545,
      "Ġbasis": 3546,
      "ger": 3547,
      "Ġbenef": 3548,
      "xiety": 3549,
      "Ġcertain": 3550,
      "anging": 3551,
      "diagn": 3552,
      "negative": 3553,
      "ï¬ģcient": 3554,
      "Ġintensity": 3555,
      "Ġprocedures": 3556,
      "Ġmetabolic": 3557,
      "ges": 3558,
      "published": 3559,
      "Ġestablished": 3560,
      "Ġalter": 3561,
      "Ġenvironmental": 3562,
      "Ġrare": 3563,
      "adj": 3564,
      "Ġmel": 3565,
      "Ġagre": 3566,
      "Ġmeasurement": 3567,
      "Ġdegree": 3568,
      "imin": 3569,
      "Ġproperly": 3570,
      "ho": 3571,
      "Ġneeds": 3572,
      "Ġmutation": 3573,
      "Ġ80": 3574,
      "Ġng": 3575,
      "Ġtumors": 3576,
      "Ġbelie": 3577,
      "itions": 3578,
      "ivers": 3579,
      "ached": 3580,
      "Ġquestionnaire": 3581,
      "Ġï¬Ĥu": 3582,
      "poral": 3583,
      "Ġunit": 3584,
      "Ġconsent": 3585,
      "oral": 3586,
      "Ġig": 3587,
      "Ġfa": 3588,
      "2018": 3589,
      "Ġabnormal": 3590,
      "ners": 3591,
      "fem": 3592,
      "iii": 3593,
      "Ġnurs": 3594,
      "discussion": 3595,
      "Ġimportance": 3596,
      "eds": 3597,
      "Ġmicroscop": 3598,
      "Ġnatural": 3599,
      "Ġfacilit": 3600,
      "iency": 3601,
      "Ġfar": 3602,
      "2014": 3603,
      "Ġapop": 3604,
      "ologic": 3605,
      "Ġide": 3606,
      "ĠÎ²": 3607,
      "Ġsession": 3608,
      "Ġsuggesting": 3609,
      "Ġregulation": 3610,
      "Ġapplication": 3611,
      ")-": 3612,
      "Ġmiss": 3613,
      "Ġprocessing": 3614,
      "ingly": 3615,
      "2012": 3616,
      "Ġvascular": 3617,
      "Ġteam": 3618,
      "anol": 3619,
      "quired": 3620,
      "Ġbroad": 3621,
      "Ġpredicted": 3622,
      "bial": 3623,
      "Ġprote": 3624,
      "Ġalone": 3625,
      "Â©": 3626,
      "Ġpolicy": 3627,
      "Ġmother": 3628,
      "Ġyet": 3629,
      "participants": 3630,
      "Ġalgorith": 3631,
      "cord": 3632,
      "ival": 3633,
      "aria": 3634,
      "ills": 3635,
      "aries": 3636,
      "Ġuseful": 3637,
      "Ġguidelines": 3638,
      "Ġdiscussion": 3639,
      "Ġnecessary": 3640,
      "ils": 3641,
      "struct": 3642,
      "Ġadministration": 3643,
      "Ġexcluded": 3644,
      "Ġstroke": 3645,
      "Ġstrategy": 3646,
      "Ġchalleng": 3647,
      "overn": 3648,
      "Ġcle": 3649,
      "uv": 3650,
      "une": 3651,
      "âĢĻâĢĻ": 3652,
      "dle": 3653,
      "bur": 3654,
      "Ġcytok": 3655,
      "Ġnext": 3656,
      "Ġreproduction": 3657,
      "some": 3658,
      "Ġvent": 3659,
      "Ġselec": 3660,
      "rosis": 3661,
      "Ġorganis": 3662,
      "Ġscan": 3663,
      "Ġdatas": 3664,
      "anguage": 3665,
      "Ġlesions": 3666,
      "Ġhost": 3667,
      "ana": 3668,
      "Ġcomponent": 3669,
      "Ġsafety": 3670,
      "Ġpast": 3671,
      "radi": 3672,
      "Ġtherapeutic": 3673,
      "cancer": 3674,
      "Ġdep": 3675,
      "monary": 3676,
      "introduction": 3677,
      "Ġwhite": 3678,
      "Ġmaterials": 3679,
      "Ġestimates": 3680,
      "Ġcapacity": 3681,
      "gin": 3682,
      "Ġ2002": 3683,
      "Ġtranscription": 3684,
      "itude": 3685,
      "Ġinform": 3686,
      "any": 3687,
      "Ġantigen": 3688,
      "Ġdil": 3689,
      "Ġgenerally": 3690,
      "Ġtechniques": 3691,
      "othel": 3692,
      "Ġspati": 3693,
      "Ġqual": 3694,
      "Ġrespir": 3695,
      "Ġ29": 3696,
      "Ġbias": 3697,
      "Ġevaluate": 3698,
      "Ġla": 3699,
      "Ġlonger": 3700,
      "rected": 3701,
      "Ġpregnancy": 3702,
      "Ġsubsequent": 3703,
      "Ġclinic": 3704,
      "Ġcoll": 3705,
      "found": 3706,
      "Ġsecre": 3707,
      "Ġfrag": 3708,
      "stim": 3709,
      "Ġcommit": 3710,
      "Ġtren": 3711,
      "body": 3712,
      "clusions": 3713,
      "Ġsuccessful": 3714,
      "Ġconver": 3715,
      "Ġevolution": 3716,
      "Ġchann": 3717,
      "tition": 3718,
      "provid": 3719,
      "Ġhalf": 3720,
      "Ġindicates": 3721,
      "Ġmitochondri": 3722,
      "new": 3723,
      "Ġdiï¬Ģeren": 3724,
      "bc": 3725,
      "Ġnoted": 3726,
      "ework": 3727,
      "pg": 3728,
      "hig": 3729,
      "Ġmolecules": 3730,
      "scale": 3731,
      "ades": 3732,
      "mer": 3733,
      "ching": 3734,
      "Ġhr": 3735,
      "Ġintro": 3736,
      "Ġmes": 3737,
      "Ġâī¥": 3738,
      "compared": 3739,
      "Ġservice": 3740,
      "Ġmethyl": 3741,
      "Ġusually": 3742,
      "Ġmil": 3743,
      "Ġdatabase": 3744,
      "Ġameric": 3745,
      "%).": 3746,
      "prot": 3747,
      "ift": 3748,
      "Ġsubject": 3749,
      "review": 3750,
      "character": 3751,
      "Ġfeed": 3752,
      "ighted": 3753,
      "Ġacc": 3754,
      "case": 3755,
      "Ġcompounds": 3756,
      "Ġdone": 3757,
      "Ġcarcin": 3758,
      "arent": 3759,
      "ternal": 3760,
      "mir": 3761,
      "ending": 3762,
      "Ġwall": 3763,
      "hing": 3764,
      "Ġchem": 3765,
      "nam": 3766,
      "ulty": 3767,
      "ĠÎ±": 3768,
      "Ġhealthcare": 3769,
      "Ġparents": 3770,
      "Ġped": 3771,
      "opro": 3772,
      "Ġsociety": 3773,
      "bil": 3774,
      "Ġna": 3775,
      "Ġexc": 3776,
      "Ġcosts": 3777,
      "mediate": 3778,
      "Ġexamination": 3779,
      "123": 3780,
      "Ġessential": 3781,
      "Ġproject": 3782,
      "Ġmagn": 3783,
      "had": 3784,
      "itr": 3785,
      "different": 3786,
      "Ġann": 3787,
      "Ġnature": 3788,
      "lier": 3789,
      "indic": 3790,
      "hood": 3791,
      "md": 3792,
      "âĢĥ": 3793,
      "Ġstaining": 3794,
      "vered": 3795,
      "Ġ31": 3796,
      "mut": 3797,
      "increased": 3798,
      "terol": 3799,
      "response": 3800,
      "molec": 3801,
      "apping": 3802,
      "Ġadoles": 3803,
      "gly": 3804,
      "Ġtake": 3805,
      "Ġbp": 3806,
      "Ġcauses": 3807,
      "fort": 3808,
      "Ġbacterial": 3809,
      "Ġ45": 3810,
      "Ġissues": 3811,
      "Ġcurrently": 3812,
      "mp": 3813,
      "tom": 3814,
      "andid": 3815,
      "Ġseverity": 3816,
      "yroid": 3817,
      "tices": 3818,
      "while": 3819,
      "np": 3820,
      "Ġtend": 3821,
      "Ġonset": 3822,
      "ques": 3823,
      "Ġintake": 3824,
      "presents": 3825,
      "Ġfit": 3826,
      "tile": 3827,
      "mediated": 3828,
      "ify": 3829,
      "Ġresulted": 3830,
      "individual": 3831,
      "Ġtechnology": 3832,
      "del": 3833,
      "Ġaccum": 3834,
      "Ġfemales": 3835,
      "Ġsuff": 3836,
      "Ġremains": 3837,
      "Ġoxygen": 3838,
      "Ġ70": 3839,
      "Ġcited": 3840,
      "lip": 3841,
      "Ġworking": 3842,
      "ses": 3843,
      "Ġkid": 3844,
      "Ġinfluence": 3845,
      "Ġod": 3846,
      "Ġsa": 3847,
      "Ġstructural": 3848,
      "jects": 3849,
      "Ġspace": 3850,
      "light": 3851,
      "Ġrecommend": 3852,
      "down": 3853,
      "disease": 3854,
      "target": 3855,
      "Ġunrestricted": 3856,
      "Ġeï¬Ģ": 3857,
      "ched": 3858,
      "ban": 3859,
      "Ġdisplay": 3860,
      "pects": 3861,
      "Ġextent": 3862,
      "Ġepithel": 3863,
      "paired": 3864,
      "keywords": 3865,
      "alle": 3866,
      "micro": 3867,
      "asons": 3868,
      "ply": 3869,
      "fp": 3870,
      "hd": 3871,
      "Ġfol": 3872,
      "Ġsmoking": 3873,
      "Ġthick": 3874,
      "Ġmatrix": 3875,
      "Ġcannot": 3876,
      "supplement": 3877,
      "elec": 3878,
      "Ġtechnique": 3879,
      "istant": 3880,
      "Ġmales": 3881,
      "istent": 3882,
      "iley": 3883,
      "Ġste": 3884,
      "Ġmd": 3885,
      "Ġinfections": 3886,
      "deter": 3887,
      "gener": 3888,
      "ixed": 3889,
      "tioned": 3890,
      "Ġindicating": 3891,
      "three": 3892,
      "Ġdesigned": 3893,
      "zym": 3894,
      "Ġsubstr": 3895,
      "Ġcore": 3896,
      "Ġcontact": 3897,
      "Ġforms": 3898,
      "Ġneu": 3899,
      "tee": 3900,
      "trial": 3901,
      "ril": 3902,
      "tensive": 3903,
      "ready": 3904,
      "Ġold": 3905,
      "exam": 3906,
      "Ġaccuracy": 3907,
      "further": 3908,
      "oids": 3909,
      "Ġjap": 3910,
      "Ġimprovement": 3911,
      "ochemical": 3912,
      "Ġecon": 3913,
      "Ġlittle": 3914,
      "ada": 3915,
      "Ġten": 3916,
      "Ġattention": 3917,
      "lated": 3918,
      "def": 3919,
      "Ġmotor": 3920,
      "within": 3921,
      "Ġmap": 3922,
      "Ġ2001": 3923,
      "ipheral": 3924,
      "uly": 3925,
      "cardi": 3926,
      "Ġdeveloping": 3927,
      "Ġcontinuous": 3928,
      "Ġlipid": 3929,
      "Ġimpair": 3930,
      "Ġjoh": 3931,
      "Ġprogression": 3932,
      "Ġonce": 3933,
      "pha": 3934,
      "Ġproliferation": 3935,
      "Ġsystematic": 3936,
      "Ġhen": 3937,
      "Ġincor": 3938,
      "aster": 3939,
      "hyp": 3940,
      "Ġrt": 3941,
      "Ġenzyme": 3942,
      "Ġadverse": 3943,
      "kele": 3944,
      "imension": 3945,
      "last": 3946,
      "Ġrev": 3947,
      "anuary": 3948,
      "Ġlocation": 3949,
      "onomic": 3950,
      "dna": 3951,
      "Ġpromo": 3952,
      "erve": 3953,
      "Ġstimulation": 3954,
      "asp": 3955,
      "Ġreceptors": 3956,
      "compar": 3957,
      "oster": 3958,
      "Ġdistance": 3959,
      "Ġrad": 3960,
      "Ġaged": 3961,
      "poses": 3962,
      "Ġconcept": 3963,
      "Ġsynthesis": 3964,
      "Ġtreatments": 3965,
      "rich": 3966,
      "Ġbecome": 3967,
      "Ġviral": 3968,
      "ifor": 3969,
      "Ġagents": 3970,
      "Ġproduct": 3971,
      "being": 3972,
      "otherapy": 3973,
      "Ġroom": 3974,
      "stream": 3975,
      "class": 3976,
      "Ġpanel": 3977,
      "Ġï¬ģndings": 3978,
      "Ġcorrect": 3979,
      "Ġacids": 3980,
      ".)": 3981,
      "Ã¾": 3982,
      "Ġvit": 3983,
      "Ġpi": 3984,
      "Ġmeet": 3985,
      "Ġresources": 3986,
      "bro": 3987,
      "Ġmixed": 3988,
      "Ġalternative": 3989,
      "omer": 3990,
      "Ġupper": 3991,
      "regulated": 3992,
      "Ġful": 3993,
      "material": 3994,
      "Ġiii": 3995,
      "Ġdifferentiation": 3996,
      "Ġhypothesis": 3997,
      "Ġbound": 3998,
      "Ġmetabolism": 3999,
      "osa": 4000,
      "Ġown": 4001,
      "Ġnote": 4002,
      "%.": 4003,
      "Ġdate": 4004,
      "regulation": 4005,
      "volume": 4006,
      "Ġpen": 4007,
      "omas": 4008,
      "Ġtransfer": 4009,
      "stant": 4010,
      "sia": 4011,
      "ads": 4012,
      "Ġnever": 4013,
      "Ġterm": 4014,
      "Ġdefin": 4015,
      "ai": 4016,
      "wide": 4017,
      "omics": 4018,
      "artic": 4019,
      "syn": 4020,
      "Ġbacteria": 4021,
      "Ġmonth": 4022,
      "Ġsouth": 4023,
      "Ġ32": 4024,
      "Ġplants": 4025,
      "Ġcorrelated": 4026,
      "cult": 4027,
      "Ġexpress": 4028,
      "who": 4029,
      "Ġcontrolled": 4030,
      "previous": 4031,
      "Ġanxiety": 4032,
      "Ġvariants": 4033,
      "Ġled": 4034,
      "Ġmaternal": 4035,
      "aph": 4036,
      "Ġsequencing": 4037,
      "Ġintroduction": 4038,
      "Ġpotentially": 4039,
      "Ġtowards": 4040,
      "erved": 4041,
      "ford": 4042,
      "multi": 4043,
      "they": 4044,
      "uma": 4045,
      "organ": 4046,
      "ophil": 4047,
      "avail": 4048,
      "icacy": 4049,
      "going": 4050,
      "Ġbios": 4051,
      "2011": 4052,
      "ativ": 4053,
      "derived": 4054,
      "ilies": 4055,
      "ogenous": 4056,
      "ises": 4057,
      "Ġinvestigate": 4058,
      "ives": 4059,
      "sample": 4060,
      "Ġbiomed": 4061,
      "correspondence": 4062,
      "Ġaug": 4063,
      "Ġfinally": 4064,
      "isons": 4065,
      "ocr": 4066,
      "Ġenzym": 4067,
      "ley": 4068,
      "Ġstable": 4069,
      "logical": 4070,
      "imens": 4071,
      "ients": 4072,
      "Ġnam": 4073,
      "Ġcs": 4074,
      "adv": 4075,
      "Ġliving": 4076,
      "ventional": 4077,
      "import": 4078,
      "hyper": 4079,
      "population": 4080,
      "Ġintrac": 4081,
      "abs": 4082,
      "Ġmoderate": 4083,
      "gi": 4084,
      "plantation": 4085,
      "Ġ*": 4086,
      "Ġachieved": 4087,
      "Ġmedia": 4088,
      "vation": 4089,
      "Ġinvas": 4090,
      "cap": 4091,
      "cp": 4092,
      "aft": 4093,
      "2010": 4094,
      "Ġestimate": 4095,
      "Ġensure": 4096,
      "Ġobesity": 4097,
      "Ġrepeated": 4098,
      "Ġsig": 4099,
      "cepti": 4100,
      "ectiveness": 4101,
      "inking": 4102,
      "certain": 4103,
      "Ġsources": 4104,
      "Ġlocated": 4105,
      "Ġcolum": 4106,
      "'s": 4107,
      "Ġ36": 4108,
      "Ġparas": 4109,
      "ero": 4110,
      "ham": 4111,
      "Ġjust": 4112,
      "Ġmeta": 4113,
      "Ġprepar": 4114,
      "Ġdelay": 4115,
      "similar": 4116,
      "othelial": 4117,
      "agne": 4118,
      "Ġbmi": 4119,
      "etic": 4120,
      "Ġdistinct": 4121,
      "ometric": 4122,
      "lob": 4123,
      "Ġvary": 4124,
      "Ġthreshold": 4125,
      "nat": 4126,
      "produc": 4127,
      "main": 4128,
      "grow": 4129,
      "Ġstages": 4130,
      "ufact": 4131,
      "Ġparticipant": 4132,
      "Ġbiop": 4133,
      "Ġmainly": 4134,
      "Ġfast": 4135,
      "phys": 4136,
      "Ġprevention": 4137,
      "âĢł": 4138,
      "ytic": 4139,
      "ict": 4140,
      "Ġsubstanti": 4141,
      "bar": 4142,
      "life": 4143,
      "Ġdele": 4144,
      "second": 4145,
      "cn": 4146,
      "ferences": 4147,
      "enses": 4148,
      "Ġincubated": 4149,
      "Ġrelation": 4150,
      "Ġbackground": 4151,
      "Ġunited": 4152,
      "Ġsampling": 4153,
      "Ġbuffer": 4154,
      "Ġassociations": 4155,
      "Ġkg": 4156,
      "consid": 4157,
      "Ġcardiovascular": 4158,
      "Ġslight": 4159,
      "stead": 4160,
      "vs": 4161,
      "lower": 4162,
      "impro": 4163,
      "Ġsimple": 4164,
      "cf": 4165,
      "Ġmis": 4166,
      "olved": 4167,
      "âĹ": 4168,
      "ka": 4169,
      "Ġgrade": 4170,
      "values": 4171,
      "Ġlanguage": 4172,
      "aching": 4173,
      "background": 4174,
      "Ġretro": 4175,
      "Ġelevated": 4176,
      "Ġgermany": 4177,
      "gs": 4178,
      "ontal": 4179,
      "âĢĲ": 4180,
      "lr": 4181,
      "oring": 4182,
      "Ġmonitoring": 4183,
      "minal": 4184,
      "Ġasked": 4185,
      "umin": 4186,
      "inj": 4187,
      "ï¬ĥ": 4188,
      "Ġfract": 4189,
      "week": 4190,
      "Ġbase": 4191,
      "Ġcomplications": 4192,
      "Ġstaff": 4193,
      "Ġspectr": 4194,
      "Ġquantitative": 4195,
      "Ġresearchers": 4196,
      "Ġcommonly": 4197,
      "ometry": 4198,
      "genic": 4199,
      "Ġrespiratory": 4200,
      "ariate": 4201,
      "cler": 4202,
      "Ġsections": 4203,
      "among": 4204,
      "water": 4205,
      "Ġspatial": 4206,
      "Ġinhibitor": 4207,
      "Ġlate": 4208,
      "Ġsexual": 4209,
      "Ġcontribute": 4210,
      "Ġillustr": 4211,
      "Ġnuclear": 4212,
      "observed": 4213,
      "sym": 4214,
      "thal": 4215,
      "drug": 4216,
      "neum": 4217,
      "ificance": 4218,
      "Ġinjection": 4219,
      "Ġrefer": 4220,
      "esthe": 4221,
      "Ġwa": 4222,
      "Ġsept": 4223,
      "commun": 4224,
      "Ġaccept": 4225,
      "Ġframework": 4226,
      "portun": 4227,
      "Ġmaking": 4228,
      "Ġinformed": 4229,
      "ref": 4230,
      "ht": 4231,
      "Ġrepresents": 4232,
      "Ġlys": 4233,
      "ements": 4234,
      "Ġleads": 4235,
      "Ġrout": 4236,
      "osomes": 4237,
      "Ġion": 4238,
      "Ġinclusion": 4239,
      "Ġproduce": 4240,
      "Ġund": 4241,
      "clude": 4242,
      "Ġdiagnosed": 4243,
      "Ġconsumption": 4244,
      "link": 4245,
      "anical": 4246,
      "Ġexposed": 4247,
      "Ġcentre": 4248,
      "Ġadjusted": 4249,
      "binding": 4250,
      "Ġoccurred": 4251,
      "effect": 4252,
      "Ġaud": 4253,
      "Ġkinase": 4254,
      "Ġacet": 4255,
      "inhib": 4256,
      "Ġgreen": 4257,
      "Ġindeed": 4258,
      "phen": 4259,
      "bac": 4260,
      "enari": 4261,
      "Ġwide": 4262,
      "vo": 4263,
      "Ġstrength": 4264,
      "hist": 4265,
      "Ġcharacterized": 4266,
      "Ġfo": 4267,
      "Ġcompleted": 4268,
      "Ġbarri": 4269,
      "Ġdocument": 4270,
      "respec": 4271,
      "Ġgrap": 4272,
      "Ġplaced": 4273,
      "Ġï¬ģl": 4274,
      "Ġ33": 4275,
      "Ġhumans": 4276,
      "frequ": 4277,
      "aim": 4278,
      "neuro": 4279,
      "Ġdomains": 4280,
      "inv": 4281,
      "Ġclose": 4282,
      "times": 4283,
      "ifest": 4284,
      "500": 4285,
      "Ġfraction": 4286,
      "Ġdependent": 4287,
      "Ġsimilarly": 4288,
      "Ġdiff": 4289,
      "plicated": 4290,
      "Ġunderlying": 4291,
      "bral": 4292,
      "Ġentire": 4293,
      "ards": 4294,
      "omm": 4295,
      "Ġland": 4296,
      "male": 4297,
      "Ġhem": 4298,
      "ker": 4299,
      "ademic": 4300,
      "Ġaustr": 4301,
      "Ġpeptide": 4302,
      "inflamm": 4303,
      "Ġaspects": 4304,
      "aves": 4305,
      "Ġmob": 4306,
      "Ġembry": 4307,
      "Ġmr": 4308,
      "Ġweak": 4309,
      "Ġunique": 4310,
      "Ġminutes": 4311,
      "101": 4312,
      "predic": 4313,
      "ressive": 4314,
      "ensus": 4315,
      "âī": 4316,
      "Ġkit": 4317,
      "etr": 4318,
      "ĠâĢĺâĢĺ": 4319,
      "mail": 4320,
      "Ġunits": 4321,
      "Ġincludes": 4322,
      "Ġapproved": 4323,
      "Ġdefic": 4324,
      "Ġtargets": 4325,
      "Ġphenotype": 4326,
      "Ġoccurs": 4327,
      "Ġvariance": 4328,
      "Ġalready": 4329,
      "effects": 4330,
      "Ġeye": 4331,
      "Ġtransport": 4332,
      "odium": 4333,
      "Ġtas": 4334,
      "lar": 4335,
      "Ġcatal": 4336,
      "Ġtools": 4337,
      "Ġkidney": 4338,
      "Ġau": 4339,
      "ev": 4340,
      "load": 4341,
      "Ġphosphory": 4342,
      "higher": 4343,
      "Ġcandid": 4344,
      "ï¬ģn": 4345,
      "Ġmutant": 4346,
      "sever": 4347,
      "Â´": 4348,
      "bm": 4349,
      "tility": 4350,
      "aut": 4351,
      "Ġattem": 4352,
      "Ġpool": 4353,
      "evalu": 4354,
      "Ġwestern": 4355,
      "Ġuptake": 4356,
      "Ġfile": 4357,
      "Ġalmost": 4358,
      "incip": 4359,
      "Ġearlier": 4360,
      "Ġarch": 4361,
      "Ġstre": 4362,
      "Ġapoptosis": 4363,
      "Ġbeh": 4364,
      "Ġprepared": 4365,
      "Ġconfirmed": 4366,
      "Ġpack": 4367,
      "sized": 4368,
      "enge": 4369,
      "Ġonc": 4370,
      "Ġcortex": 4371,
      "Ġgenomic": 4372,
      "Ġvaccine": 4373,
      "imer": 4374,
      "concentr": 4375,
      "Ġhence": 4376,
      "Ġrespect": 4377,
      "ella": 4378,
      "went": 4379,
      "kin": 4380,
      "Ġgrad": 4381,
      "mia": 4382,
      "Ġvariety": 4383,
      "Ġtypically": 4384,
      "Ġmri": 4385,
      "Ġblack": 4386,
      "Ġpurpose": 4387,
      "Ġmicrobi": 4388,
      "Ġadvant": 4389,
      "Ġissue": 4390,
      "onia": 4391,
      "Ġcategories": 4392,
      "inated": 4393,
      "itrogen": 4394,
      "eling": 4395,
      "Ġelements": 4396,
      "information": 4397,
      "Ġreï¬Ĥ": 4398,
      "Ġexp": 4399,
      "Ġjanuary": 4400,
      "Ġsatis": 4401,
      "tag": 4402,
      "onary": 4403,
      "Ġeuropean": 4404,
      "plate": 4405,
      "omatic": 4406,
      "Ġdm": 4407,
      "Ġos": 4408,
      "Ġsoil": 4409,
      "Ġsqu": 4410,
      "asts": 4411,
      "Ġpersonal": 4412,
      "Ġlinked": 4413,
      "Ġjoint": 4414,
      "techn": 4415,
      "blood": 4416,
      "university": 4417,
      "clear": 4418,
      "Ġenhance": 4419,
      "Ġdetailed": 4420,
      "statistical": 4421,
      "Ġdeviation": 4422,
      "Ġcompr": 4423,
      "Ġabund": 4424,
      "bidity": 4425,
      "Ġster": 4426,
      "Ġinduc": 4427,
      "Ġassays": 4428,
      "Ġfrequently": 4429,
      "fy": 4430,
      "Ġcheck": 4431,
      "olesterol": 4432,
      "Ġpet": 4433,
      "osomal": 4434,
      "itud": 4435,
      "Ġnumer": 4436,
      "Ġwiley": 4437,
      "because": 4438,
      "pli": 4439,
      "Ġillness": 4440,
      "pressive": 4441,
      "Ġrob": 4442,
      "Ġhz": 4443,
      "Ġthroughout": 4444,
      "Ġdetails": 4445,
      "unts": 4446,
      "Ġsmaller": 4447,
      "Ġdoses": 4448,
      "Ġartery": 4449,
      "Ġsummar": 4450,
      "Ġwt": 4451,
      "Ġwidely": 4452,
      "gc": 4453,
      "Ġmarker": 4454,
      "Ġangi": 4455,
      "Ġallows": 4456,
      "anted": 4457,
      "Ġinfected": 4458,
      "Ġfollows": 4459,
      "Ġextracted": 4460,
      "Ġlayer": 4461,
      "Ġremoved": 4462,
      "ergic": 4463,
      "Ġdiscussed": 4464,
      "Ġrecovery": 4465,
      "Ġsets": 4466,
      "Ġgeneration": 4467,
      "Ġstart": 4468,
      "Ġbasic": 4469,
      "Ġsignals": 4470,
      "virus": 4471,
      "otes": 4472,
      "sum": 4473,
      "Ġskills": 4474,
      "Ġinser": 4475,
      "Ġrelationships": 4476,
      "Ġgovern": 4477,
      "Ġadi": 4478,
      "Ġcompare": 4479,
      "hg": 4480,
      "Ġvess": 4481,
      "Ġeight": 4482,
      "lands": 4483,
      "bol": 4484,
      "Ġrequires": 4485,
      "measure": 4486,
      "continu": 4487,
      "120": 4488,
      "yle": 4489,
      "hc": 4490,
      "Ġclearly": 4491,
      "Ġperipheral": 4492,
      "cription": 4493,
      "mentation": 4494,
      "oscop": 4495,
      "bv": 4496,
      "Ġfully": 4497,
      "Ġdraw": 4498,
      "calc": 4499,
      "Ġpass": 4500,
      "Ġaddressed": 4501,
      "Ġstrongly": 4502,
      "Ġinhibitors": 4503,
      "sex": 4504,
      "then": 4505,
      "Ġexternal": 4506,
      "Ġbiomark": 4507,
      "2009": 4508,
      "uz": 4509,
      "ert": 4510,
      "Ġprogn": 4511,
      "Ġdegrad": 4512,
      "agnetic": 4513,
      "ucted": 4514,
      "Ġput": 4515,
      "ifically": 4516,
      "ening": 4517,
      "Ġmild": 4518,
      "Ġestablish": 4519,
      "Ġsupplementary": 4520,
      "nih": 4521,
      "Ġwords": 4522,
      "ica": 4523,
      "tp": 4524,
      "bit": 4525,
      "Ġreproduc": 4526,
      "Ġfocused": 4527,
      "scs": 4528,
      "Ġ34": 4529,
      "utive": 4530,
      "Ġcollege": 4531,
      "Ġmalign": 4532,
      "Ġcoup": 4533,
      "ern": 4534,
      "Ġremain": 4535,
      "Ġprobability": 4536,
      "Ġassem": 4537,
      "ophag": 4538,
      "Ġkn": 4539,
      "ostic": 4540,
      "ĊĠĊĠĊĠĊĠĊĠĊĠĊĠĊĠ": 4541,
      "tober": 4542,
      "itative": 4543,
      "ki": 4544,
      "ï¬Ĥu": 4545,
      "Î´": 4546,
      "levels": 4547,
      "max": 4548,
      "berg": 4549,
      "Ġreasons": 4550,
      "____": 4551,
      "Ġproviding": 4552,
      "Ġobservations": 4553,
      "Ġvariability": 4554,
      "Ġorth": 4555,
      "median": 4556,
      "Ġtransmission": 4557,
      "ont": 4558,
      "Ġphysiological": 4559,
      "cripts": 4560,
      "into": 4561,
      "Ġseven": 4562,
      "Ġchain": 4563,
      "Ġsettings": 4564,
      "Ġcount": 4565,
      "medical": 4566,
      "atus": 4567,
      "activation": 4568,
      "ococ": 4569,
      "sugg": 4570,
      "Ġimplementation": 4571,
      "brain": 4572,
      "Ġtax": 4573,
      "Ġvector": 4574,
      "Ġarg": 4575,
      "Ġwal": 4576,
      "Ġthrom": 4577,
      "Ġultr": 4578,
      "Ġaden": 4579,
      "Ġpurposes": 4580,
      "Ġmuc": 4581,
      "Ġsupported": 4582,
      "Ġmacroph": 4583,
      "ij": 4584,
      "Ġcryst": 4585,
      "Ġheterogene": 4586,
      "Ġ75": 4587,
      "bacter": 4588,
      "Ġrecruit": 4589,
      "Ġtaking": 4590,
      "Ġchoice": 4591,
      "sl": 4592,
      "Ġther": 4593,
      "Ġtemporal": 4594,
      "rees": 4595,
      "otide": 4596,
      "ished": 4597,
      "Ġdeï¬ģned": 4598,
      "behavi": 4599,
      "Ġbil": 4600,
      "Ġcomput": 4601,
      "Ġspl": 4602,
      "sci": 4603,
      "Ġanterior": 4604,
      "phal": 4605,
      "ecomm": 4606,
      "creativ": 4607,
      "Ġdouble": 4608,
      "Ġplot": 4609,
      "ecommons": 4610,
      "Ġpc": 4611,
      "Ġagreement": 4612,
      "prom": 4613,
      "Ġfamilies": 4614,
      "right": 4615,
      "Ġradiation": 4616,
      "dose": 4617,
      "expl": 4618,
      "female": 4619,
      "Ġpulmonary": 4620,
      "vision": 4621,
      "Ġcomposition": 4622,
      "Ġgel": 4623,
      "Ġenhanced": 4624,
      "uments": 4625,
      "Ġconstit": 4626,
      "Ġyield": 4627,
      "Ġbuil": 4628,
      "mech": 4629,
      "Ġadditionally": 4630,
      "att": 4631,
      "estim": 4632,
      "Ġmedication": 4633,
      "hi": 4634,
      "Ġdescribe": 4635,
      "Ġusers": 4636,
      "Ġcommittee": 4637,
      "ĠÎ¼g": 4638,
      "nr": 4639,
      "Ġalgorithm": 4640,
      "Ġsubs": 4641,
      "heter": 4642,
      "creativecommons": 4643,
      "gfr": 4644,
      "sensi": 4645,
      "additional": 4646,
      "forms": 4647,
      "sts": 4648,
      "Ġana": 4649,
      "tration": 4650,
      "Ġtoler": 4651,
      "mb": 4652,
      "quis": 4653,
      "tiers": 4654,
      "002": 4655,
      "Ġadop": 4656,
      "Ġabsor": 4657,
      "Ġpig": 4658,
      "Ġlimitations": 4659,
      "Ġaware": 4660,
      "Ġdifficult": 4661,
      "development": 4662,
      "Ġreporting": 4663,
      "Ġarticles": 4664,
      "shown": 4665,
      "Ġsteps": 4666,
      "Ġreplac": 4667,
      "Ġneural": 4668,
      "cam": 4669,
      "Ġcommunication": 4670,
      "ĠðĿĳ": 4671,
      "Ġresponsible": 4672,
      "Ġinfer": 4673,
      "Ġepidemi": 4674,
      "Ġrecommended": 4675,
      "tially": 4676,
      "Ġhypertension": 4677,
      "standard": 4678,
      "flu": 4679,
      "hydr": 4680,
      "Ġcoord": 4681,
      "Ġinduction": 4682,
      "oglob": 4683,
      "Ġrepresentative": 4684,
      "Ġrespondents": 4685,
      "Ġallowed": 4686,
      "Ġcarbon": 4687,
      "ancre": 4688,
      "Ġfre": 4689,
      "tious": 4690,
      "Ġsummary": 4691,
      "orig": 4692,
      "osen": 4693,
      "âĢĻ,": 4694,
      "aditional": 4695,
      "Ġï¬Ĥow": 4696,
      "Ġincorpor": 4697,
      "thma": 4698,
      "ema": 4699,
      "Ġoverl": 4700,
      "Ġmarch": 4701,
      "Ġmiddle": 4702,
      "box": 4703,
      "Ġappears": 4704,
      "opathy": 4705,
      "Ġinvolvement": 4706,
      "Ġobtain": 4707,
      "Ġremaining": 4708,
      "Ġtrue": 4709,
      "Ġseparate": 4710,
      "eled": 4711,
      "Ġperspec": 4712,
      "Ġexisting": 4713,
      "Ġcomparing": 4714,
      "Ġstatistics": 4715,
      "Ġjohn": 4716,
      "nic": 4717,
      "Ġpm": 4718,
      "ficial": 4719,
      "sol": 4720,
      "Ġexperienced": 4721,
      "Ġconstant": 4722,
      "Ġcompre": 4723,
      "Ġdemonstrate": 4724,
      "Ġfall": 4725,
      "pur": 4726,
      "Ġobservation": 4727,
      "month": 4728,
      "cers": 4729,
      "Ġchina": 4730,
      "stage": 4731,
      "ng": 4732,
      "Ġlateral": 4733,
      "mus": 4734,
      "Ġretur": 4735,
      "ochem": 4736,
      "Ġpractices": 4737,
      "ches": 4738,
      "public": 4739,
      "Ġmeth": 4740,
      "bing": 4741,
      "unit": 4742,
      "Ġopportun": 4743,
      "2008": 4744,
      "Ġparameter": 4745,
      "environment": 4746,
      "methyl": 4747,
      "bd": 4748,
      "Ġbox": 4749,
      "Ġglut": 4750,
      "utral": 4751,
      "Ġexamine": 4752,
      "represent": 4753,
      "Ġmanufact": 4754,
      "Ġcalcium": 4755,
      "Ġdiameter": 4756,
      "frontiers": 4757,
      "Ġfav": 4758,
      "decre": 4759,
      "troph": 4760,
      "vem": 4761,
      "Ġstimuli": 4762,
      "Ġcountry": 4763,
      "iï¬ģcation": 4764,
      "itten": 4765,
      "Ġgam": 4766,
      "surg": 4767,
      "Ġtheory": 4768,
      "dominal": 4769,
      "300": 4770,
      "Ġoccup": 4771,
      "ricular": 4772,
      "Ġiron": 4773,
      "hospital": 4774,
      "Ġroot": 4775,
      "Ġ38": 4776,
      "Ġpal": 4777,
      "Ġjune": 4778,
      "Ġheight": 4779,
      "determin": 4780,
      "first": 4781,
      "bes": 4782,
      "Ġga": 4783,
      "following": 4784,
      "Ġresolution": 4785,
      "nia": 4786,
      "Ġhttp": 4787,
      "Ġsignificance": 4788,
      "dh": 4789,
      "Ġstability": 4790,
      "poc": 4791,
      "ethyl": 4792,
      "Ġreducing": 4793,
      "gfp": 4794,
      "ni": 4795,
      "ritis": 4796,
      "factor": 4797,
      "Ġpolymer": 4798,
      "icle": 4799,
      "Ġnerve": 4800,
      "Ġmarked": 4801,
      "Ġendothelial": 4802,
      "Ġmitochondrial": 4803,
      "Â®": 4804,
      "Ġigg": 4805,
      "phase": 4806,
      "Ġsuscepti": 4807,
      "tives": 4808,
      "ires": 4809,
      "Ġextraction": 4810,
      "Ġleuk": 4811,
      "Ġrs": 4812,
      "Ġregulatory": 4813,
      "ogram": 4814,
      "small": 4815,
      "Ġblue": 4816,
      "invol": 4817,
      "cut": 4818,
      "Ġori": 4819,
      "imp": 4820,
      "tub": 4821,
      "Ġregular": 4822,
      "Ġtb": 4823,
      "bruary": 4824,
      "Ġapril": 4825,
      "ĠÏ": 4826,
      "Ġmovement": 4827,
      "Ġfal": 4828,
      "Ġsystemic": 4829,
      "Ġcurve": 4830,
      "Ġoptimal": 4831,
      "changes": 4832,
      "Ġcomparisons": 4833,
      "important": 4834,
      "air": 4835,
      "Ġinduce": 4836,
      "ee": 4837,
      "Ġhemat": 4838,
      "Ġ1999": 4839,
      "Ġanalysed": 4840,
      "Ġcontin": 4841,
      "Ġinfec": 4842,
      "Ġadvanced": 4843,
      "Ġnetworks": 4844,
      "Ġproï¬ģ": 4845,
      "Ġli": 4846,
      "Ġgain": 4847,
      "Ġjuly": 4848,
      "Ġprograms": 4849,
      "Ġefficacy": 4850,
      "Ġgoal": 4851,
      "Ġadministered": 4852,
      "Ġclassi": 4853,
      "clos": 4854,
      "Ġ72": 4855,
      "women": 4856,
      "will": 4857,
      "grade": 4858,
      "version": 4859,
      "Ġcultures": 4860,
      "Ġcreat": 4861,
      "mann": 4862,
      "Ġenrol": 4863,
      "Ġreactions": 4864,
      "Ġmarg": 4865,
      "Ġrequ": 4866,
      "bel": 4867,
      "Ġinflammatory": 4868,
      "according": 4869,
      "place": 4870,
      "generation": 4871,
      "Ġcomprehen": 4872,
      "could": 4873,
      "vember": 4874,
      "ani": 4875,
      "Ġscenari": 4876,
      "biom": 4877,
      "itals": 4878,
      "apl": 4879,
      "Ġsensitive": 4880,
      "Ġinflammation": 4881,
      "iles": 4882,
      "Ġcompet": 4883,
      "Ġobjective": 4884,
      "currence": 4885,
      "children": 4886,
      "Ġposterior": 4887,
      "thesis": 4888,
      "Ġtransf": 4889,
      "molecular": 4890,
      "Ġben": 4891,
      "Ġequal": 4892,
      "hal": 4893,
      "Ġethics": 4894,
      "cents": 4895,
      "Ġexplained": 4896,
      "Ġsubsequently": 4897,
      "Ġthought": 4898,
      "Ġlas": 4899,
      "rest": 4900,
      "zyg": 4901,
      "educ": 4902,
      "ondon": 4903,
      "Ġforce": 4904,
      "Ġinfants": 4905,
      "Ġtumour": 4906,
      "social": 4907,
      "enh": 4908,
      "Ġdiversity": 4909,
      "Ġpel": 4910,
      "showed": 4911,
      "Ġactivated": 4912,
      "150": 4913,
      "licenses": 4914,
      "Ġadequ": 4915,
      "umab": 4916,
      "biotic": 4917,
      "Ġinput": 4918,
      "Ġswit": 4919,
      "Ġallele": 4920,
      "cho": 4921,
      "Ġprincip": 4922,
      "Ġjapan": 4923,
      "Ġexplain": 4924,
      "diab": 4925,
      "Ġret": 4926,
      "xy": 4927,
      "acet": 4928,
      "likely": 4929,
      "Ġremained": 4930,
      "Ġinstead": 4931,
      "oded": 4932,
      "seud": 4933,
      "holds": 4934,
      "Ġaggreg": 4935,
      "Ġmissing": 4936,
      "Ġachieve": 4937,
      "keletal": 4938,
      "top": 4939,
      "Ġreceiving": 4940,
      "primary": 4941,
      "Ġbon": 4942,
      "tiss": 4943,
      "Ġdivided": 4944,
      "acl": 4945,
      "yond": 4946,
      "Ġappe": 4947,
      "Ġplacebo": 4948,
      "Ġtargeted": 4949,
      "Ġalways": 4950,
      "gd": 4951,
      "itory": 4952,
      "Ġlesion": 4953,
      "Ġemotional": 4954,
      "Ġauto": 4955,
      "about": 4956,
      "family": 4957,
      "Ġbehavioral": 4958,
      "Ġcircum": 4959,
      "];": 4960,
      "gh": 4961,
      "Ġenzymes": 4962,
      "Ġplus": 4963,
      "Ġarth": 4964,
      "quality": 4965,
      "Ġven": 4966,
      "Ġdecember": 4967,
      "ather": 4968,
      "common": 4969,
      "Ġslow": 4970,
      "ifug": 4971,
      "Ġfeature": 4972,
      "Ġseems": 4973,
      "prac": 4974,
      "Ġpbs": 4975,
      "samples": 4976,
      "recent": 4977,
      "ĠĠĠ": 4978,
      "ĠĠĠĠĠĠĠĠĠĠĠĠĠĠĠĠĠĠĠĠĠĠĠĠĠĠĠĠĠĠĠĠ": 4979,
      "Ġpresentation": 4980,
      "Ġintervals": 4981,
      "Ġcoeff": 4982,
      "ĠðĿ": 4983,
      "ignment": 4984,
      "Ġface": 4985,
      "ĠÂ©": 4986,
      "immune": 4987,
      "therefore": 4988,
      "Ġansw": 4989,
      "Ġminimum": 4990,
      "Ġerrors": 4991,
      "those": 4992,
      "performed": 4993,
      "Ġunknown": 4994,
      "Ġneg": 4995,
      "Ġafrica": 4996,
      "ospitals": 4997,
      "types": 4998,
      "Ġtoxicity": 4999,
      "iness": 5000,
      "Ġcontains": 5001,
      "Ġgive": 5002,
      "Ġresidues": 5003,
      "Ġmove": 5004,
      "ivalent": 5005,
      "anim": 5006,
      "mac": 5007,
      "Ġrepair": 5008,
      "initi": 5009,
      "Ġcf": 5010,
      "Ġlet": 5011,
      "Ġanat": 5012,
      "nc": 5013,
      "ips": 5014,
      "acting": 5015,
      "allow": 5016,
      "Ġchemotherapy": 5017,
      "Ġclinically": 5018,
      "Ġemployed": 5019,
      "ortic": 5020,
      "Ġpathology": 5021,
      "Ġfore": 5022,
      "Ġrandomized": 5023,
      "zing": 5024,
      "nec": 5025,
      "Ġiso": 5026,
      "thern": 5027,
      "score": 5028,
      "Ġgenotype": 5029,
      "cos": 5030,
      "supplementary": 5031,
      "Ġdietary": 5032,
      "Ġepithelial": 5033,
      "Ġslightly": 5034,
      "Ġepis": 5035,
      "Ġreferred": 5036,
      "Ġcategor": 5037,
      "baseline": 5038,
      "lets": 5039,
      "Ġsubset": 5040,
      "Ġhab": 5041,
      "Ġsigns": 5042,
      "ihood": 5043,
      "analys": 5044,
      "Ġtasks": 5045,
      "igible": 5046,
      "Ġ42": 5047,
      "pocamp": 5048,
      "Ġcv": 5049,
      "Ġsat": 5050,
      "growth": 5051,
      "Ġfluid": 5052,
      "Ġsolid": 5053,
      "illary": 5054,
      "Ġvisit": 5055,
      "ields": 5056,
      "tely": 5057,
      "Ġclim": 5058,
      "fin": 5059,
      "Ġcategory": 5060,
      "Ġantic": 5061,
      "Ġcoronary": 5062,
      "Ġarm": 5063,
      "ocardial": 5064,
      "zer": 5065,
      "Ġcarcinoma": 5066,
      "Ġprediction": 5067,
      "Ġshape": 5068,
      "Ġsug": 5069,
      "Î¼": 5070,
      "Ġlin": 5071,
      "ping": 5072,
      "Ġpneum": 5073,
      "uited": 5074,
      "Ġhol": 5075,
      "Ġinï¬Ĥamm": 5076,
      "Ġouts": 5077,
      "covered": 5078,
      "Ġbmc": 5079,
      "Ġtypical": 5080,
      "Ġamerican": 5081,
      "Ġdysfunction": 5082,
      "fc": 5083,
      "try": 5084,
      "Ġmmol": 5085,
      "Ġconfidence": 5086,
      "sus": 5087,
      "infected": 5088,
      "Ġfunders": 5089,
      "----": 5090,
      "Ġï¬ģve": 5091,
      "isions": 5092,
      "cordance": 5093,
      "step": 5094,
      "Ġeconomic": 5095,
      "ï¬ģl": 5096,
      "materials": 5097,
      "jug": 5098,
      "Ġchallenge": 5099,
      "Ġpossibility": 5100,
      "reference": 5101,
      "symptom": 5102,
      "sal": 5103,
      "edu": 5104,
      "Ġpairs": 5105,
      "ission": 5106,
      "Ġvitamin": 5107,
      "Ġplat": 5108,
      "Ġatten": 5109,
      "factors": 5110,
      "smo": 5111,
      "Ġiden": 5112,
      "Ġcycl": 5113,
      "ously": 5114,
      "Ġexcept": 5115,
      "Ġroles": 5116,
      "Ġpredict": 5117,
      "Ġadmission": 5118,
      "vestig": 5119,
      "apse": 5120,
      "conf": 5121,
      "Ġexpect": 5122,
      "Ġperceived": 5123,
      "1000": 5124,
      "Ġburden": 5125,
      "patic": 5126,
      "Ġidentification": 5127,
      "Ġdoi": 5128,
      "Ġtrauma": 5129,
      "mediately": 5130,
      "Ġï¬ģeld": 5131,
      "Ġbot": 5132,
      "isting": 5133,
      "Ġaugust": 5134,
      "Ġapparent": 5135,
      "Ġ65": 5136,
      "Ġrobust": 5137,
      "Ġfed": 5138,
      "Ġfind": 5139,
      "Ġsuit": 5140,
      "axis": 5141,
      "ï¿½ï¿½ï¿½ï¿½ï¿½ï¿½ï¿½ï¿½": 5142,
      "aine": 5143,
      "gramm": 5144,
      "Ġgenerate": 5145,
      "Ġchallenges": 5146,
      "evid": 5147,
      "Ġns": 5148,
      "Ġtext": 5149,
      "mes": 5150,
      "Ġintest": 5151,
      "Ġratios": 5152,
      "Ġprop": 5153,
      "ko": 5154,
      "Ġisolates": 5155,
      "tenance": 5156,
      "Ġsubstrate": 5157,
      "abilities": 5158,
      "anisms": 5159,
      "signiï¬ģcant": 5160,
      "ozyg": 5161,
      "Ġexperiences": 5162,
      "Ġheat": 5163,
      "Ġinvolving": 5164,
      "inflammatory": 5165,
      "Ġinvestigation": 5166,
      "Ġexact": 5167,
      "bell": 5168,
      "whe": 5169,
      "Ġble": 5170,
      "mol": 5171,
      "Ġoctober": 5172,
      "central": 5173,
      "Ġtrend": 5174,
      "005": 5175,
      "Ġmigration": 5176,
      "ams": 5177,
      "tb": 5178,
      "Ġspecifically": 5179,
      "Ġorganization": 5180,
      "Ġrating": 5181,
      "Ġarr": 5182,
      "Ġminor": 5183,
      "size": 5184,
      "zo": 5185,
      "Ġbrief": 5186,
      "Ġrestric": 5187,
      "Ġolig": 5188,
      "Ġlatter": 5189,
      "Ġchlor": 5190,
      "Ġmanuscripts": 5191,
      "ician": 5192,
      "four": 5193,
      "Ġvan": 5194,
      "Ġcoli": 5195,
      "tumor": 5196,
      "ara": 5197,
      "Ġtoo": 5198,
      "available": 5199,
      "ycin": 5200,
      "Ġbloc": 5201,
      "Ġdevice": 5202,
      "Ġleg": 5203,
      "iciency": 5204,
      "dominant": 5205,
      "economic": 5206,
      "Ġengine": 5207,
      "genes": 5208,
      "dx": 5209,
      "Ġcorrelations": 5210,
      "Ġmillion": 5211,
      "entia": 5212,
      "should": 5213,
      ".âĢĿ": 5214,
      "err": 5215,
      "ĠâĢ¢": 5216,
      "prof": 5217,
      "Ġsodium": 5218,
      "several": 5219,
      "Ġtrigg": 5220,
      "resh": 5221,
      "Ġoxidative": 5222,
      "Ġ500": 5223,
      "Ġaustral": 5224,
      "containing": 5225,
      "ectomy": 5226,
      "adjusted": 5227,
      "Ġget": 5228,
      "Ġmi": 5229,
      "Ġcoverage": 5230,
      "Ġphyl": 5231,
      "Ġpreparation": 5232,
      "Ġ1998": 5233,
      "utional": 5234,
      "400": 5235,
      "Ġwave": 5236,
      "ptions": 5237,
      "Ġ39": 5238,
      "Ġrecords": 5239,
      "mr": 5240,
      "astic": 5241,
      "Ġdynamics": 5242,
      "Ġwind": 5243,
      "yright": 5244,
      "ammal": 5245,
      "species": 5246,
      "functional": 5247,
      "Ġmatter": 5248,
      "ultaneous": 5249,
      "Ġnone": 5250,
      "osin": 5251,
      "infection": 5252,
      "gt": 5253,
      "random": 5254,
      "Ġpartners": 5255,
      "Ġhard": 5256,
      "arrow": 5257,
      "uting": 5258,
      "Ġlibr": 5259,
      "Ġreverse": 5260,
      "tering": 5261,
      "quisition": 5262,
      "Ġgastro": 5263,
      "Ġcolor": 5264,
      "Ġce": 5265,
      "Ġstop": 5266,
      "Ġclassification": 5267,
      "Ġfeedback": 5268,
      "Ġmanner": 5269,
      "Ġchosen": 5270,
      "Ġpartial": 5271,
      "without": 5272,
      "Ġseptember": 5273,
      "intervention": 5274,
      "2007": 5275,
      "Ġimpairment": 5276,
      "Ġinterviews": 5277,
      "metabol": 5278,
      "Ġze": 5279,
      "Ġconventional": 5280,
      "ache": 5281,
      "Ġlum": 5282,
      "complex": 5283,
      "sibility": 5284,
      "ĠÎ¼l": 5285,
      "ming": 5286,
      "Ġadjust": 5287,
      "Ġindustr": 5288,
      "Ġdataset": 5289,
      "Ġproxim": 5290,
      "Ġtransition": 5291,
      "Ġpediatric": 5292,
      "Ġtnf": 5293,
      "elves": 5294,
      "aptic": 5295,
      "Ġcentr": 5296,
      "left": 5297,
      "Ġrepresented": 5298,
      "eded": 5299,
      "self": 5300,
      "Ġtranscript": 5301,
      "Ġoil": 5302,
      "Ġprogress": 5303,
      "ecutive": 5304,
      "Ġtoxic": 5305,
      "average": 5306,
      "report": 5307,
      "elihood": 5308,
      "era": 5309,
      "lishing": 5310,
      "increase": 5311,
      "described": 5312,
      "production": 5313,
      "admin": 5314,
      "Ġdiscr": 5315,
      "obic": 5316,
      "Ġib": 5317,
      "Ġdirection": 5318,
      "Ġbor": 5319,
      "iquid": 5320,
      "Ġischem": 5321,
      "Ġagent": 5322,
      "Ġbiot": 5323,
      "Ġparticipation": 5324,
      "Ġuncertain": 5325,
      "Ġta": 5326,
      "Ġtechnologies": 5327,
      "Ġros": 5328,
      "general": 5329,
      "Ġseem": 5330,
      "iring": 5331,
      "plicit": 5332,
      "ophy": 5333,
      "Ġ55": 5334,
      "Ġneuros": 5335,
      "Ġdynamic": 5336,
      "Ġmalaria": 5337,
      "Ġorient": 5338,
      "Ġaver": 5339,
      "amide": 5340,
      "Ġnorth": 5341,
      "2000": 5342,
      "Ġthickness": 5343,
      "Ġcomparable": 5344,
      "allel": 5345,
      "Ġbasal": 5346,
      "Ġtel": 5347,
      "Ġworkers": 5348,
      "addition": 5349,
      "Ġrecombin": 5350,
      "tox": 5351,
      "tl": 5352,
      "ala": 5353,
      "Ġpromote": 5354,
      "investig": 5355,
      "Ġnorm": 5356,
      "âĢĳ": 5357,
      "imination": 5358,
      "âĢĻ.": 5359,
      "obacter": 5360,
      "Ġcul": 5361,
      "biotics": 5362,
      "Ġexplan": 5363,
      "ecting": 5364,
      "charge": 5365,
      "perform": 5366,
      "Ġreviewed": 5367,
      "bb": 5368,
      "izations": 5369,
      "Ġreconstr": 5370,
      "Ġcolumn": 5371,
      "wt": 5372,
      "Ġsizes": 5373,
      "Ġcultured": 5374,
      "Ġturn": 5375,
      "110": 5376,
      "squ": 5377,
      "Ġasthma": 5378,
      "Ġextract": 5379,
      "Ġhaem": 5380,
      "enza": 5381,
      "Ġ#": 5382,
      "itively": 5383,
      "hl": 5384,
      "Ġtraditional": 5385,
      "Ġapplications": 5386,
      "Ġcollabor": 5387,
      "Ġpublication": 5388,
      "Ġcalled": 5389,
      "Ġaer": 5390,
      "Ġformed": 5391,
      "faction": 5392,
      "mone": 5393,
      "Î³": 5394,
      "Ġethical": 5395,
      "ano": 5396,
      "ĠĊĠĊĠ": 5397,
      "Ġscientific": 5398,
      "Ġgh": 5399,
      "Ġsir": 5400,
      "Ġstored": 5401,
      "atics": 5402,
      "head": 5403,
      "itudinal": 5404,
      "ulatory": 5405,
      "aro": 5406,
      "olute": 5407,
      "respectively": 5408,
      "support": 5409,
      "Ġsocio": 5410,
      "logy": 5411,
      "would": 5412,
      "hom": 5413,
      "Ġpsychological": 5414,
      "cience": 5415,
      "Ġvariant": 5416,
      "Ġrecognition": 5417,
      "Ġcounter": 5418,
      "Ġdisrup": 5419,
      "Ġexplore": 5420,
      "ws": 5421,
      "illed": 5422,
      "cir": 5423,
      "Ġye": 5424,
      "sively": 5425,
      "included": 5426,
      "Ġbreak": 5427,
      "rogen": 5428,
      "Ġparticles": 5429,
      "Ġmeaning": 5430,
      "Ġassigned": 5431,
      "Ġatp": 5432,
      "igen": 5433,
      "Ġpp": 5434,
      "kins": 5435,
      "ifi": 5436,
      "oxic": 5437,
      "++": 5438,
      "Ġcarri": 5439,
      "Ġdepending": 5440,
      "Ġmaintain": 5441,
      "Ġpredictive": 5442,
      "Ġprofile": 5443,
      "Ġple": 5444,
      "ras": 5445,
      "Ġstandards": 5446,
      "period": 5447,
      "Ġenviron": 5448,
      "ylation": 5449,
      "single": 5450,
      "105": 5451,
      "instit": 5452,
      "Ġ(âĪĴ": 5453,
      "ogens": 5454,
      "Ġemph": 5455,
      "Ġpolymorph": 5456,
      "Ġbegin": 5457,
      "before": 5458,
      "Ġwww": 5459,
      "Ġsti": 5460,
      "ident": 5461,
      "mri": 5462,
      "local": 5463,
      "Ġub": 5464,
      "Ġsent": 5465,
      "Ġinitially": 5466,
      "Ġcontained": 5467,
      "Ġreviews": 5468,
      "Ġfebruary": 5469,
      "Ġ44": 5470,
      "Ġcitation": 5471,
      "itus": 5472,
      "hyth": 5473,
      "trie": 5474,
      "Ġprotection": 5475,
      "Ġcycles": 5476,
      "Ġhospitals": 5477,
      "Ġyour": 5478,
      "theless": 5479,
      "Ġmixture": 5480,
      "overall": 5481,
      "Ġâī¤": 5482,
      "Ġpromoter": 5483,
      "demonstr": 5484,
      "ya": 5485,
      "Ġrib": 5486,
      "Ġgraph": 5487,
      "potential": 5488,
      "Ġwhose": 5489,
      "Ġbenefit": 5490,
      "complete": 5491,
      "Ġcancers": 5492,
      "Ġdemographic": 5493,
      "Ġdegradation": 5494,
      "itional": 5495,
      "experi": 5496,
      "Ġknock": 5497,
      "uctions": 5498,
      "Ġdeep": 5499,
      "Ġfatty": 5500,
      "Ġbalance": 5501,
      "Ġpancre": 5502,
      "itin": 5503,
      "Ġclusters": 5504,
      "Ġefï¬ģc": 5505,
      "taneous": 5506,
      "Ġnovember": 5507,
      "Ġnutrition": 5508,
      "cipl": 5509,
      "aper": 5510,
      "Ġbeneï¬ģ": 5511,
      "Ġfung": 5512,
      "vascular": 5513,
      "inde": 5514,
      "anded": 5515,
      "Ġsed": 5516,
      "Ġperiods": 5517,
      "Ġnic": 5518,
      "Ġdifï¬ģc": 5519,
      "Ġintracellular": 5520,
      "due": 5521,
      "Ġcortical": 5522,
      "Ġavailability": 5523,
      "Ġthor": 5524,
      "ĠÎ´": 5525,
      "Ġqualitative": 5526,
      "Ġrisks": 5527,
      "ardized": 5528,
      "Ġacquired": 5529,
      "Ġcp": 5530,
      "aceu": 5531,
      "Ġcollagen": 5532,
      "inity": 5533,
      "Ġcytokines": 5534,
      "Ġcholesterol": 5535,
      "contr": 5536,
      "Ġtrack": 5537,
      "Ġacces": 5538,
      "Ġalb": 5539,
      "forts": 5540,
      "Ġunderwent": 5541,
      "Ġwritten": 5542,
      "dimension": 5543,
      "comes": 5544,
      "Ġspread": 5545,
      "independent": 5546,
      "Ġstudent": 5547,
      "Ġstimulus": 5548,
      "mt": 5549,
      "ends": 5550,
      "alling": 5551,
      "Ġviol": 5552,
      "cases": 5553,
      "Ġaccumulation": 5554,
      "Ġbeyond": 5555,
      "possible": 5556,
      "Ġmode": 5557,
      "Ġelectron": 5558,
      "correl": 5559,
      "Ġuser": 5560,
      "Ġwound": 5561,
      "sem": 5562,
      "medic": 5563,
      "antic": 5564,
      "003": 5565,
      "early": 5566,
      "Ġlondon": 5567,
      "urer": 5568,
      "Ġrab": 5569,
      "Ġcommerc": 5570,
      "Ġfrequent": 5571,
      "rate": 5572,
      "Ġsupporting": 5573,
      "Ġregional": 5574,
      "Ġbars": 5575,
      "Ġcollec": 5576,
      "Ġshor": 5577,
      "Ġmechanical": 5578,
      "tid": 5579,
      "Ġways": 5580,
      "Ġmyel": 5581,
      "ll": 5582,
      "Ġmothers": 5583,
      "Ġitself": 5584,
      "illance": 5585,
      "Ġlive": 5586,
      "Ġwhy": 5587,
      "Ġinstance": 5588,
      "Ġformal": 5589,
      "Ġï¬ģt": 5590,
      "Ġplanning": 5591,
      "Ġspectrum": 5592,
      "ogenetic": 5593,
      "Ġrural": 5594,
      "Ġcover": 5595,
      "terminal": 5596,
      "Ġalpha": 5597,
      "transfer": 5598,
      "fully": 5599,
      "Ġcomplement": 5600,
      "oxy": 5601,
      "Ġsufficient": 5602,
      "Ġtract": 5603,
      "Ġvalidity": 5604,
      "Ġinï¬Ĥuence": 5605,
      "Ġcruc": 5606,
      "Ġroutine": 5607,
      "Ġneuronal": 5608,
      "Ġnodes": 5609,
      "tingu": 5610,
      "Ġurban": 5611,
      "Ġmaintained": 5612,
      "Ġaccurate": 5613,
      "habil": 5614,
      "Ġhybrid": 5615,
      "Ġdop": 5616,
      "Ġmotiv": 5617,
      "Ġ1997": 5618,
      "Ġcb": 5619,
      "taken": 5620,
      "rown": 5621,
      "Ġmentioned": 5622,
      "frequency": 5623,
      "Ġasym": 5624,
      "Ġfixed": 5625,
      "Ġnurses": 5626,
      "Ġreach": 5627,
      "Ġreplic": 5628,
      "Ġtraits": 5629,
      "Ġspon": 5630,
      "ellow": 5631,
      "Ġeffectiveness": 5632,
      "Ġgap": 5633,
      "Ġdog": 5634,
      "Ġoutside": 5635,
      "Ġexamin": 5636,
      "Ġiran": 5637,
      "copyright": 5638,
      "Ġps": 5639,
      "wa": 5640,
      "arcin": 5641,
      "Ġsper": 5642,
      "thus": 5643,
      "Ġaltered": 5644,
      "Ġanova": 5645,
      "Ġï¬ģx": 5646,
      "Ġtree": 5647,
      "evidence": 5648,
      "zation": 5649,
      "Ġincome": 5650,
      "Ġexamples": 5651,
      "ran": 5652,
      "oe": 5653,
      "Ġgran": 5654,
      "Ġbiopsy": 5655,
      "Ġfeel": 5656,
      "Ġhs": 5657,
      "pharm": 5658,
      "Ġspecimens": 5659,
      "Ġdistrib": 5660,
      "Ġshift": 5661,
      "nee": 5662,
      "0000": 5663,
      "porter": 5664,
      "days": 5665,
      "Ġblot": 5666,
      "Ġdevelopmental": 5667,
      "Ġimpaired": 5668,
      "Ġprimarily": 5669,
      "Ġextrem": 5670,
      "asound": 5671,
      "Ġnf": 5672,
      "location": 5673,
      "Ġmagnetic": 5674,
      "ita": 5675,
      "Ġ41": 5676,
      "Ġmethylation": 5677,
      "Ġsnps": 5678,
      "aly": 5679,
      "linear": 5680,
      "Ġintroduced": 5681,
      "Ġvel": 5682,
      "sig": 5683,
      "ystem": 5684,
      "Ġinterestingly": 5685,
      "2006": 5686,
      "Ġtheore": 5687,
      "ctal": 5688,
      "Ġ43": 5689,
      "Ġhighl": 5690,
      "vate": 5691,
      "Ġspeed": 5692,
      "Ġreceive": 5693,
      "Ġsessions": 5694,
      "Ġwashed": 5695,
      "Ġrh": 5696,
      "ulties": 5697,
      "Ġ:": 5698,
      "Ġsen": 5699,
      "paramet": 5700,
      "Ġsons": 5701,
      "Ġprobably": 5702,
      "Ġthyroid": 5703,
      "Ġmotion": 5704,
      "utroph": 5705,
      "oxide": 5706,
      "Ġmelan": 5707,
      "Ġneigh": 5708,
      "Ġphosphorylation": 5709,
      "Ġchannel": 5710,
      "Ġneon": 5711,
      "ulus": 5712,
      "isher": 5713,
      "estic": 5714,
      "Ġphysicians": 5715,
      "Ġaxis": 5716,
      "Ġgradi": 5717,
      "Ġsense": 5718,
      "Ġneutral": 5719,
      "mselves": 5720,
      "Ġmultiv": 5721,
      "Ġsimulation": 5722,
      "Ġprostate": 5723,
      "Ġcovari": 5724,
      "chy": 5725,
      "Ġ1000": 5726,
      "Ġprin": 5727,
      "Ġ46": 5728,
      "Ġitem": 5729,
      "Ġemergency": 5730,
      "Ġart": 5731,
      "result": 5732,
      "Ġmicroscopy": 5733,
      "................": 5734,
      "Ġrank": 5735,
      "lam": 5736,
      "orage": 5737,
      "Ġpeptides": 5738,
      "Ġcontribution": 5739,
      "Ġrecruited": 5740,
      "trom": 5741,
      "125": 5742,
      "Ġannot": 5743,
      "Ġconsult": 5744,
      "Ġstained": 5745,
      "ura": 5746,
      "kers": 5747,
      "conclusions": 5748,
      "Ġparticipate": 5749,
      "Ġlargely": 5750,
      "Ġband": 5751,
      "Ġrecruitment": 5752,
      "percent": 5753,
      "cessive": 5754,
      "ptional": 5755,
      "kal": 5756,
      "udes": 5757,
      "Ġhepat": 5758,
      "Ġparent": 5759,
      "ochemistry": 5760,
      "Ġprofessional": 5761,
      "Ġconsidering": 5762,
      "ota": 5763,
      "Ġmacrophages": 5764,
      "Ġsin": 5765,
      "Ġsituation": 5766,
      "his": 5767,
      "Ġchromosome": 5768,
      "Ġtargeting": 5769,
      "Ġfetal": 5770,
      "Ġstarting": 5771,
      "ptive": 5772,
      "cular": 5773,
      "ament": 5774,
      "region": 5775,
      "Ġoutput": 5776,
      "Ġgp": 5777,
      "Ġparts": 5778,
      "Ġattrib": 5779,
      "Ġhousehold": 5780,
      "004": 5781,
      "standing": 5782,
      "hiv": 5783,
      "Ġchi": 5784,
      "Ġresource": 5785,
      "draw": 5786,
      "Ġregen": 5787,
      "Ġremoval": 5788,
      "Ġcommunities": 5789,
      "Ġarrow": 5790,
      "Ġlob": 5791,
      "Ġbin": 5792,
      "ectors": 5793,
      "106": 5794,
      "Ġconsensus": 5795,
      "Ġdeaths": 5796,
      "Ġdisability": 5797,
      "ervation": 5798,
      "differences": 5799,
      "rmed": 5800,
      "Ġdistingu": 5801,
      "rr": 5802,
      "Ġdup": 5803,
      "âĢ¦": 5804,
      "Ġphenomen": 5805,
      "Ġshared": 5806,
      "Ġattit": 5807,
      "oprotein": 5808,
      "Ġtube": 5809,
      "points": 5810,
      "Ġjud": 5811,
      "Ġnode": 5812,
      "Ġtit": 5813,
      "Ġadolescents": 5814,
      "Ġsolutions": 5815,
      "multiple": 5816,
      "ologists": 5817,
      "Ġdepth": 5818,
      "Ġprobe": 5819,
      "Ġves": 5820,
      "Ġpt": 5821,
      "Ġdonor": 5822,
      "Ġgre": 5823,
      "physi": 5824,
      "Ġvas": 5825,
      "Ġvalidation": 5826,
      "Ġpress": 5827,
      "otypic": 5828,
      "Ġimmediately": 5829,
      "Ġinterpretation": 5830,
      "Ġapplic": 5831,
      "intest": 5832,
      "etric": 5833,
      "Ġreading": 5834,
      "Ġmc": 5835,
      "Ġindia": 5836,
      "azil": 5837,
      "104": 5838,
      "ancies": 5839,
      "Ġlar": 5840,
      "oked": 5841,
      "Ġpas": 5842,
      "Ġbul": 5843,
      "Ġdiverse": 5844,
      "Ġprimers": 5845,
      "Ġurine": 5846,
      "rd": 5847,
      "Ġsubstantial": 5848,
      "erative": 5849,
      "inine": 5850,
      "sen": 5851,
      "angi": 5852,
      "Ġarti": 5853,
      "Ġodds": 5854,
      "intern": 5855,
      "analyses": 5856,
      "full": 5857,
      "Ġanesthe": 5858,
      "conditions": 5859,
      "Ġstarted": 5860,
      "Ġaimed": 5861,
      "Ġcreated": 5862,
      "iform": 5863,
      "Ġlm": 5864,
      "lined": 5865,
      "cytes": 5866,
      "su": 5867,
      "Ġsulf": 5868,
      "Ġacquisition": 5869,
      "Ġextended": 5870,
      "Ġplates": 5871,
      "hor": 5872,
      "flow": 5873,
      "Ġpil": 5874,
      "Ġcomplexes": 5875,
      "Ġrecording": 5876,
      "poration": 5877,
      "valent": 5878,
      "Ġtwice": 5879,
      "Ġdiscre": 5880,
      "ulum": 5881,
      "hematic": 5882,
      "urance": 5883,
      "what": 5884,
      "elled": 5885,
      "Ġnursing": 5886,
      "Ġindirect": 5887,
      "recept": 5888,
      "analy": 5889,
      "Ġdental": 5890,
      "Ġcomputer": 5891,
      "sin": 5892,
      "neur": 5893,
      "aints": 5894,
      "Ġsaline": 5895,
      "branes": 5896,
      "Ġmol": 5897,
      "Ġdiag": 5898,
      "tissue": 5899,
      "pet": 5900,
      "Ġfacilitate": 5901,
      "uries": 5902,
      "hu": 5903,
      "Ġgrowing": 5904,
      "Ġpic": 5905,
      "Ġreliability": 5906,
      "mented": 5907,
      "103": 5908,
      "Ġincubation": 5909,
      "Ġmediated": 5910,
      "Ġ96": 5911,
      "bone": 5912,
      "Ġreached": 5913,
      "Ġimpl": 5914,
      "since": 5915,
      "Ġ,": 5916,
      "Ġmammal": 5917,
      "chrom": 5918,
      "Ġunivers": 5919,
      "dri": 5920,
      "Ġranging": 5921,
      "Ġprogramme": 5922,
      "Ġthereby": 5923,
      "therap": 5924,
      "Ġpoll": 5925,
      "Ġdifferential": 5926,
      "Ġmach": 5927,
      "Ġtail": 5928,
      "tral": 5929,
      "bir": 5930,
      "anned": 5931,
      "membrane": 5932,
      "Ġground": 5933,
      "Ġtherapies": 5934,
      "Ġmember": 5935,
      "Ġenter": 5936,
      "Ġcarry": 5937,
      "Ġlaw": 5938,
      "months": 5939,
      "Ġsimultaneous": 5940,
      "vic": 5941,
      "Ġhf": 5942,
      "oglobin": 5943,
      "Ġpsychiat": 5944,
      "oting": 5945,
      "Ġsubstit": 5946,
      "isol": 5947,
      "102": 5948,
      "Ġdiabetic": 5949,
      "Ġdiï¬Ģerent": 5950,
      "Ġlowest": 5951,
      "onist": 5952,
      "Ġbat": 5953,
      "Ġfeas": 5954,
      "enter": 5955,
      "Ġbenefits": 5956,
      "Ġwar": 5957,
      "Ġserious": 5958,
      "ectively": 5959,
      "proced": 5960,
      "Ġagr": 5961,
      "Ġanalog": 5962,
      "Ġmolecule": 5963,
      "cyt": 5964,
      "Ġextracellular": 5965,
      "ened": 5966,
      "Ġaging": 5967,
      "making": 5968,
      "Ġdry": 5969,
      "Ġnod": 5970,
      "length": 5971,
      "Ġactual": 5972,
      "Ġsom": 5973,
      "venous": 5974,
      "she": 5975,
      "agues": 5976,
      "Ġconcerns": 5977,
      "Ġextensive": 5978,
      "gender": 5979,
      "Ġrandomly": 5980,
      "unted": 5981,
      "cogn": 5982,
      "Ġcc": 5983,
      "bacco": 5984,
      "Ġifn": 5985,
      "occur": 5986,
      "âī¥": 5987,
      "Ġmilk": 5988,
      "Ġdescription": 5989,
      "Ġintegrated": 5990,
      "Ġnine": 5991,
      "same": 5992,
      "acer": 5993,
      "cellular": 5994,
      "Ġbehaviors": 5995,
      "knowledge": 5996,
      "Ġinfectious": 5997,
      "employ": 5998,
      "ister": 5999,
      "Ġvisits": 6000,
      "ders": 6001,
      "stood": 6002,
      "Ġvaried": 6003,
      "Ġdecline": 6004,
      "opic": 6005,
      "Ġbeta": 6006,
      "Ġneph": 6007,
      "actin": 6008,
      "valid": 6009,
      "Ġchildhood": 6010,
      "Ġrecommendations": 6011,
      "pk": 6012,
      "Ġtransl": 6013,
      "Ġmaintenance": 6014,
      "Ġconclusion": 6015,
      "larg": 6016,
      "Ġcorrespondence": 6017,
      "bri": 6018,
      "heme": 6019,
      "Ġï¬ģnal": 6020,
      "rn": 6021,
      "2005": 6022,
      "Ġdrop": 6023,
      "etry": 6024,
      "Ġinitiation": 6025,
      "doc": 6026,
      "Ġotherwise": 6027,
      "Ġfresh": 6028,
      "idine": 6029,
      "]).": 6030,
      "Ġsurround": 6031,
      "Ġ47": 6032,
      "habilitation": 6033,
      "Ġprospective": 6034,
      "Ġcompletely": 6035,
      "Ġcentrifug": 6036,
      "Ġgest": 6037,
      "diagnosis": 6038,
      "Ġliquid": 6039,
      "question": 6040,
      "Ġdevices": 6041,
      "Ġdementia": 6042,
      "Ġrich": 6043,
      "izoph": 6044,
      "nucle": 6045,
      "Ġpg": 6046,
      "Ġefforts": 6047,
      "Ġvul": 6048,
      "bu": 6049,
      "urine": 6050,
      "ailed": 6051,
      "faces": 6052,
      "Ġdisplayed": 6053,
      "Ġoffer": 6054,
      "given": 6055,
      "Ġpostoperative": 6056,
      "pain": 6057,
      "Ġpseud": 6058,
      "rad": 6059,
      "elt": 6060,
      "Ġtermin": 6061,
      "mouse": 6062,
      ",âĢĿ": 6063,
      "clerosis": 6064,
      "dam": 6065,
      "adder": 6066,
      "Ġannual": 6067,
      "cu": 6068,
      "Ġfores": 6069,
      "har": 6070,
      "Ġassumed": 6071,
      "Ġclassified": 6072,
      "Ġsar": 6073,
      "Ġstated": 6074,
      "Ġfeeding": 6075,
      "assessment": 6076,
      "Ġmostly": 6077,
      "Ġsuitable": 6078,
      "Ġabdominal": 6079,
      "Ġrapidly": 6080,
      "Ġmakes": 6081,
      "Ġvalidated": 6082,
      "another": 6083,
      "otrop": 6084,
      "Ġovere": 6085,
      "acr": 6086,
      "Ġsan": 6087,
      "viral": 6088,
      "Ġhippocamp": 6089,
      "derly": 6090,
      "250": 6091,
      "Ġspecificity": 6092,
      "house": 6093,
      "Ġdistal": 6094,
      "night": 6095,
      "Ġfracture": 6096,
      "direct": 6097,
      "Ġmodified": 6098,
      "Ġresidual": 6099,
      "bmi": 6100,
      "aden": 6101,
      "Ġcomputed": 6102,
      "Ġcytoplas": 6103,
      "Ġlikelihood": 6104,
      "ged": 6105,
      "caus": 6106,
      "dat": 6107,
      "Ġproviders": 6108,
      "Ġconsisted": 6109,
      "Ġadvantage": 6110,
      "Ġmas": 6111,
      "Ġmarket": 6112,
      "dimensional": 6113,
      "Ġcompe": 6114,
      "jection": 6115,
      "Ġequivalent": 6116,
      "Ġeditor": 6117,
      "Ġselective": 6118,
      "Ġcounts": 6119,
      "tif": 6120,
      "Ġcav": 6121,
      "Ġrevised": 6122,
      "Ġround": 6123,
      "Ġparallel": 6124,
      "Ġcontrac": 6125,
      "Ġsecretion": 6126,
      "serum": 6127,
      "Ġprimer": 6128,
      "Ġ~": 6129,
      "Ġnucleus": 6130,
      "Ġsuperior": 6131,
      "Ġeasily": 6132,
      "Ġgenetics": 6133,
      "Ġcomprehensive": 6134,
      "Ġfibro": 6135,
      "Ġchannels": 6136,
      "stress": 6137,
      "Ġscales": 6138,
      "alled": 6139,
      "Ġprotocols": 6140,
      "Ġonto": 6141,
      "mature": 6142,
      "acent": 6143,
      "Ġminimal": 6144,
      "Ġcerebral": 6145,
      "Ġguide": 6146,
      "Ġoverex": 6147,
      "Ġimplemented": 6148,
      "Ġafrican": 6149,
      "Ġcrucial": 6150,
      "antly": 6151,
      "zen": 6152,
      "Ġfalse": 6153,
      "Ġweb": 6154,
      "Ġrepeat": 6155,
      "integr": 6156,
      "ancing": 6157,
      "Ġcoding": 6158,
      "Ġdiscuss": 6159,
      "renal": 6160,
      "Ġidentifying": 6161,
      "Ġfarm": 6162,
      "âĢĤ": 6163,
      "Ġ300": 6164,
      "subjects": 6165,
      "urity": 6166,
      "mph": 6167,
      "Ġretrie": 6168,
      "ĊĠĠ": 6169,
      "Ġ150": 6170,
      "umes": 6171,
      "Ġcity": 6172,
      "physical": 6173,
      "ancial": 6174,
      "apped": 6175,
      "intestinal": 6176,
      "ico": 6177,
      "Ġgi": 6178,
      "Ġadequate": 6179,
      "Ġegg": 6180,
      "Ġwindow": 6181,
      "izophren": 6182,
      "itors": 6183,
      "orescent": 6184,
      "Ġpb": 6185,
      "Ġintegration": 6186,
      "dist": 6187,
      "Ã¶": 6188,
      "gue": 6189,
      "cour": 6190,
      "Ġelse": 6191,
      "Ġmyocardial": 6192,
      "Ġligand": 6193,
      "lig": 6194,
      "Ġlongitudinal": 6195,
      "Ġdecisions": 6196,
      "Ġsr": 6197,
      "ometri": 6198,
      "Ġdors": 6199,
      "oted": 6200,
      "Ġalloc": 6201,
      "ilep": 6202,
      "Ġeducational": 6203,
      "Ġpublishing": 6204,
      "Ġabsolute": 6205,
      "measured": 6206,
      "program": 6207,
      "expected": 6208,
      "sil": 6209,
      "ino": 6210,
      "Ġrise": 6211,
      "conclusion": 6212,
      "Ġcode": 6213,
      "Ġoptions": 6214,
      "Ġbelong": 6215,
      "Ġgovernment": 6216,
      "suc": 6217,
      "Ġappeared": 6218,
      ")).": 6219,
      "Ġpersons": 6220,
      "strong": 6221,
      "Ġarterial": 6222,
      "Ġplays": 6223,
      "azole": 6224,
      "acid": 6225,
      "Ġclimate": 6226,
      "Ġpredominant": 6227,
      "Ġprolong": 6228,
      "Ġcareg": 6229,
      "auc": 6230,
      "Ġetc": 6231,
      "hz": 6232,
      "Ġty": 6233,
      "Ġran": 6234,
      "Ġfluorescence": 6235,
      "Ġaccel": 6236,
      "Ġest": 6237,
      "ivered": 6238,
      "experimental": 6239,
      "qr": 6240,
      "tish": 6241,
      "ayer": 6242,
      "Ġpage": 6243,
      "compan": 6244,
      "Ġpolar": 6245,
      "Ġorganic": 6246,
      "Ġidentity": 6247,
      "Ġcurves": 6248,
      "Ġoccurrence": 6249,
      "Ġflex": 6250,
      "ercul": 6251,
      "Ġplastic": 6252,
      "cover": 6253,
      "Ġnoise": 6254,
      "herlands": 6255,
      "Ġcanada": 6256,
      "reduced": 6257,
      "Ġfrequencies": 6258,
      "ĠÂµm": 6259,
      "Ġovari": 6260,
      "Ġfish": 6261,
      "Ġking": 6262,
      "âĢĿ,": 6263,
      "expos": 6264,
      "Ġclosely": 6265,
      "Ġspectra": 6266,
      "ocity": 6267,
      "Ġcord": 6268,
      "Ġheterogeneity": 6269,
      "role": 6270,
      "Â¨": 6271,
      "Ġretin": 6272,
      "Ġexhibited": 6273,
      "nel": 6274,
      "Ġuses": 6275,
      "Ġ1996": 6276,
      "Ġrecord": 6277,
      "activated": 6278,
      "whether": 6279,
      "usa": 6280,
      "lead": 6281,
      "109": 6282,
      "icro": 6283,
      "Ġnumerous": 6284,
      "gas": 6285,
      "Ġcis": 6286,
      "maxim": 6287,
      "Ġallowing": 6288,
      "iï¬ģcance": 6289,
      "site": 6290,
      "Ġinvolves": 6291,
      "Ġreliable": 6292,
      "anth": 6293,
      "mation": 6294,
      "glut": 6295,
      "Ġnas": 6296,
      "Ġforward": 6297,
      "Ġclasses": 6298,
      "sectional": 6299,
      "patitis": 6300,
      "migr": 6301,
      "])": 6302,
      "tri": 6303,
      "ares": 6304,
      "Ġmt": 6305,
      "Ġvariations": 6306,
      "isms": 6307,
      "Ġmeasuring": 6308,
      "Ġcorrection": 6309,
      "phyl": 6310,
      "Ġ52": 6311,
      "paren": 6312,
      "uate": 6313,
      "Ġantag": 6314,
      "ocl": 6315,
      "%;": 6316,
      "Ġgir": 6317,
      "Ġlogistic": 6318,
      "inten": 6319,
      "proteins": 6320,
      "sr": 6321,
      "Ġconcern": 6322,
      "truct": 6323,
      "Ġconsequences": 6324,
      "Ġlocations": 6325,
      "Ġspinal": 6326,
      "oration": 6327,
      "obtained": 6328,
      "Ġmarrow": 6329,
      "break": 6330,
      "Ġmorphology": 6331,
      "accepted": 6332,
      "Ġthemselves": 6333,
      "Ġcreate": 6334,
      "lc": 6335,
      "hicle": 6336,
      "unting": 6337,
      "112": 6338,
      "Ġsafe": 6339,
      "sn": 6340,
      "Ġhepatic": 6341,
      "Ġequip": 6342,
      "ori": 6343,
      "school": 6344,
      "idal": 6345,
      "Ġpla": 6346,
      "distribution": 6347,
      "versely": 6348,
      "categ": 6349,
      "original": 6350,
      "*,": 6351,
      "natal": 6352,
      "odon": 6353,
      "totic": 6354,
      "Ġ56": 6355,
      "Ġsensory": 6356,
      "Ġgold": 6357,
      "great": 6358,
      "Ġinstrument": 6359,
      "Ġmagnitude": 6360,
      "Ġreplication": 6361,
      "pf": 6362,
      "pul": 6363,
      "erated": 6364,
      ".[": 6365,
      "compon": 6366,
      "Ġperspective": 6367,
      "Ġvide": 6368,
      "ceptions": 6369,
      "Ġempir": 6370,
      "Ġpsychiatric": 6371,
      "major": 6372,
      "Ġmetal": 6373,
      "Ġunclear": 6374,
      "sequence": 6375,
      "Ġtechnical": 6376,
      "Ġpossibly": 6377,
      "Ġassessing": 6378,
      "Ġbiomarkers": 6379,
      "âĢ²-": 6380,
      "ometer": 6381,
      "Ġencour": 6382,
      "Ġperception": 6383,
      "Ġeyes": 6384,
      "screen": 6385,
      "Ġvaccination": 6386,
      "Ġidentical": 6387,
      "sess": 6388,
      "acted": 6389,
      "Ġtom": 6390,
      "Ġactions": 6391,
      "Ġchanged": 6392,
      "Ġdiscovery": 6393,
      "unte": 6394,
      "Ġdefects": 6395,
      "Ġindicators": 6396,
      "Ġyeast": 6397,
      "ester": 6398,
      "cont": 6399,
      "hand": 6400,
      "none": 6401,
      "Ġapproval": 6402,
      "Ġantim": 6403,
      "Ġreads": 6404,
      "temper": 6405,
      "serv": 6406,
      "Ġmapping": 6407,
      "Ġangle": 6408,
      "design": 6409,
      "tures": 6410,
      "management": 6411,
      "white": 6412,
      "ifying": 6413,
      "Ġloop": 6414,
      "Ġswed": 6415,
      "cross": 6416,
      "mice": 6417,
      "Ġthromb": 6418,
      "Ġcharacteristic": 6419,
      "Ġadherence": 6420,
      "Ġabnormalities": 6421,
      "Ġfoot": 6422,
      "Ġtook": 6423,
      "blasts": 6424,
      "Ġcas": 6425,
      "Ġgrown": 6426,
      "controlled": 6427,
      "academic": 6428,
      "chronic": 6429,
      "Ġbind": 6430,
      "bound": 6431,
      "arter": 6432,
      "Ġexclusion": 6433,
      "Ġcomor": 6434,
      "models": 6435,
      "Ġconserved": 6436,
      "Ġlaser": 6437,
      "Ġreson": 6438,
      "kd": 6439,
      "effective": 6440,
      "imaging": 6441,
      "prising": 6442,
      "linked": 6443,
      "symptoms": 6444,
      "Ġnative": 6445,
      "Ġcapture": 6446,
      "side": 6447,
      "pansion": 6448,
      "alk": 6449,
      "eptide": 6450,
      "Ġindependently": 6451,
      "Ġ1995": 6452,
      "interest": 6453,
      "pliance": 6454,
      "domain": 6455,
      "even": 6456,
      "Ġabundance": 6457,
      "Ġshare": 6458,
      "Ġinfant": 6459,
      "awi": 6460,
      "Ġcham": 6461,
      "illin": 6462,
      "particular": 6463,
      "Ġventricular": 6464,
      "Ġisolation": 6465,
      "Ġinvasive": 6466,
      "Ġstabil": 6467,
      "izophrenia": 6468,
      "haps": 6469,
      "Ġov": 6470,
      "genetic": 6471,
      "Ġultrasound": 6472,
      "map": 6473,
      "nan": 6474,
      "Ġ49": 6475,
      "âĨ": 6476,
      "pass": 6477,
      "Ġpapers": 6478,
      "Ġconsists": 6479,
      "odynam": 6480,
      "Ġrecurrence": 6481,
      "Ġrespective": 6482,
      "600": 6483,
      "Ġlisted": 6484,
      "relationship": 6485,
      "lymph": 6486,
      "Ġsurveillance": 6487,
      "optim": 6488,
      "iment": 6489,
      "Ġarray": 6490,
      "pic": 6491,
      "ibration": 6492,
      "Ġtrust": 6493,
      "Ġthink": 6494,
      "inï¬Ĥ": 6495,
      "itone": 6496,
      "imensions": 6497,
      "pressing": 6498,
      "Ġhaz": 6499,
      "Ġcerv": 6500,
      "Ġfusion": 6501,
      "difference": 6502,
      "Ġkeep": 6503,
      "anch": 6504,
      "Ġefficiency": 6505,
      "Ġfunctioning": 6506,
      "cher": 6507,
      "Ġstorage": 6508,
      "Ġobject": 6509,
      "ols": 6510,
      "ologous": 6511,
      "Ġbleeding": 6512,
      "iro": 6513,
      "Ġdatasets": 6514,
      "Ġnormalized": 6515,
      "Ġdocumented": 6516,
      "Ġhormone": 6517,
      "sigma": 6518,
      "Ġyounger": 6519,
      "concentration": 6520,
      "Ġhpv": 6521,
      "Ġranged": 6522,
      "Ġzone": 6523,
      "Ġinner": 6524,
      "atories": 6525,
      "Ġbuilding": 6526,
      "Ġenough": 6527,
      "Ġcytokine": 6528,
      "Ġbiochemical": 6529,
      "+/": 6530,
      "Ġderiv": 6531,
      "endi": 6532,
      "Ġlc": 6533,
      "ky": 6534,
      "nutr": 6535,
      "heum": 6536,
      "Ġdu": 6537,
      "130": 6538,
      "Ġmodeling": 6539,
      "Ġ64": 6540,
      "ito": 6541,
      "green": 6542,
      "Ġba": 6543,
      "Ġelement": 6544,
      "Ġrecognized": 6545,
      "Ġgy": 6546,
      "dehy": 6547,
      "Ġoncology": 6548,
      "Ġneck": 6549,
      "onch": 6550,
      "Ġethanol": 6551,
      "focus": 6552,
      "Ġlargest": 6553,
      "dg": 6554,
      "Ġamounts": 6555,
      "force": 6556,
      "approach": 6557,
      "Ġloci": 6558,
      "array": 6559,
      "Ġdeletion": 6560,
      "achment": 6561,
      "Ġenglish": 6562,
      "Ġexhibit": 6563,
      "prob": 6564,
      "Ġnc": 6565,
      "ump": 6566,
      "Ġovarian": 6567,
      "Ġfacilities": 6568,
      "Ġmetastasis": 6569,
      "fï¬ģcient": 6570,
      "Ġstay": 6571,
      "tract": 6572,
      "Ġattributed": 6573,
      "arth": 6574,
      "stat": 6575,
      "articles": 6576,
      "Ġfaculty": 6577,
      "proble": 6578,
      "Ġho": 6579,
      "ime": 6580,
      "training": 6581,
      "df": 6582,
      "iï¬ģ": 6583,
      "pb": 6584,
      "oms": 6585,
      "don": 6586,
      "cepts": 6587,
      "Ġdivision": 6588,
      "Âµ": 6589,
      "conduc": 6590,
      "did": 6591,
      "nov": 6592,
      "Ġreproductive": 6593,
      "Ġpac": 6594,
      "cutaneous": 6595,
      "Ġintestinal": 6596,
      "ðĿĽ": 6597,
      "chemical": 6598,
      "nh": 6599,
      "Ġreflect": 6600,
      "))": 6601,
      "Ġcytos": 6602,
      "Ġstrati": 6603,
      "corresponding": 6604,
      "Ġ120": 6605,
      "brevi": 6606,
      "ectives": 6607,
      "Ġseparated": 6608,
      "igu": 6609,
      "unct": 6610,
      "Ġintermediate": 6611,
      "Ġlv": 6612,
      "Ġvic": 6613,
      "Ġendogenous": 6614,
      "Ġregulated": 6615,
      "leuk": 6616,
      "2004": 6617,
      "cation": 6618,
      "Ġknee": 6619,
      "Ġclaim": 6620,
      "aba": 6621,
      "Ġlost": 6622,
      "Ġseed": 6623,
      "ifications": 6624,
      "lines": 6625,
      "amb": 6626,
      "Ġages": 6627,
      "Ġbed": 6628,
      "Ġlact": 6629,
      "adap": 6630,
      "expressed": 6631,
      "survi": 6632,
      "Ġprotective": 6633,
      "Ġphosphate": 6634,
      "severe": 6635,
      "amo": 6636,
      "amic": 6637,
      "Ġawareness": 6638,
      "icrobial": 6639,
      "Ġtransferred": 6640,
      "Ġentry": 6641,
      "atigue": 6642,
      "Ġveget": 6643,
      "soci": 6644,
      "Ġnr": 6645,
      "Ġvessels": 6646,
      "Ġbarriers": 6647,
      "Ġnevertheless": 6648,
      "ris": 6649,
      "Ġtor": 6650,
      "Ġaustralia": 6651,
      "anger": 6652,
      "Ġtransplantation": 6653,
      "Ġviruses": 6654,
      "Ġcandidate": 6655,
      "Ġtrained": 6656,
      "Ġefficient": 6657,
      "omical": 6658,
      "ulative": 6659,
      "graph": 6660,
      "Ġseparately": 6661,
      "Ġpositions": 6662,
      "Ġexpressing": 6663,
      "cores": 6664,
      "large": 6665,
      "108": 6666,
      "condition": 6667,
      "Ġhearing": 6668,
      "blast": 6669,
      "Ġprofessionals": 6670,
      "Ġ53": 6671,
      "ttps": 6672,
      "matic": 6673,
      "healthy": 6674,
      "Ġrot": 6675,
      "insic": 6676,
      "Ġconfound": 6677,
      "Ġimplications": 6678,
      "Ġmirna": 6679,
      "Ġcervical": 6680,
      "edic": 6681,
      "Ġ1990": 6682,
      "considered": 6683,
      "Ġtet": 6684,
      "ucts": 6685,
      "Ġdeï¬ģn": 6686,
      "Ġaccordance": 6687,
      "107": 6688,
      "Ġpit": 6689,
      "Ġleaf": 6690,
      "Ġmicros": 6691,
      "pring": 6692,
      "relev": 6693,
      "international": 6694,
      "fit": 6695,
      "Ġcry": 6696,
      "Ġdepends": 6697,
      "Ġveter": 6698,
      "Ġlimb": 6699,
      "za": 6700,
      "Ġmv": 6701,
      "Ġsimulations": 6702,
      "Ġinstitutional": 6703,
      "Ġembryos": 6704,
      "mill": 6705,
      "sent": 6706,
      "radiation": 6707,
      "dp": 6708,
      "characteristics": 6709,
      "adian": 6710,
      "140": 6711,
      "Ġspontaneous": 6712,
      "Ġmicrobial": 6713,
      "Ġname": 6714,
      "Ġ51": 6715,
      "Ġword": 6716,
      "Ġcontinued": 6717,
      "âĪĹâĪĹ": 6718,
      "Ġassembly": 6719,
      "erculosis": 6720,
      "again": 6721,
      "Ġalterations": 6722,
      "ococcus": 6723,
      "esting": 6724,
      "Ġmorbidity": 6725,
      "ozygous": 6726,
      "acu": 6727,
      "Ġviability": 6728,
      "Ġdominant": 6729,
      "bodies": 6730,
      "Ġsuccessfully": 6731,
      "han": 6732,
      "Ġcontributed": 6733,
      "Ġphysician": 6734,
      "wards": 6735,
      "Ġconsequently": 6736,
      "Ġhla": 6737,
      "ohist": 6738,
      "Ġpf": 6739,
      "affected": 6740,
      "Ġdur": 6741,
      "Ġ54": 6742,
      "cb": 6743,
      "example": 6744,
      "exposure": 6745,
      "Ġelderly": 6746,
      "ini": 6747,
      "Ġreag": 6748,
      "igene": 6749,
      "Ġalleles": 6750,
      "Ġpages": 6751,
      "association": 6752,
      "Ġassessments": 6753,
      "Ġhous": 6754,
      "ging": 6755,
      "Ġinhibitory": 6756,
      "Ġzero": 6757,
      "Ġadhesion": 6758,
      "urally": 6759,
      "significantly": 6760,
      "ologically": 6761,
      "Ġrestricted": 6762,
      "Ġimproving": 6763,
      "Ġsnp": 6764,
      "Ġperi": 6765,
      "Ġsched": 6766,
      "van": 6767,
      "Ġresection": 6768,
      "Ġfold": 6769,
      "Ġseiz": 6770,
      "relative": 6771,
      "Ġinjuries": 6772,
      "Ġnanop": 6773,
      "inese": 6774,
      "comparison": 6775,
      "Ġdark": 6776,
      "Ġprofiles": 6777,
      "Ġneurological": 6778,
      "riched": 6779,
      "olip": 6780,
      "igare": 6781,
      "orts": 6782,
      "figures": 6783,
      "Ġery": 6784,
      "Ġagric": 6785,
      "Ġones": 6786,
      "Ġgoals": 6787,
      "Ġpromis": 6788,
      "Ġdistric": 6789,
      "chlor": 6790,
      "Ġexplored": 6791,
      "Ġfailed": 6792,
      "Ġurinary": 6793,
      "ologist": 6794,
      "Ġreflec": 6795,
      "Ġfewer": 6796,
      "Ġextension": 6797,
      "individuals": 6798,
      "Ġbd": 6799,
      "Ġcolleagues": 6800,
      "tory": 6801,
      "Ġdeple": 6802,
      "avage": 6803,
      "Ġpositively": 6804,
      "ries": 6805,
      "Ġconï¬ģrmed": 6806,
      "Ġbrazil": 6807,
      "Ġgradient": 6808,
      "endix": 6809,
      "cas": 6810,
      "cip": 6811,
      "tured": 6812,
      "Ġure": 6813,
      "ago": 6814,
      "Ġinterface": 6815,
      "Ġconduct": 6816,
      "posite": 6817,
      "Ġclinicians": 6818,
      "Ġnitrogen": 6819,
      "ï¬ģcial": 6820,
      "Ġplots": 6821,
      "Ġcenters": 6822,
      "Ġpregnant": 6823,
      "Ġcytot": 6824,
      "Ã¼": 6825,
      "Ġplatform": 6826,
      "Ġparental": 6827,
      "Ġextra": 6828,
      "ÂłÂł": 6829,
      "angl": 6830,
      "dents": 6831,
      "ectin": 6832,
      "invas": 6833,
      "Ġbeg": 6834,
      "Ġmembranes": 6835,
      "Ġoccurring": 6836,
      "portion": 6837,
      "Ġ58": 6838,
      "Ġmanip": 6839,
      "Ġ(ï¿½": 6840,
      "quire": 6841,
      "Ġengineering": 6842,
      "Ġelis": 6843,
      "Ġpay": 6844,
      "access": 6845,
      "Ġparad": 6846,
      "Ġgastric": 6847,
      "Ġduplic": 6848,
      "real": 6849,
      "Ġorganisms": 6850,
      "Ġnearly": 6851,
      "Ġ$": 6852,
      "hat": 6853,
      "world": 6854,
      "prior": 6855,
      "arities": 6856,
      "Ġloading": 6857,
      "Ġchemistry": 6858,
      "urg": 6859,
      "Ġeligible": 6860,
      "dent": 6861,
      "Ġmutants": 6862,
      "-(": 6863,
      "avy": 6864,
      "Ġinjected": 6865,
      "ato": 6866,
      "Ġtranscripts": 6867,
      "Ġestimation": 6868,
      "Ġtolerance": 6869,
      "genome": 6870,
      "Ġpurch": 6871,
      "Ġsatisfaction": 6872,
      "Ġmatched": 6873,
      "Ġphenotypes": 6874,
      "Ġcomplexity": 6875,
      "Ġ**": 6876,
      "feeding": 6877,
      "pal": 6878,
      "Ġmind": 6879,
      "ľĩ": 6880,
      "Ġinteresting": 6881,
      "adequ": 6882,
      "pregn": 6883,
      "Ġmedications": 6884,
      "Ġgave": 6885,
      "dehyde": 6886,
      "Ġmanufacturer": 6887,
      "Ġsurge": 6888,
      "Ġlac": 6889,
      "chron": 6890,
      "Ġpharmaceu": 6891,
      "Ġwat": 6892,
      "Ġ85": 6893,
      "Ġhu": 6894,
      "Ġantibiotics": 6895,
      "Ġcouns": 6896,
      "Ġvo": 6897,
      "stolic": 6898,
      "Ġbow": 6899,
      "Ġtranslation": 6900,
      "Ġchest": 6901,
      "ogly": 6902,
      "unction": 6903,
      "Ġboard": 6904,
      "fat": 6905,
      "Ġconstruct": 6906,
      "Ġak": 6907,
      "uce": 6908,
      "ike": 6909,
      "Ġraw": 6910,
      "education": 6911,
      "oste": 6912,
      "Ġwil": 6913,
      "Ġantioxid": 6914,
      "rog": 6915,
      "Ġactin": 6916,
      "Ġrepresentation": 6917,
      "bert": 6918,
      "Ġkm": 6919,
      "Ġgenotypes": 6920,
      "Ġbm": 6921,
      "Ġtheoretical": 6922,
      "appropriate": 6923,
      "defined": 6924,
      "fol": 6925,
      "Ġdecreases": 6926,
      "Ġneutroph": 6927,
      "Ġstandardized": 6928,
      "Ġtobacco": 6929,
      "performance": 6930,
      "Ġhcv": 6931,
      "Ġlocus": 6932,
      "obes": 6933,
      "Ġprov": 6934,
      "eur": 6935,
      "Ġds": 6936,
      "111": 6937,
      "Ġresistant": 6938,
      "aker": 6939,
      "Ġmos": 6940,
      "Ġsimilarity": 6941,
      "Ġantibiotic": 6942,
      "intr": 6943,
      "oman": 6944,
      "polar": 6945,
      "Ġtgf": 6946,
      "Ġconflic": 6947,
      "Ġmess": 6948,
      "pin": 6949,
      "herent": 6950,
      "Ġattenu": 6951,
      "Ġrequirements": 6952,
      "Ġcoordin": 6953,
      "Ġsegment": 6954,
      "bridge": 6955,
      "Ġbecame": 6956,
      "poly": 6957,
      "Ġconclusions": 6958,
      "Ġaddi": 6959,
      "Ġaffects": 6960,
      "Ġfacility": 6961,
      "Ġcorporation": 6962,
      "inï¬Ĥamm": 6963,
      "ophagy": 6964,
      "Ġpyr": 6965,
      "Ġshif": 6966,
      "Ġdischarge": 6967,
      "ady": 6968,
      "Ġmetastatic": 6969,
      "oxia": 6970,
      "ibri": 6971,
      "Ġsignalling": 6972,
      "bour": 6973,
      "ror": 6974,
      "Ġpartner": 6975,
      "Ġthreat": 6976,
      "cause": 6977,
      "ducing": 6978,
      "breast": 6979,
      "stein": 6980,
      "prog": 6981,
      "power": 6982,
      "Ġmetabolites": 6983,
      "Ġsubjected": 6984,
      "presence": 6985,
      "hab": 6986,
      "pread": 6987,
      "Ġbeginning": 6988,
      "Ġegfr": 6989,
      "Ġagricult": 6990,
      "drich": 6991,
      "Ġsometimes": 6992,
      "community": 6993,
      "ush": 6994,
      "citation": 6995,
      "tol": 6996,
      "Ġanth": 6997,
      "Ġdelayed": 6998,
      "rati": 6999,
      "Ġuv": 7000,
      "Ġbarrier": 7001,
      "Ġrepresenting": 7002,
      "Ġprivate": 7003,
      "ounds": 7004,
      "Ġinvolve": 7005,
      "Ġdirec": 7006,
      "Ġwhom": 7007,
      "Ġvelocity": 7008,
      "Ġproximal": 7009,
      "âĹı": 7010,
      "ostasis": 7011,
      "Ġmalignant": 7012,
      "Ġlibrary": 7013,
      "measures": 7014,
      "dd": 7015,
      "conn": 7016,
      "recomm": 7017,
      "Ġpractical": 7018,
      "resid": 7019,
      "resistant": 7020,
      "Ġinteract": 7021,
      "ciples": 7022,
      "despite": 7023,
      "Ġathe": 7024,
      "Ġglass": 7025,
      "cognitive": 7026,
      "gp": 7027,
      "ïĻ": 7028,
      "assay": 7029,
      "Ġmb": 7030,
      "Ġ68": 7031,
      "Ġcoefficient": 7032,
      "diabetes": 7033,
      "006": 7034,
      "Ġfri": 7035,
      "Ġkine": 7036,
      "advant": 7037,
      "Ġongoing": 7038,
      "Ġmethodology": 7039,
      "Ġdial": 7040,
      "Ġcompart": 7041,
      "never": 7042,
      "variable": 7043,
      "Ġupd": 7044,
      "Ġexchange": 7045,
      "Ġelectronic": 7046,
      "Ġpip": 7047,
      "Ġelic": 7048,
      "variables": 7049,
      "Ġcausal": 7050,
      "acute": 7051,
      "onin": 7052,
      "Ġorgans": 7053,
      "Ġsusceptibility": 7054,
      "Ġlap": 7055,
      "Ġpathological": 7056,
      "ðĿĳĥ": 7057,
      "Ġcamp": 7058,
      "ifer": 7059,
      "Ġprecur": 7060,
      "puts": 7061,
      "Ġcum": 7062,
      "tism": 7063,
      "depend": 7064,
      "Ġpure": 7065,
      "Ġhydrogen": 7066,
      "Ġoption": 7067,
      "mel": 7068,
      "structure": 7069,
      "Ġmanual": 7070,
      "Ġ400": 7071,
      "Ġdetermination": 7072,
      "titive": 7073,
      "Ġgal": 7074,
      "ivariate": 7075,
      "Ġvalu": 7076,
      "Ġprognosis": 7077,
      "dys": 7078,
      "Ġnerv": 7079,
      "Ġmanifest": 7080,
      "116": 7081,
      "Ġencoding": 7082,
      "Ġcommercial": 7083,
      "Ġdeï¬ģc": 7084,
      "alities": 7085,
      "constr": 7086,
      "Ġsor": 7087,
      "Ġmirnas": 7088,
      "Ġdemand": 7089,
      "Ġvag": 7090,
      "Ġintensive": 7091,
      "bot": 7092,
      "uvant": 7093,
      "Ġdelivered": 7094,
      "Ġice": 7095,
      "Ġabuse": 7096,
      "Ġjob": 7097,
      "Ġplatelet": 7098,
      "Ġlps": 7099,
      "via": 7100,
      "tage": 7101,
      "Ġmer": 7102,
      "applied": 7103,
      "Ġreleased": 7104,
      "previously": 7105,
      "Ġenrolled": 7106,
      "arcinoma": 7107,
      "Ġunderstood": 7108,
      "Ġ57": 7109,
      "itored": 7110,
      "Ġcultural": 7111,
      "mass": 7112,
      "Ġperme": 7113,
      "Ġlimits": 7114,
      "Ġprogramm": 7115,
      "Ġcys": 7116,
      "Ġinvasion": 7117,
      "Ġspring": 7118,
      "units": 7119,
      "aud": 7120,
      "ou": 7121,
      "outcome": 7122,
      "iger": 7123,
      "Ġdrinking": 7124,
      "section": 7125,
      "Ġcasp": 7126,
      "Ġ59": 7127,
      "ida": 7128,
      "ocrine": 7129,
      "nicity": 7130,
      "identified": 7131,
      "vey": 7132,
      "Ġposi": 7133,
      "Ġamb": 7134,
      "bene": 7135,
      "Ġtele": 7136,
      "Ġharm": 7137,
      "Ġaspir": 7138,
      "aryn": 7139,
      "Ġsuppress": 7140,
      "accur": 7141,
      "Ġhd": 7142,
      "Ġnetherlands": 7143,
      "note": 7144,
      "Ġfoods": 7145,
      "Ġtg": 7146,
      "Ġwest": 7147,
      "Ġdatabases": 7148,
      "Ġpsychiatry": 7149,
      "nes": 7150,
      "Ã¡": 7151,
      "anism": 7152,
      "Ġcyp": 7153,
      "Ġcx": 7154,
      "Ġinstructions": 7155,
      "Ġoct": 7156,
      "tm": 7157,
      "Ġnucleotide": 7158,
      "Ġbiomedical": 7159,
      "Ġpredictors": 7160,
      "ider": 7161,
      "network": 7162,
      "Ġmax": 7163,
      "Ġyiel": 7164,
      "Ġphases": 7165,
      "Ġretinal": 7166,
      "Ġhighlight": 7167,
      "fib": 7168,
      "field": 7169,
      "hang": 7170,
      "Ġfunding": 7171,
      "atg": 7172,
      "Ġhapp": 7173,
      "oxicity": 7174,
      "Ġcaps": 7175,
      "amino": 7176,
      "iop": 7177,
      "Ġobese": 7178,
      "resp": 7179,
      "Ġreduces": 7180,
      "Ġplasmid": 7181,
      "Ġsigniï¬ģcance": 7182,
      "Ġpneumonia": 7183,
      "âĢĿ.": 7184,
      "Ġvarying": 7185,
      "rin": 7186,
      "Ġquite": 7187,
      "tiation": 7188,
      "Ġregulate": 7189,
      "Ġpresents": 7190,
      "kinson": 7191,
      "115": 7192,
      "Ġdistur": 7193,
      "Ġont": 7194,
      "pattern": 7195,
      "electr": 7196,
      "tests": 7197,
      "biomed": 7198,
      "Ġmature": 7199,
      "Ġnmr": 7200,
      "wr": 7201,
      "Ġultim": 7202,
      "temperature": 7203,
      "Ġ99": 7204,
      "surgery": 7205,
      "Ġframe": 7206,
      "Ġpts": 7207,
      "Ġevident": 7208,
      "thetic": 7209,
      "Ġdefinition": 7210,
      "minim": 7211,
      "itary": 7212,
      "orectal": 7213,
      "Ġpathogens": 7214,
      "typ": 7215,
      "vacc": 7216,
      "polym": 7217,
      "Ġlicensee": 7218,
      "Ġpoli": 7219,
      "Ġvolunte": 7220,
      "Ġenable": 7221,
      "Ġautom": 7222,
      "scores": 7223,
      "007": 7224,
      "Ġcold": 7225,
      "Ġadaptation": 7226,
      "Ġparticle": 7227,
      "Ġattempt": 7228,
      "apop": 7229,
      "ship": 7230,
      "Ġpeer": 7231,
      "Ġamplitude": 7232,
      "Ġaims": 7233,
      "Ġsf": 7234,
      "avi": 7235,
      "Ġdigital": 7236,
      "Ġconsiderable": 7237,
      "Ġhabit": 7238,
      "ama": 7239,
      "Ġeï¬Ģect": 7240,
      "Ġshorter": 7241,
      "erests": 7242,
      "Ġsupply": 7243,
      "Ġdiffusion": 7244,
      "opo": 7245,
      "opy": 7246,
      "seq": 7247,
      "cha": 7248,
      "bance": 7249,
      "food": 7250,
      "ken": 7251,
      "source": 7252,
      "Ġubiqu": 7253,
      "ret": 7254,
      "onds": 7255,
      "uria": 7256,
      "ierarch": 7257,
      "Ġdonors": 7258,
      "course": 7259,
      "iliar": 7260,
      "cul": 7261,
      "clusive": 7262,
      "Ġfrance": 7263,
      "base": 7264,
      "Ġretrospective": 7265,
      "nals": 7266,
      "sf": 7267,
      "acchar": 7268,
      "Ġgc": 7269,
      "Ġ(Â±": 7270,
      "Ġdimensions": 7271,
      "oking": 7272,
      "rose": 7273,
      "Ġrehabilitation": 7274,
      "black": 7275,
      "Ġthin": 7276,
      "reviewed": 7277,
      "Ġbilateral": 7278,
      "Ġexpansion": 7279,
      "Ġdeb": 7280,
      "born": 7281,
      "glucose": 7282,
      "Ġrelevance": 7283,
      "furthermore": 7284,
      "iding": 7285,
      "Ġacademic": 7286,
      "Ġsubstance": 7287,
      "cine": 7288,
      "Ġcopy": 7289,
      "Ġhoriz": 7290,
      "ele": 7291,
      "Ġuc": 7292,
      "Ġneither": 7293,
      "Ġmaps": 7294,
      "Ġindivid": 7295,
      "echnology": 7296,
      "Ġcausing": 7297,
      "spon": 7298,
      "Ġoptical": 7299,
      "Ġalignment": 7300,
      "Ġbreat": 7301,
      "surface": 7302,
      "Ġpv": 7303,
      ")/": 7304,
      "medium": 7305,
      "fract": 7306,
      "Ġasd": 7307,
      "item": 7308,
      "Ġkind": 7309,
      "phil": 7310,
      "ively": 7311,
      "Ġdistress": 7312,
      "ampl": 7313,
      "ĠâĪ": 7314,
      "proper": 7315,
      "Ġeffort": 7316,
      "itect": 7317,
      "across": 7318,
      "ectivity": 7319,
      "Ġorientation": 7320,
      "Ġring": 7321,
      "Ġseparation": 7322,
      "Ġlocalization": 7323,
      "rophy": 7324,
      "Ġ66": 7325,
      "ono": 7326,
      "ylated": 7327,
      "Ġdownstream": 7328,
      "Ġsi": 7329,
      "Ġexplicit": 7330,
      "Ġblocks": 7331,
      "Ġkept": 7332,
      "Ġresonance": 7333,
      "Ġadjacent": 7334,
      "Ġtranscriptional": 7335,
      "ilst": 7336,
      "Ġtrends": 7337,
      "roscopic": 7338,
      "piratory": 7339,
      "europe": 7340,
      "Ġ(<": 7341,
      "Ġgut": 7342,
      "Ġpilot": 7343,
      "Ġeasy": 7344,
      "density": 7345,
      "Ġexcell": 7346,
      "repe": 7347,
      "2003": 7348,
      "dig": 7349,
      "Ġscenario": 7350,
      "retro": 7351,
      "Ġscat": 7352,
      "Ġundergo": 7353,
      "Ġoverlap": 7354,
      "Ġsubunit": 7355,
      "Ġaz": 7356,
      "Ġcu": 7357,
      "Ġrecurrent": 7358,
      "finding": 7359,
      "either": 7360,
      "fo": 7361,
      "Ġexten": 7362,
      "Ġexce": 7363,
      "Ġvulner": 7364,
      "illing": 7365,
      "outcomes": 7366,
      "Ġdistinguish": 7367,
      "tw": 7368,
      "olin": 7369,
      "Ġgenomes": 7370,
      "Ġ63": 7371,
      "Ġdistributions": 7372,
      "Ġlifest": 7373,
      "ctg": 7374,
      "Ġdual": 7375,
      "Ġsimulated": 7376,
      "cost": 7377,
      "good": 7378,
      "Ġfu": 7379,
      "Ġnk": 7380,
      "128": 7381,
      "Ġserve": 7382,
      "Ġprogressive": 7383,
      "moderate": 7384,
      "Ġsv": 7385,
      "Ġphil": 7386,
      "Ġuncertainty": 7387,
      "Ġfever": 7388,
      "Ġpulse": 7389,
      "address": 7390,
      "Ġobstr": 7391,
      "morph": 7392,
      "Ġcomputational": 7393,
      "Ġobvious": 7394,
      "Ġimportantly": 7395,
      "Ġfear": 7396,
      "Ġrig": 7397,
      "Ġimprovements": 7398,
      "Ġprolonged": 7399,
      "peak": 7400,
      "Ġconsequence": 7401,
      "ione": 7402,
      "epit": 7403,
      "Ġhind": 7404,
      "Ġgluc": 7405,
      "Ġlayers": 7406,
      "Ġvehicle": 7407,
      "determined": 7408,
      "Ġcox": 7409,
      "Ġ62": 7410,
      "Ġsensor": 7411,
      "Ġenab": 7412,
      "Ġpaired": 7413,
      "loss": 7414,
      "umatic": 7415,
      "rp": 7416,
      "Ġexplanation": 7417,
      "area": 7418,
      "Ġprocessed": 7419,
      "Ġrecall": 7420,
      "impact": 7421,
      "metric": 7422,
      "117": 7423,
      "avir": 7424,
      "Ġnuclei": 7425,
      "Ġsituations": 7426,
      "Ġeating": 7427,
      "Ġions": 7428,
      "Ġlaboratories": 7429,
      "Ġadaptive": 7430,
      "miss": 7431,
      "search": 7432,
      "Ġ1994": 7433,
      "Ġmeeting": 7434,
      "Ġmultivariate": 7435,
      "Ġfisher": 7436,
      "Ġskeletal": 7437,
      "Ġaffecting": 7438,
      "Ġsupernat": 7439,
      "Ġconfirm": 7440,
      "prevalence": 7441,
      "arged": 7442,
      "Ġrecip": 7443,
      "secondary": 7444,
      "Ġpk": 7445,
      "sensitivity": 7446,
      "/âĪĴ": 7447,
      "Ġsalt": 7448,
      "list": 7449,
      "Ġpathogen": 7450,
      "Ġluc": 7451,
      "Ġaccompan": 7452,
      "developed": 7453,
      "Ġconnected": 7454,
      "Ġmand": 7455,
      "Ġabsent": 7456,
      "short": 7457,
      "vine": 7458,
      "Ġbay": 7459,
      "Ġsou": 7460,
      "Ġvisible": 7461,
      "Ġinfarc": 7462,
      "Ġcdna": 7463,
      "Ġsurveys": 7464,
      "Ġaortic": 7465,
      "Ġ000": 7466,
      "correlation": 7467,
      "amination": 7468,
      "Ġfelt": 7469,
      "Ġverte": 7470,
      "Ġchromat": 7471,
      "Ġperhaps": 7472,
      "133": 7473,
      "Ġlimitation": 7474,
      "ulates": 7475,
      "anese": 7476,
      "relevant": 7477,
      "Ġoperation": 7478,
      "receptor": 7479,
      "fi": 7480,
      "Ġelimin": 7481,
      "Ġneuroscience": 7482,
      "Ġcro": 7483,
      "ĠÂ·": 7484,
      "Ġequally": 7485,
      "________": 7486,
      "Ġtiming": 7487,
      "Ġunable": 7488,
      "rought": 7489,
      "oscopy": 7490,
      "reme": 7491,
      "quantit": 7492,
      "Ġclar": 7493,
      "Ġradical": 7494,
      "Ġcohorts": 7495,
      "approximately": 7496,
      "ylin": 7497,
      "Ġhealing": 7498,
      "saf": 7499,
      "ether": 7500,
      "Ġdimension": 7501,
      "Ġepilep": 7502,
      "Ġ67": 7503,
      "Ġutilized": 7504,
      "Ġitaly": 7505,
      "Ġpathogenesis": 7506,
      "nl": 7507,
      "Ġosc": 7508,
      "arian": 7509,
      "Ġfoundation": 7510,
      "death": 7511,
      "Ġpolicies": 7512,
      "Ġvirt": 7513,
      "Ġimpacts": 7514,
      "Ġimag": 7515,
      "Ġpackage": 7516,
      "Ġnons": 7517,
      "Ġcultiv": 7518,
      "aint": 7519,
      "Ġ(.": 7520,
      "Ġjus": 7521,
      "017": 7522,
      "Ġprecision": 7523,
      "ĭħ": 7524,
      "controls": 7525,
      "Ġemphas": 7526,
      "index": 7527,
      "008": 7528,
      "strateg": 7529,
      "gre": 7530,
      "implement": 7531,
      "Îº": 7532,
      "Ġsuic": 7533,
      "gent": 7534,
      "volution": 7535,
      "Ġattitudes": 7536,
      "Ġneonatal": 7537,
      "stances": 7538,
      "Ġpractition": 7539,
      "Ġenco": 7540,
      "Ġventi": 7541,
      "Ġeï¬Ģects": 7542,
      "gm": 7543,
      "Ġhepatitis": 7544,
      "kn": 7545,
      "Ġcoef": 7546,
      "Ġspectrom": 7547,
      "gland": 7548,
      "Ġopportunity": 7549,
      "Ġcompens": 7550,
      "oto": 7551,
      "Ġprecip": 7552,
      "Ġpartially": 7553,
      "oses": 7554,
      "Ġtrait": 7555,
      "sequences": 7556,
      "Ġmn": 7557,
      "Ġschizophrenia": 7558,
      "Ġthermal": 7559,
      "personal": 7560,
      "Ġexcess": 7561,
      "Ġpredictor": 7562,
      "tries": 7563,
      "Ġspeciï¬ģcally": 7564,
      "Ġnervous": 7565,
      "Ġovernight": 7566,
      "Ġmetric": 7567,
      "Ġdogs": 7568,
      "Ġseason": 7569,
      "inger": 7570,
      "criter": 7571,
      "bedded": 7572,
      "Ġreplacement": 7573,
      "Ġpromising": 7574,
      "aceae": 7575,
      "Ġrecombinant": 7576,
      "Ġsurrounding": 7577,
      "Ġidea": 7578,
      "Ġsummarized": 7579,
      "Ġbud": 7580,
      "Ġvegf": 7581,
      "tilage": 7582,
      "Ġbab": 7583,
      "Ġleaves": 7584,
      "Ġinside": 7585,
      "Ġarthritis": 7586,
      "tracted": 7587,
      "experiment": 7588,
      "Ġprogen": 7589,
      "Ġcomb": 7590,
      "Ġquestionnaires": 7591,
      "Ġquick": 7592,
      "Ġgfp": 7593,
      "hypothe": 7594,
      "Ġinterests": 7595,
      "Ġpersistent": 7596,
      "Ġenrich": 7597,
      "Ġimmunity": 7598,
      "count": 7599,
      "Ġcomposed": 7600,
      "evaluation": 7601,
      "Ġko": 7602,
      "Ġclean": 7603,
      "Ġsynthetic": 7604,
      "throm": 7605,
      "126": 7606,
      "aces": 7607,
      "Ġobjects": 7608,
      "Ġtex": 7609,
      "016": 7610,
      "jugated": 7611,
      "Ġadjustment": 7612,
      "ea": 7613,
      "Ġpy": 7614,
      "Ġvision": 7615,
      "Ġvessel": 7616,
      "Ġpow": 7617,
      "Ġ61": 7618,
      "uli": 7619,
      "Ġdorsal": 7620,
      "Ġfatigue": 7621,
      "Ġobst": 7622,
      "Ġprognostic": 7623,
      "Ġhapl": 7624,
      "Ġmicroscope": 7625,
      "traction": 7626,
      "Ġsmooth": 7627,
      "Ġss": 7628,
      "atp": 7629,
      "Ġcovered": 7630,
      "114": 7631,
      "Ġblind": 7632,
      "discipl": 7633,
      "Ġconsideration": 7634,
      "estion": 7635,
      "Ġbac": 7636,
      "Ġfragments": 7637,
      "Ġfavor": 7638,
      "113": 7639,
      "hydrogen": 7640,
      "Ġelisa": 7641,
      "Ġevolutionary": 7642,
      "square": 7643,
      "separ": 7644,
      "demonstrated": 7645,
      "obj": 7646,
      "Ġengagement": 7647,
      "Ġfragment": 7648,
      "osed": 7649,
      "ournals": 7650,
      "Ġbecomes": 7651,
      "fect": 7652,
      "Ġcriterion": 7653,
      "Ġhour": 7654,
      "Ġaccom": 7655,
      "medicine": 7656,
      "Ġactually": 7657,
      "Ġinduces": 7658,
      "Ġcapable": 7659,
      "Ġcontinue": 7660,
      "awa": 7661,
      "Ġranges": 7662,
      "Ġspeech": 7663,
      "plasma": 7664,
      "Ġech": 7665,
      "ureus": 7666,
      "illus": 7667,
      "Ġempirical": 7668,
      "Ġconcluded": 7669,
      "contrast": 7670,
      "Ġuter": 7671,
      "Ġretention": 7672,
      "ille": 7673,
      "Ġsperm": 7674,
      "sities": 7675,
      "Ġsuperv": 7676,
      "Ġopin": 7677,
      "Ġnamely": 7678,
      "ĠÃ": 7679,
      "otyping": 7680,
      "180": 7681,
      "responses": 7682,
      "Ġdepressive": 7683,
      "involved": 7684,
      "poor": 7685,
      "kb": 7686,
      "Ġpeaks": 7687,
      "opa": 7688,
      "coma": 7689,
      "Ġinvestigations": 7690,
      "Ġformat": 7691,
      "Ġattend": 7692,
      "icles": 7693,
      "Ġenvironments": 7694,
      "Ġexon": 7695,
      "aped": 7696,
      "Ġber": 7697,
      "ensis": 7698,
      "Ġfrontal": 7699,
      "Ġcontrolling": 7700,
      "Ġchinese": 7701,
      "akers": 7702,
      "Ġindicator": 7703,
      "placement": 7704,
      "increasing": 7705,
      "populations": 7706,
      "frontiersin": 7707,
      "Ġadapted": 7708,
      "Ġrule": 7709,
      "forward": 7710,
      "Ġschools": 7711,
      "Ġreactive": 7712,
      "prin": 7713,
      "Ġsemi": 7714,
      "Ġcerebell": 7715,
      "Ġextracts": 7716,
      "hea": 7717,
      "Ġhighlighted": 7718,
      "uis": 7719,
      "energy": 7720,
      "itations": 7721,
      "qol": 7722,
      "emerg": 7723,
      "opes": 7724,
      "dt": 7725,
      "anine": 7726,
      "cycl": 7727,
      "Ġsuppression": 7728,
      "Ġpolyp": 7729,
      "Ġvaccines": 7730,
      "income": 7731,
      "Ġeti": 7732,
      "super": 7733,
      "Ġdetermining": 7734,
      "Ġprincipal": 7735,
      "people": 7736,
      "Ġbottom": 7737,
      "ystems": 7738,
      "atase": 7739,
      "Ġconï¬ģdence": 7740,
      "Ġradio": 7741,
      "Ġregardless": 7742,
      "Ġaway": 7743,
      "Ġprobes": 7744,
      "âĪĺ": 7745,
      "Ġvein": 7746,
      "Ġgirls": 7747,
      "Ġbehalf": 7748,
      "Ġï¬ģxed": 7749,
      "Ġ250": 7750,
      "160": 7751,
      "Ġhistological": 7752,
      "Ġteaching": 7753,
      "icin": 7754,
      "Ġnurse": 7755,
      "online": 7756,
      "Ġpooled": 7757,
      "yloid": 7758,
      "reduction": 7759,
      "Ġscheme": 7760,
      "americ": 7761,
      "acic": 7762,
      "Ġnecrosis": 7763,
      "Ġpresenting": 7764,
      "Ġmim": 7765,
      "oblast": 7766,
      "parameters": 7767,
      "heumat": 7768,
      "Ġintact": 7769,
      "artile": 7770,
      "Ġdepic": 7771,
      "Ġabsorption": 7772,
      "Ġsimply": 7773,
      "Ġthal": 7774,
      "adr": 7775,
      "Ġinhibited": 7776,
      "astolic": 7777,
      "Ġundergoing": 7778,
      "selected": 7779,
      "Ġsds": 7780,
      "Ġnp": 7781,
      "agre": 7782,
      "Ġlabeled": 7783,
      "Ġï¬ģnd": 7784,
      "Ġcontributions": 7785,
      "Ġconstructed": 7786,
      "vit": 7787,
      "Ġconform": 7788,
      "Ġglob": 7789,
      "Ġdecades": 7790,
      "Ġtables": 7791,
      "oa": 7792,
      "Ġaspect": 7793,
      "rosine": 7794,
      "Ġoa": 7795,
      "Ġmood": 7796,
      "Ġfluor": 7797,
      "lices": 7798,
      "Ġdend": 7799,
      "cox": 7800,
      "Ġconsisting": 7801,
      "Ġcomparative": 7802,
      "article": 7803,
      "wid": 7804,
      "cious": 7805,
      "Ġscaff": 7806,
      "Ġcad": 7807,
      "Ġmell": 7808,
      "Ġreturn": 7809,
      "Ġtrop": 7810,
      "Ġvertical": 7811,
      "liver": 7812,
      "Ġclon": 7813,
      "119": 7814,
      "Ġgli": 7815,
      "Ġcome": 7816,
      "Ġidentiï¬ģcation": 7817,
      "Ġrein": 7818,
      "Ġemerging": 7819,
      "consum": 7820,
      "2002": 7821,
      "decreased": 7822,
      "pended": 7823,
      "Ġcsf": 7824,
      "Ġconcerning": 7825,
      "Ġsustain": 7826,
      "Ġroad": 7827,
      "Ġaid": 7828,
      "liter": 7829,
      "Ġvideo": 7830,
      "phone": 7831,
      "Ġcombinations": 7832,
      "adily": 7833,
      "Ġtransient": 7834,
      "uctive": 7835,
      "Ġmmhg": 7836,
      "Ġincreasingly": 7837,
      "118": 7838,
      "Ġvital": 7839,
      "veness": 7840,
      "âĭħ": 7841,
      "igm": 7842,
      "rozen": 7843,
      "Ġpancreatic": 7844,
      "profession": 7845,
      "1155": 7846,
      "burg": 7847,
      "nk": 7848,
      "blue": 7849,
      "Ġprinciples": 7850,
      "rele": 7851,
      "encephal": 7852,
      "limited": 7853,
      "Ġanalyze": 7854,
      "aldrich": 7855,
      "Ġfix": 7856,
      "alcohol": 7857,
      "itoneal": 7858,
      "pathy": 7859,
      "Ġuntreated": 7860,
      "phosphate": 7861,
      "earson": 7862,
      "Ġmom": 7863,
      "Ġju": 7864,
      "2001": 7865,
      "Ġsegments": 7866,
      "nate": 7867,
      "weighted": 7868,
      "Ġresidents": 7869,
      "Ġbodies": 7870,
      "Ġpreferred": 7871,
      "iqr": 7872,
      "emo": 7873,
      "Ġnegatively": 7874,
      "adequate": 7875,
      "Ġsearc": 7876,
      "osal": 7877,
      "Ġldl": 7878,
      "amental": 7879,
      "Ġmedial": 7880,
      "Ġdeficiency": 7881,
      "Ġpossess": 7882,
      "ðĿĳĽ": 7883,
      "ians": 7884,
      "Ġattack": 7885,
      "Ġchanging": 7886,
      "015": 7887,
      "icy": 7888,
      "Ġdisc": 7889,
      "Ġ1993": 7890,
      "Ġlif": 7891,
      "Ġnewly": 7892,
      "Ġmann": 7893,
      "Ġfigures": 7894,
      "interaction": 7895,
      "biological": 7896,
      "nea": 7897,
      "Ġscored": 7898,
      "tilis": 7899,
      "comit": 7900,
      "lipid": 7901,
      "qi": 7902,
      "Ġconversion": 7903,
      "Ġmovements": 7904,
      "sti": 7905,
      "Ġdepos": 7906,
      "recor": 7907,
      "Ġlifestyle": 7908,
      "Ġtransform": 7909,
      "Ġcopd": 7910,
      "Ġkr": 7911,
      "itrate": 7912,
      "systems": 7913,
      "Ġum": 7914,
      "ucid": 7915,
      "success": 7916,
      "uits": 7917,
      "six": 7918,
      "Ġperforming": 7919,
      "Ġimplicated": 7920,
      "Ġequation": 7921,
      "pharmac": 7922,
      "Ġautomatic": 7923,
      "Ġoccas": 7924,
      "Ġmodern": 7925,
      "lysis": 7926,
      "achie": 7927,
      "Ġconsistently": 7928,
      "Ġdie": 7929,
      "assessed": 7930,
      "duration": 7931,
      "against": 7932,
      "dc": 7933,
      "Ġapply": 7934,
      "spe": 7935,
      "Ġadd": 7936,
      "Ġforest": 7937,
      "plc": 7938,
      "Ġeffectively": 7939,
      "Ġmonitored": 7940,
      "Ġoverview": 7941,
      "Ġever": 7942,
      "ilibri": 7943,
      "Ġtransformation": 7944,
      "Ġevaluating": 7945,
      "rew": 7946,
      "121": 7947,
      "rex": 7948,
      "Ġutility": 7949,
      "Ġshock": 7950,
      "breviations": 7951,
      "percentage": 7952,
      "anta": 7953,
      "band": 7954,
      "Ġrelax": 7955,
      "deg": 7956,
      "Ġthemes": 7957,
      "Ġextremely": 7958,
      "Ġsupports": 7959,
      "Ġinfusion": 7960,
      "yt": 7961,
      "ira": 7962,
      "Ġcalculation": 7963,
      "Ġantimicrobial": 7964,
      "fast": 7965,
      "Ġmineral": 7966,
      "Ġclustering": 7967,
      "naire": 7968,
      "necess": 7969,
      "Ġindices": 7970,
      "Ġcirculating": 7971,
      "Ġappearance": 7972,
      "122": 7973,
      "ux": 7974,
      "Ġcommunic": 7975,
      "Ġpara": 7976,
      "tween": 7977,
      "regular": 7978,
      "Ġvill": 7979,
      "recogn": 7980,
      "sies": 7981,
      "ette": 7982,
      "young": 7983,
      "Ġheld": 7984,
      "soft": 7985,
      "ĠÃ¾": 7986,
      "Ġbond": 7987,
      "anda": 7988,
      "pes": 7989,
      "transferase": 7990,
      "fund": 7991,
      "Ġaa": 7992,
      "Ġpoorly": 7993,
      "provided": 7994,
      "Ġeast": 7995,
      "Ġcalculate": 7996,
      "Ġ94": 7997,
      "ynthesis": 7998,
      "Ġviews": 7999,
      "resistance": 8000,
      "dynam": 8001,
      "Ġinstruments": 8002,
      "Ġmobile": 8003,
      "finally": 8004,
      "Ġinoc": 8005,
      "âĦ": 8006,
      "stable": 8007,
      "Ġarab": 8008,
      "actic": 8009,
      "olytic": 8010,
      "ocom": 8011,
      "ocytosis": 8012,
      "Ġprovision": 8013,
      "Ġconcepts": 8014,
      "often": 8015,
      "Ġselect": 8016,
      "instr": 8017,
      "Ġhc": 8018,
      "global": 8019,
      "Ġassumption": 8020,
      "Ġvolumes": 8021,
      "fil": 8022,
      "Ġremove": 8023,
      "gence": 8024,
      "Ġly": 8025,
      "Ġaddic": 8026,
      "visual": 8027,
      "Ġsimultaneously": 8028,
      "Ġhal": 8029,
      "selec": 8030,
      "Ġkda": 8031,
      "chymal": 8032,
      "chall": 8033,
      "Ġchamber": 8034,
      "pted": 8035,
      "Ġker": 8036,
      "ief": 8037,
      "-,": 8038,
      "ora": 8039,
      "Ġepidemiology": 8040,
      "Ġscientiï¬ģc": 8041,
      "Ġtomography": 8042,
      "home": 8043,
      "Ġkb": 8044,
      "Ġalgorithms": 8045,
      "cag": 8046,
      "lung": 8047,
      "Ġvectors": 8048,
      "Ġinitiated": 8049,
      "Ġatm": 8050,
      "cient": 8051,
      "birth": 8052,
      "Ġhall": 8053,
      "Ġln": 8054,
      "modeling": 8055,
      "ophage": 8056,
      "laboratory": 8057,
      "Ġastro": 8058,
      "Ġreconstruction": 8059,
      "olds": 8060,
      "Ġtro": 8061,
      "Ġtuberculosis": 8062,
      "greater": 8063,
      "onists": 8064,
      "csf": 8065,
      "might": 8066,
      "lot": 8067,
      "Ġ106": 8068,
      "Ġworldwide": 8069,
      "Ġhg": 8070,
      "Ġanalytical": 8071,
      "Ġepigene": 8072,
      "ĠÂµg": 8073,
      "Ġnad": 8074,
      "127": 8075,
      "omers": 8076,
      "osing": 8077,
      "invasive": 8078,
      "Ġmuscles": 8079,
      "Ġstake": 8080,
      "Ġborn": 8081,
      "Ġinï¬Ĥammation": 8082,
      "osine": 8083,
      "person": 8084,
      "bling": 8085,
      "Ġcaro": 8086,
      "Ġpublications": 8087,
      "Ġtraject": 8088,
      "Ġsignifi": 8089,
      "authors": 8090,
      "Ġcn": 8091,
      "129": 8092,
      "bra": 8093,
      "âĹ¦": 8094,
      "bach": 8095,
      "Ġreward": 8096,
      "hex": 8097,
      "thro": 8098,
      "Ġwithdraw": 8099,
      "Ġsustained": 8100,
      "Ġischemic": 8101,
      "Ġfur": 8102,
      "Ġsynaptic": 8103,
      "hydroxy": 8104,
      "Ġoperating": 8105,
      "Ġparticipating": 8106,
      "Ġdiluted": 8107,
      "Ġ(>": 8108,
      "Ġtib": 8109,
      "Ġputative": 8110,
      "Ġvar": 8111,
      "Ġrequiring": 8112,
      "uge": 8113,
      "Ġpred": 8114,
      "Ġhierarch": 8115,
      "Ġvenous": 8116,
      "db": 8117,
      "phe": 8118,
      "onym": 8119,
      "Ġkingdom": 8120,
      "gel": 8121,
      "Ġguidance": 8122,
      "guid": 8123,
      "Ġindustry": 8124,
      "Ġbritish": 8125,
      "osterone": 8126,
      "Ġviolence": 8127,
      "vin": 8128,
      "Ġscenarios": 8129,
      "Ġigf": 8130,
      "istence": 8131,
      "Ġdriven": 8132,
      "Ġnarrow": 8133,
      "existing": 8134,
      "Ġconsistency": 8135,
      "bidities": 8136,
      "athe": 8137,
      "thing": 8138,
      "culture": 8139,
      "Ġgm": 8140,
      "proportion": 8141,
      "124": 8142,
      "oder": 8143,
      "Ġtun": 8144,
      "Ġmp": 8145,
      "teen": 8146,
      "Ġsubstrates": 8147,
      "Ġfocal": 8148,
      "Ġagree": 8149,
      "tog": 8150,
      "Ġregimen": 8151,
      "Ġtakes": 8152,
      "Ġconsecutive": 8153,
      "tients": 8154,
      "Ġdc": 8155,
      "amus": 8156,
      "incub": 8157,
      "Ġsaid": 8158,
      "Ġpreference": 8159,
      "kr": 8160,
      "Ġsurfaces": 8161,
      "Ġdependence": 8162,
      "wall": 8163,
      "aki": 8164,
      "Ġalbumin": 8165,
      "Ġchallenging": 8166,
      "Ġheavy": 8167,
      "far": 8168,
      "ĠðĿľĩ": 8169,
      "Ġrac": 8170,
      "Ġstronger": 8171,
      "emb": 8172,
      "Ġbelieve": 8173,
      "Ġscreened": 8174,
      "Ġouter": 8175,
      "Ġmitochondria": 8176,
      "odynamic": 8177,
      "oclonal": 8178,
      "oblas": 8179,
      "Ġcust": 8180,
      "Ġscans": 8181,
      "ocyt": 8182,
      "Ġcorrected": 8183,
      "Ġcharacterization": 8184,
      "Ġnull": 8185,
      "Ġclosed": 8186,
      "amate": 8187,
      "adic": 8188,
      "Ġhistor": 8189,
      "ufficient": 8190,
      "Ġtemperatures": 8191,
      "Ġren": 8192,
      "Ġwalking": 8193,
      "required": 8194,
      "âĸ": 8195,
      "resolution": 8196,
      "Ġimmediate": 8197,
      "Ġbronch": 8198,
      "Ġobjectives": 8199,
      "ilibrium": 8200,
      "Ġtip": 8201,
      "Ġepisodes": 8202,
      "Ġrep": 8203,
      "centi": 8204,
      "Ġts": 8205,
      "Ġphenomenon": 8206,
      "pred": 8207,
      "processing": 8208,
      "Ġadopted": 8209,
      "Ġny": 8210,
      "Ġgon": 8211,
      "Ġsubjective": 8212,
      "survival": 8213,
      "Ġrp": 8214,
      "Ġnormally": 8215,
      "iae": 8216,
      "depression": 8217,
      "Ġanswer": 8218,
      "Ġethnic": 8219,
      "Ġbus": 8220,
      "Ġpup": 8221,
      "Ġdrive": 8222,
      "Ġformer": 8223,
      "Ġverbal": 8224,
      "Ġsquare": 8225,
      "Ġlacking": 8226,
      "prolif": 8227,
      "late": 8228,
      "pressure": 8229,
      "Ġsampled": 8230,
      "Ġparasite": 8231,
      "coding": 8232,
      "nab": 8233,
      "Ġoffered": 8234,
      "Ġportion": 8235,
      "seg": 8236,
      "mortality": 8237,
      "Ġfractures": 8238,
      "onas": 8239,
      "mentioned": 8240,
      "oxygen": 8241,
      "gluc": 8242,
      "ï¬ģned": 8243,
      "Ġdf": 8244,
      "alli": 8245,
      "Ġgraft": 8246,
      "Ġpredictions": 8247,
      "Ġtc": 8248,
      "Ġsweden": 8249,
      "Ġsupplemented": 8250,
      "Ġemission": 8251,
      "Ġaids": 8252,
      "Ġphylogenetic": 8253,
      "asian": 8254,
      "Ġbip": 8255,
      "Ġraised": 8256,
      "ogr": 8257,
      "Ġdescriptive": 8258,
      "Ġtrim": 8259,
      "above": 8260,
      "heart": 8261,
      "Ġexpert": 8262,
      "institute": 8263,
      "Ġbc": 8264,
      "Ġscoring": 8265,
      "insulin": 8266,
      "itting": 8267,
      "Ġ69": 8268,
      "special": 8269,
      "reveal": 8270,
      "Ġdl": 8271,
      "Ġchromatin": 8272,
      "Ġhair": 8273,
      "Ġexception": 8274,
      "Ġtherm": 8275,
      "Ġinsight": 8276,
      "Ġoph": 8277,
      "Ġ98": 8278,
      "Ġirr": 8279,
      "Ġoxidation": 8280,
      "Ġteac": 8281,
      "therapeutic": 8282,
      "âĦ¢": 8283,
      "010": 8284,
      "Ġcrystal": 8285,
      "Ġaureus": 8286,
      "chemo": 8287,
      "Ġefï¬ģcacy": 8288,
      "Ġadhd": 8289,
      "132": 8290,
      "ought": 8291,
      "Ġtlr": 8292,
      "third": 8293,
      "practice": 8294,
      "western": 8295,
      "Ġpros": 8296,
      "whereas": 8297,
      "Ġnutritional": 8298,
      "undred": 8299,
      "+)": 8300,
      "Ġgland": 8301,
      "Ġcodes": 8302,
      "Îºb": 8303,
      "135": 8304,
      "Ġrevers": 8305,
      "chi": 8306,
      "mother": 8307,
      "Ġpsychology": 8308,
      "Ġcharge": 8309,
      "established": 8310,
      "Ġtryp": 8311,
      "Ġspss": 8312,
      "Ġphd": 8313,
      "ecal": 8314,
      "plies": 8315,
      "Ġtreating": 8316,
      "fraction": 8317,
      "oline": 8318,
      "psis": 8319,
      "Ġtumours": 8320,
      "Ġphysiology": 8321,
      "remo": 8322,
      "Ġadding": 8323,
      "changed": 8324,
      "learning": 8325,
      "Ġclearance": 8326,
      "Ġinï¬Ĥammatory": 8327,
      "Ġdepri": 8328,
      "Ġsaliv": 8329,
      "made": 8330,
      "aled": 8331,
      "Ġunlikely": 8332,
      "Ġpreced": 8333,
      "Ġbrown": 8334,
      "iaz": 8335,
      "145": 8336,
      "vents": 8337,
      "Ġdied": 8338,
      "1007": 8339,
      "bohydr": 8340,
      "Ġfibr": 8341,
      "Ġscanning": 8342,
      "Ġdrawn": 8343,
      "ographical": 8344,
      "Ġsimpl": 8345,
      "provide": 8346,
      "Ġwhilst": 8347,
      "scan": 8348,
      "ja": 8349,
      "texts": 8350,
      "pyr": 8351,
      "Ġrules": 8352,
      "Ġlipids": 8353,
      "Ġapplying": 8354,
      "Ġrice": 8355,
      "aca": 8356,
      "igly": 8357,
      "Ġmanage": 8358,
      "concentrations": 8359,
      "rhage": 8360,
      "Ġimplant": 8361,
      "Ġbeliefs": 8362,
      "ophysi": 8363,
      "155": 8364,
      "bul": 8365,
      "lys": 8366,
      "Ġconnectivity": 8367,
      "Ġadvantages": 8368,
      "Ġstream": 8369,
      "Ġpredominantly": 8370,
      ")*": 8371,
      "Ġresidue": 8372,
      "Ġsac": 8373,
      "Ġnt": 8374,
      "Ġcomprised": 8375,
      "rab": 8376,
      "platin": 8377,
      "maximum": 8378,
      "orth": 8379,
      "Ġexperts": 8380,
      "Ġintegrity": 8381,
      "antibodies": 8382,
      "iling": 8383,
      "Ġmono": 8384,
      "Ġligands": 8385,
      "sat": 8386,
      "Ġï¬ģg": 8387,
      "Ġtrees": 8388,
      "ji": 8389,
      "Ġsay": 8390,
      "need": 8391,
      "prote": 8392,
      "onucle": 8393,
      "Ġham": 8394,
      "protocol": 8395,
      "meth": 8396,
      "Ġdifï¬ģcult": 8397,
      "Ġpromin": 8398,
      "Ġspp": 8399,
      "Ġll": 8400,
      "Ëļ": 8401,
      "Ġtransgenic": 8402,
      "Ġcues": 8403,
      "idi": 8404,
      "Ġbiomarker": 8405,
      "Ġcoc": 8406,
      "Ġfc": 8407,
      "Ġrestriction": 8408,
      "Ġrights": 8409,
      "Ġremark": 8410,
      "ratio": 8411,
      "Ġmacro": 8412,
      "Ġhormon": 8413,
      "Ġsubgroup": 8414,
      "ola": 8415,
      "Ġwant": 8416,
      "Ġacts": 8417,
      "termin": 8418,
      "pth": 8419,
      "Ġtopic": 8420,
      "Ġmicrobiology": 8421,
      "center": 8422,
      "Ġblast": 8423,
      "zhe": 8424,
      "acin": 8425,
      "calculated": 8426,
      "Ġapplicable": 8427,
      "Ġsinus": 8428,
      "influ": 8429,
      "inï¬Ĥammatory": 8430,
      "various": 8431,
      "oney": 8432,
      "Ġdro": 8433,
      "oming": 8434,
      "Ġpolymerase": 8435,
      "Ġintravenous": 8436,
      "Ġanatomical": 8437,
      "consistent": 8438,
      "gov": 8439,
      "tnf": 8440,
      "Ġdecreasing": 8441,
      "queous": 8442,
      "Ġphenotypic": 8443,
      "Ġenriched": 8444,
      "Ġtransplant": 8445,
      "sian": 8446,
      "Ġspent": 8447,
      "Ġyouth": 8448,
      "whit": 8449,
      "Ġram": 8450,
      "osup": 8451,
      "uncil": 8452,
      "Ġideal": 8453,
      "131": 8454,
      "metry": 8455,
      "jected": 8456,
      "Ġlam": 8457,
      "Ġsurprising": 8458,
      "descri": 8459,
      "Ġdim": 8460,
      "Ġtemplate": 8461,
      "Ġsector": 8462,
      "experiments": 8463,
      "sens": 8464,
      "Ġcompliance": 8465,
      "Ġbuild": 8466,
      "Ġeeg": 8467,
      "ails": 8468,
      "Ġproï¬ģle": 8469,
      "Ġtm": 8470,
      "Ġauc": 8471,
      "herence": 8472,
      "Ġhypothesized": 8473,
      "api": 8474,
      "hf": 8475,
      "ifornia": 8476,
      "wal": 8477,
      "rane": 8478,
      "Ġengland": 8479,
      "regions": 8480,
      "Ġsuspected": 8481,
      "osocial": 8482,
      "Ġsoluble": 8483,
      "Ġmaximal": 8484,
      "Ġfibrosis": 8485,
      "Ġcoupled": 8486,
      "cere": 8487,
      "Ġfractions": 8488,
      "Ġbehavioural": 8489,
      "ÃŃ": 8490,
      "war": 8491,
      "cemia": 8492,
      "Ġairway": 8493,
      "Ġwoman": 8494,
      "Ġfields": 8495,
      "Ġcatheter": 8496,
      "Ġ71": 8497,
      "idespread": 8498,
      "ĊĠĊĠĊĠĊĠĊĠĊĠĊĠĊĠĊĠĊĠĊĠĊĠĊĠĊĠĊĠĊĠ": 8499,
      "exposed": 8500,
      "Ġmammalian": 8501,
      "Ġregistered": 8502,
      "Ġ105": 8503,
      "Ġbladder": 8504,
      "009": 8505,
      "mechanisms": 8506,
      "Ġargu": 8507,
      "subsequ": 8508,
      "Ġneoplas": 8509,
      "Ġratings": 8510,
      "Ġ01": 8511,
      "sensitive": 8512,
      "bic": 8513,
      "Ġexists": 8514,
      "ptomatic": 8515,
      "Ġuniform": 8516,
      "disciplinary": 8517,
      "Ġstock": 8518,
      "recently": 8519,
      "star": 8520,
      "idae": 8521,
      "oinform": 8522,
      "animals": 8523,
      "Ġinfil": 8524,
      "Ġ1992": 8525,
      "Ġcumulative": 8526,
      "Ġfox": 8527,
      "acerb": 8528,
      "phot": 8529,
      "usions": 8530,
      "Ġhypoxia": 8531,
      "electro": 8532,
      "Ġnotably": 8533,
      "Ġinsights": 8534,
      "Ġteeth": 8535,
      "Ġsea": 8536,
      "Ġmanag": 8537,
      "Ġstimulated": 8538,
      "surgical": 8539,
      "Ġclinics": 8540,
      "Ġdistrict": 8541,
      "Ġoverexpression": 8542,
      "lit": 8543,
      "Ġvox": 8544,
      "Ġhouseholds": 8545,
      "opor": 8546,
      "ru": 8547,
      "Ġsought": 8548,
      "Ġbands": 8549,
      "Ġcortic": 8550,
      "Ġpotent": 8551,
      "trials": 8552,
      "mix": 8553,
      "idge": 8554,
      "Ġwnt": 8555,
      "Ġsun": 8556,
      "together": 8557,
      "hp": 8558,
      "Ġsystolic": 8559,
      "Ġbes": 8560,
      "Ġattachment": 8561,
      "Ġproce": 8562,
      "Ġpartici": 8563,
      "Ġprelim": 8564,
      "vae": 8565,
      "Ġarchitect": 8566,
      "amatic": 8567,
      "mn": 8568,
      "hn": 8569,
      "Ġclassiï¬ģcation": 8570,
      "isa": 8571,
      "Ġconceptual": 8572,
      "Ġmodelling": 8573,
      "âĪĴ/âĪĴ": 8574,
      "presented": 8575,
      "Ġpurchased": 8576,
      "vested": 8577,
      "Ġsuspen": 8578,
      "Ġmellitus": 8579,
      "Ġcartilage": 8580,
      "Ġendometri": 8581,
      "aids": 8582,
      "vas": 8583,
      "unknown": 8584,
      "Ġpharmaceutical": 8585,
      "Ġprecise": 8586,
      "ophageal": 8587,
      "genital": 8588,
      "Ġleaders": 8589,
      "aga": 8590,
      "matched": 8591,
      "fall": 8592,
      "five": 8593,
      "iasis": 8594,
      "interview": 8595,
      "setting": 8596,
      "ophila": 8597,
      "Ġoscill": 8598,
      "Ġembryonic": 8599,
      "Ġmargin": 8600,
      "block": 8601,
      "Ġfollic": 8602,
      "epithel": 8603,
      "Ġwidth": 8604,
      "Ġmetastases": 8605,
      "Ġport": 8606,
      "Ġdepletion": 8607,
      "Ġbowel": 8608,
      "ona": 8609,
      "fu": 8610,
      "wave": 8611,
      "Ġvalve": 8612,
      "tructure": 8613,
      "Ġsud": 8614,
      "Ġ77": 8615,
      "Ġimmuno": 8616,
      "Ġmelanoma": 8617,
      "Ġapproxim": 8618,
      "Ġshel": 8619,
      "Ġimmunohist": 8620,
      "Ġ\\": 8621,
      "Ġresus": 8622,
      "Ġmorphological": 8623,
      "urated": 8624,
      "Ġdemonstrating": 8625,
      "Ġord": 8626,
      "Ġexcellent": 8627,
      "rat": 8628,
      "ben": 8629,
      "Ġbovine": 8630,
      "Ġantioxidant": 8631,
      "Ġ76": 8632,
      "Ġcred": 8633,
      "phosphory": 8634,
      "initial": 8635,
      "Ġgray": 8636,
      "holders": 8637,
      "Ġdefect": 8638,
      "Ġdex": 8639,
      "Ġ78": 8640,
      "Ġinfarction": 8641,
      "Ġsufï¬ģcient": 8642,
      "Ġ73": 8643,
      "Ġdas": 8644,
      "Ġenrichment": 8645,
      "Ġsole": 8646,
      "upper": 8647,
      "onset": 8648,
      "Ġdiscontinu": 8649,
      "intra": 8650,
      "134": 8651,
      "plasia": 8652,
      "Ġdoctor": 8653,
      "Ġinsertion": 8654,
      "ops": 8655,
      "ģĦ": 8656,
      "Ġinfluenced": 8657,
      "Ġrelapse": 8658,
      "Ġdeposition": 8659,
      "Ġprinciple": 8660,
      "vors": 8661,
      "Ġsul": 8662,
      "Ġshar": 8663,
      "Ġcvd": 8664,
      "Ġtag": 8665,
      "status": 8666,
      "Ġsmokers": 8667,
      "bacterial": 8668,
      "demographic": 8669,
      "Ġconï¬ģrm": 8670,
      "Ġcompl": 8671,
      "Ġprescri": 8672,
      "Ġ74": 8673,
      "Ġautism": 8674,
      "osity": 8675,
      "Ġregeneration": 8676,
      "Ġhdl": 8677,
      "Ġbiomass": 8678,
      "137": 8679,
      "engths": 8680,
      "Ġprojects": 8681,
      "Ġoutbreak": 8682,
      "Ġ)": 8683,
      "Ġrelig": 8684,
      "ny": 8685,
      "ancer": 8686,
      "Ġformula": 8687,
      "Ġae": 8688,
      "icients": 8689,
      "hb": 8690,
      "146": 8691,
      "ais": 8692,
      "organisms": 8693,
      "Ġmatch": 8694,
      "testing": 8695,
      "aka": 8696,
      "Ġworse": 8697,
      "Ġwashing": 8698,
      "plan": 8699,
      "called": 8700,
      "criteria": 8701,
      "Ġnight": 8702,
      "Ġsubstantially": 8703,
      "generative": 8704,
      "Ġintended": 8705,
      "uctu": 8706,
      "Ġcomposite": 8707,
      "ski": 8708,
      "Ġdiagnoses": 8709,
      "Ġopportunities": 8710,
      "mcs": 8711,
      ".:": 8712,
      "Ġsigma": 8713,
      "regarding": 8714,
      "Ġsirna": 8715,
      "izumab": 8716,
      "Ġgerm": 8717,
      "Ġhemor": 8718,
      "yal": 8719,
      "Ġeg": 8720,
      "screening": 8721,
      "Ġopposite": 8722,
      "Ġadmitted": 8723,
      "Ġfab": 8724,
      "operation": 8725,
      "Ġplane": 8726,
      "Ġhypoth": 8727,
      "Ġradiotherapy": 8728,
      "ction": 8729,
      "ewhat": 8730,
      ")]": 8731,
      "unced": 8732,
      "factory": 8733,
      "Ġ\"": 8734,
      "kle": 8735,
      "Ġdut": 8736,
      "Ġnacl": 8737,
      "Ġrv": 8738,
      "iral": 8739,
      "Ġweekly": 8740,
      "Ġbeneï¬ģt": 8741,
      "Ġoccupational": 8742,
      "450": 8743,
      "ĠĠĊĠ": 8744,
      "spectively": 8745,
      "Ġacceptable": 8746,
      "ventive": 8747,
      "Ġcompletion": 8748,
      "muscle": 8749,
      "Ġmmp": 8750,
      "Ġischemia": 8751,
      "ographics": 8752,
      "Ġgastrointestinal": 8753,
      "contrib": 8754,
      "Ġdoctors": 8755,
      "Ġelucid": 8756,
      "ascul": 8757,
      "Ġoxide": 8758,
      "Ġrarely": 8759,
      "them": 8760,
      "Ġintrinsic": 8761,
      "https": 8762,
      "lat": 8763,
      "Ġantigens": 8764,
      "Ġperfusion": 8765,
      "Ġneighbor": 8766,
      "Ġophthal": 8767,
      "Ġrational": 8768,
      "Ġstra": 8769,
      "Ġemerged": 8770,
      "Ġcigare": 8771,
      "Ġlymphocytes": 8772,
      "Ġvaluable": 8773,
      "chr": 8774,
      "Ġfundamental": 8775,
      "Ġauditory": 8776,
      "Ġlymphoma": 8777,
      "administration": 8778,
      "Ġbiol": 8779,
      "Ġptsd": 8780,
      "Ġyork": 8781,
      "orient": 8782,
      "âĢ¡": 8783,
      "otides": 8784,
      "Ġbis": 8785,
      "Ġfaster": 8786,
      "Ġbehaviours": 8787,
      "Ġcytometry": 8788,
      "Ġhb": 8789,
      "Ġtris": 8790,
      "Ġweights": 8791,
      "Ġenhancement": 8792,
      "Ġtravel": 8793,
      "Ġbeneficial": 8794,
      "Ġ84": 8795,
      "Ġicu": 8796,
      "Ġautomated": 8797,
      "Ġspan": 8798,
      "Ġagreed": 8799,
      "altern": 8800,
      "139": 8801,
      "Ġdilution": 8802,
      "oli": 8803,
      "Ġrhyth": 8804,
      "iglycer": 8805,
      "Ġmu": 8806,
      "procedure": 8807,
      "bia": 8808,
      "effectiveness": 8809,
      "siveness": 8810,
      "Ġundertaken": 8811,
      "Ġhomeostasis": 8812,
      "Ġmotif": 8813,
      "rates": 8814,
      "Ġnecessarily": 8815,
      "Ġcrystall": 8816,
      "Ġstrom": 8817,
      "diet": 8818,
      "Ġdb": 8819,
      "Ġrefers": 8820,
      "weeks": 8821,
      "Ġnutrient": 8822,
      "hort": 8823,
      "ocarcinoma": 8824,
      "Ġedge": 8825,
      "hm": 8826,
      "Ġ97": 8827,
      "Ġatheros": 8828,
      "cast": 8829,
      "Ġdegrees": 8830,
      "Ġveterinary": 8831,
      "Ġpathogenic": 8832,
      "antibody": 8833,
      "Ġuro": 8834,
      "steine": 8835,
      "Ġcavity": 8836,
      "Ġmaintaining": 8837,
      "combination": 8838,
      "Ġpenetr": 8839,
      "sampl": 8840,
      "Ġhbv": 8841,
      "estimated": 8842,
      "ferent": 8843,
      "defic": 8844,
      "environmental": 8845,
      "anova": 8846,
      "unately": 8847,
      "tte": 8848,
      "Ġcaspase": 8849,
      "include": 8850,
      "urses": 8851,
      "iliary": 8852,
      "Ġfinancial": 8853,
      "Ġfruit": 8854,
      "Ġlook": 8855,
      "thres": 8856,
      "moreover": 8857,
      "Ġfasting": 8858,
      "onomy": 8859,
      "Ġprevalent": 8860,
      "Ġelsewhere": 8861,
      "trosc": 8862,
      "tisol": 8863,
      "Ġdoub": 8864,
      "Ġdifficulties": 8865,
      "Ġect": 8866,
      "Ġautophagy": 8867,
      "Ġoffs": 8868,
      "Ġinterpreted": 8869,
      "anz": 8870,
      "ony": 8871,
      "py": 8872,
      "Ġdiscrimination": 8873,
      "physiological": 8874,
      "Ġyellow": 8875,
      "Ġcough": 8876,
      "Ġextreme": 8877,
      "138": 8878,
      "oxin": 8879,
      "Ġultimately": 8880,
      "Ġcolorectal": 8881,
      "animal": 8882,
      "Ġfourth": 8883,
      "icillin": 8884,
      "Ġinstitutions": 8885,
      "Ġclassical": 8886,
      ".;": 8887,
      "Ġobserve": 8888,
      "Ġlib": 8889,
      "136": 8890,
      "--------": 8891,
      "Ġexamining": 8892,
      "Ġpharmacy": 8893,
      "Ġdemonstrates": 8894,
      "zheimer": 8895,
      "pus": 8896,
      "Ġopi": 8897,
      "peptide": 8898,
      "diss": 8899,
      "agulation": 8900,
      "findings": 8901,
      "ophys": 8902,
      "Ġyielded": 8903,
      "Ġgiving": 8904,
      "Ġvolunteers": 8905,
      "lack": 8906,
      "Ġ1991": 8907,
      "Ġrace": 8908,
      "Ġdirected": 8909,
      "Ġnanoparticles": 8910,
      "ster": 8911,
      "Ġmea": 8912,
      "Ġcris": 8913,
      "Ġmobility": 8914,
      "itol": 8915,
      "Ġcovariates": 8916,
      "cad": 8917,
      "estive": 8918,
      "Ġfungal": 8919,
      "Ġinterfer": 8920,
      "plicate": 8921,
      "Ġadministr": 8922,
      "Ġeu": 8923,
      "understanding": 8924,
      "Ġfair": 8925,
      "driven": 8926,
      "conducted": 8927,
      "biomedcentral": 8928,
      "Ġfas": 8929,
      "Ġhoc": 8930,
      "okine": 8931,
      "aphyl": 8932,
      "ritic": 8933,
      "Ġbelieved": 8934,
      "Ġstructured": 8935,
      "Ġhorizontal": 8936,
      "Ġrc": 8937,
      "Ġmodiï¬ģed": 8938,
      "Ġprescribed": 8939,
      "Ġsusceptible": 8940,
      "Ġparticipated": 8941,
      "whole": 8942,
      "rank": 8943,
      "subject": 8944,
      "smoking": 8945,
      "Ġut": 8946,
      "Ġdiarr": 8947,
      "Ġdiffered": 8948,
      "Ġforces": 8949,
      "Ġvoltage": 8950,
      "detected": 8951,
      "quantitative": 8952,
      "Ġtransfected": 8953,
      "Ġpromoting": 8954,
      "Ġinhibits": 8955,
      "mu": 8956,
      "tium": 8957,
      "Ġpigs": 8958,
      "ilities": 8959,
      "agged": 8960,
      "Ġtubes": 8961,
      "whitney": 8962,
      "Ġcns": 8963,
      "parent": 8964,
      "quin": 8965,
      "âľ": 8966,
      "Ġasia": 8967,
      "Ġpolitical": 8968,
      "Ġsubtypes": 8969,
      "Ġgives": 8970,
      "quito": 8971,
      "currently": 8972,
      "Ġasian": 8973,
      "Ġpromotes": 8974,
      "Ġadolescent": 8975,
      "Ġpreliminary": 8976,
      "cup": 8977,
      "tel": 8978,
      "trover": 8979,
      "bilities": 8980,
      "porary": 8981,
      "streng": 8982,
      "intensity": 8983,
      "Ġconstructs": 8984,
      "Ġdevel": 8985,
      "vity": 8986,
      "Ġelectrode": 8987,
      "oon": 8988,
      "detection": 8989,
      "Ġdiagram": 8990,
      "Ġhazard": 8991,
      "Ġlg": 8992,
      "diseases": 8993,
      "Ġadipose": 8994,
      "icular": 8995,
      "erge": 8996,
      "Ġwang": 8997,
      "Ġproven": 8998,
      "Ġinferior": 8999,
      "clusively": 9000,
      "Ġequipment": 9001,
      "Ġunless": 9002,
      "ĠâĨ": 9003,
      "Ġeosin": 9004,
      "Ã³": 9005,
      "image": 9006,
      "Ġspectral": 9007,
      "cct": 9008,
      "tations": 9009,
      "Ġdetectable": 9010,
      ".).": 9011,
      "acknow": 9012,
      "monitor": 9013,
      "assium": 9014,
      "Ġspar": 9015,
      "::": 9016,
      "Ġscope": 9017,
      "yrus": 9018,
      "Ġoffspring": 9019,
      "history": 9020,
      "oidal": 9021,
      "Ġcontributing": 9022,
      "Ġpicture": 9023,
      "Ġken": 9024,
      "Ġfemoral": 9025,
      "Ġarms": 9026,
      "Ġcreatinine": 9027,
      "Ġreferral": 9028,
      "Ġexistence": 9029,
      "benz": 9030,
      "Ġsib": 9031,
      "Ġactivate": 9032,
      "labeled": 9033,
      "Ġmachine": 9034,
      "Ġstere": 9035,
      "uf": 9036,
      "Ġrotation": 9037,
      "grap": 9038,
      "Ġ79": 9039,
      "Ġreï¬Ĥect": 9040,
      "caten": 9041,
      "enty": 9042,
      "Ġoxford": 9043,
      "usting": 9044,
      "Ġdeviations": 9045,
      "Ġproducing": 9046,
      "oscopic": 9047,
      "Ġillustrated": 9048,
      "Ġcrop": 9049,
      "lings": 9050,
      "Ġmurine": 9051,
      "Ġbiof": 9052,
      "Ġdefine": 9053,
      "mitochondri": 9054,
      "oo": 9055,
      "Ġaï¬Ģ": 9056,
      "Ġassist": 9057,
      "followed": 9058,
      "Ġsand": 9059,
      "comitant": 9060,
      "ience": 9061,
      "Ġexpres": 9062,
      "fed": 9063,
      "uck": 9064,
      "Ġhundred": 9065,
      "Ġdescribes": 9066,
      "Ġlegal": 9067,
      "Ġembryo": 9068,
      "orf": 9069,
      "ames": 9070,
      "eties": 9071,
      "Ġhippocampus": 9072,
      "Ġpropose": 9073,
      "scienti": 9074,
      "Ġoverweight": 9075,
      "improve": 9076,
      "jun": 9077,
      "Ġlobe": 9078,
      "Ġadvances": 9079,
      "coll": 9080,
      "metast": 9081,
      "afts": 9082,
      "pathway": 9083,
      "Ġemotion": 9084,
      "Ġsharing": 9085,
      "Ġutilization": 9086,
      "Ġlists": 9087,
      "Ġmodulation": 9088,
      "ukary": 9089,
      "Ġpix": 9090,
      "Ġjudg": 9091,
      "inely": 9092,
      "tise": 9093,
      "Ġaccompanied": 9094,
      "datab": 9095,
      "iry": 9096,
      "Ġnav": 9097,
      "coup": 9098,
      "Ġevol": 9099,
      "Ġmoder": 9100,
      "Ġcorrespond": 9101,
      "+,": 9102,
      "neal": 9103,
      "appear": 9104,
      "signal": 9105,
      "Ġgram": 9106,
      "countries": 9107,
      "Ġletters": 9108,
      "Ġbenign": 9109,
      "Ġsouthern": 9110,
      "chen": 9111,
      "loaded": 9112,
      "Ġï¬Ĥuid": 9113,
      "Ġamerica": 9114,
      "Ġchance": 9115,
      "Ġsolvent": 9116,
      "Ġdifferentially": 9117,
      "haus": 9118,
      "erson": 9119,
      "nutrition": 9120,
      "Ġobservational": 9121,
      "Ġlinkage": 9122,
      "Ġbranch": 9123,
      "Ġanticip": 9124,
      "142": 9125,
      "Ġrheumat": 9126,
      "Ġspecimen": 9127,
      "Ġproï¬ģles": 9128,
      "Ġabundant": 9129,
      "Ġnhs": 9130,
      "incidence": 9131,
      "Ġstation": 9132,
      "Ġ82": 9133,
      "ocrin": 9134,
      "Ġfilter": 9135,
      "Ġborder": 9136,
      "Ġmicroarray": 9137,
      "interpre": 9138,
      "Ġchick": 9139,
      "Ġzinc": 9140,
      "Ġreplaced": 9141,
      "fying": 9142,
      "dev": 9143,
      "Ġ88": 9144,
      "Ġpotenti": 9145,
      "Ġasc": 9146,
      "Ġcontracep": 9147,
      "otropic": 9148,
      "Ġunlike": 9149,
      "embr": 9150,
      "Ġpresum": 9151,
      "Ġsound": 9152,
      "room": 9153,
      "Ġsugar": 9154,
      "ptin": 9155,
      "Ġens": 9156,
      "Ġlamin": 9157,
      "âī¤": 9158,
      "Ġbinds": 9159,
      "Ġhistone": 9160,
      "293": 9161,
      "sv": 9162,
      "Ġincons": 9163,
[...]
